{
  "the</w>": 4,
  ",</w>": 5,
  "of</w>": 6,
  ".</w>": 7,
  "and</w>": 8,
  "to</w>": 9,
  "in</w>": 10,
  "a</w>": 11,
  "@-@</w>": 12,
  ")</w>": 13,
  "(</w>": 14,
  "for</w>": 15,
  ":</w>": 16,
  "/</w>": 17,
  "on</w>": 18,
  "that</w>": 19,
  "The</w>": 20,
  "is</w>": 21,
  "&quot;</w>": 22,
  "with</w>": 23,
  "by</w>": 24,
  "as</w>": 25,
  "be</w>": 26,
  ";</w>": 27,
  "or</w>": 28,
  "are</w>": 29,
  "at</w>": 30,
  "was</w>": 31,
  "its</w>": 32,
  "from</w>": 33,
  "an</w>": 34,
  "United</w>": 35,
  "not</w>": 36,
  "it</w>": 37,
  "which</w>": 38,
  "&apos;s</w>": 39,
  "-</w>": 40,
  "1</w>": 41,
  "have</w>": 42,
  "this</w>": 43,
  "*</w>": 44,
  "their</w>": 45,
  "Nations</w>": 46,
  "has</w>": 47,
  "In</w>": 48,
  "all</w>": 49,
  "will</w>": 50,
  "Committee</w>": 51,
  "2</w>": 52,
  "General</w>": 53,
  "been</w>": 54,
  "also</w>": 55,
  "A</w>": 56,
  "had</w>": 57,
  "other</w>": 58,
  "States</w>": 59,
  "international</w>": 60,
  "were</w>": 61,
  "3</w>": 62,
  "should</w>": 63,
  "development</w>": 64,
  "countries</w>": 65,
  "rights</w>": 66,
  "4</w>": 67,
  "would</w>": 68,
  "It</w>": 69,
  "I</w>": 70,
  "10</w>": 71,
  "report</w>": 72,
  "Council</w>": 73,
  "such</w>": 74,
  "information</w>": 75,
  "under</w>": 76,
  "including</w>": 77,
  "5</w>": 78,
  "you</w>": 79,
  "work</w>": 80,
  "national</w>": 81,
  "human</w>": 82,
  "S": 83,
  "#</w>": 84,
  "resolution</w>": 85,
  "more</w>": 86,
  "State</w>": 87,
  "can</w>": 88,
  "one</w>": 89,
  "6</w>": 90,
  "time</w>": 91,
  "12</w>": 92,
  "support</w>": 93,
  "women</w>": 94,
  "session</w>": 95,
  "Assembly</w>": 96,
  "7</w>": 97,
  "into</w>": 98,
  "ation</w>": 99,
  "Convention</w>": 100,
  "they</w>": 101,
  "new</w>": 102,
  "made</w>": 103,
  "system</w>": 104,
  "11</w>": 105,
  "?</w>": 106,
  "8</w>": 107,
  "T": 108,
  "00</w>": 109,
  "implementation</w>": 110,
  "his</w>": 111,
  "between</w>": 112,
  "any</w>": 113,
  "activities</w>": 114,
  "well</w>": 115,
  "15</w>": 116,
  "Government</w>": 117,
  "International</w>": 118,
  "out</w>": 119,
  "Commission</w>": 120,
  "shall</w>": 121,
  "per</w>": 122,
  "Secretary</w>": 123,
  "9</w>": 124,
  "those</w>": 125,
  "against</w>": 126,
  "but</w>": 127,
  "through</w>": 128,
  "may</w>": 129,
  "country</w>": 130,
  "C": 131,
  "This</w>": 132,
  "we</w>": 133,
  "P": 134,
  "up</w>": 135,
  "meeting</w>": 136,
  "Republic</w>": 137,
  "who</w>": 138,
  "law</w>": 139,
  "use</w>": 140,
  "&#93;</w>": 141,
  "our</w>": 142,
  "number</w>": 143,
  "20</w>": 144,
  "these</w>": 145,
  "in": 146,
  "14</w>": 147,
  "there</w>": 148,
  "re": 149,
  "only</w>": 150,
  "measures</w>": 151,
  "R": 152,
  "b</w>": 153,
  "no</w>": 154,
  "16</w>": 155,
  "economic</w>": 156,
  "30</w>": 157,
  "than</w>": 158,
  "$</w>": 159,
  "cooperation</w>": 160,
  "organizations</w>": 161,
  "2": 162,
  "C</w>": 163,
  "13</w>": 164,
  "programme</w>": 165,
  "3": 166,
  "A": 167,
  "people</w>": 168,
  "M": 169,
  "them</w>": 170,
  "paragraph</w>": 171,
  "he</w>": 172,
  "first</w>": 173,
  "&#91;</w>": 174,
  "about</w>": 175,
  "two</w>": 176,
  "level</w>": 177,
  "security</w>": 178,
  "+</w>": 179,
  "18</w>": 180,
  ".": 181,
  "children</w>": 182,
  "un": 183,
  "Conference</w>": 184,
  "D": 185,
  "order</w>": 186,
  "L": 187,
  "your</w>": 188,
  "E": 189,
  "21</w>": 190,
  "services</w>": 191,
  "17</w>": 192,
  "N": 193,
  "G": 194,
  "Mr.</w>": 195,
  "cent</w>": 196,
  "years</w>": 197,
  "regional</w>": 198,
  "i</w>": 199,
  "May</w>": 200,
  "non</w>": 201,
  "draft</w>": 202,
  "provide</w>": 203,
  "22</w>": 204,
  "year</w>": 205,
  "resources</w>": 206,
  "Group</w>": 207,
  "2009</w>": 208,
  "issues</w>": 209,
  "process</w>": 210,
  "some</w>": 211,
  "4": 212,
  "19</w>": 213,
  "within</w>": 214,
  "Development</w>": 215,
  "so</w>": 216,
  "efforts</w>": 217,
  "d": 218,
  "social</w>": 219,
  "need</w>": 220,
  "article</w>": 221,
  "Security</w>": 222,
  "public</w>": 223,
  "could</w>": 224,
  "if</w>": 225,
  "Rights</w>": 226,
  "25</w>": 227,
  "during</w>": 228,
  "&apos;</w>": 229,
  "provided</w>": 230,
  "right</w>": 231,
  "I": 232,
  "H": 233,
  "members</w>": 234,
  "&gt;</w>": 235,
  "ensure</w>": 236,
  "December</w>": 237,
  "financial</w>": 238,
  "further</w>": 239,
  "K": 240,
  "2008</w>": 241,
  "E</w>": 242,
  "k": 243,
  "O": 244,
  "0": 245,
  "We</w>": 246,
  "2010</w>": 247,
  "take</w>": 248,
  "F": 249,
  "23</w>": 250,
  "following</w>": 251,
  "assistance</w>": 252,
  "B": 253,
  "ations</w>": 254,
  "decision</w>": 255,
  "based</w>": 256,
  "c</w>": 257,
  "period</w>": 258,
  "held</w>": 259,
  "over</w>": 260,
  "must</w>": 261,
  "al</w>": 262,
  "related</w>": 263,
  "particular</w>": 264,
  "Human</w>": 265,
  "most</w>": 266,
  "being</w>": 267,
  "party</w>": 268,
  "management</w>": 269,
  "24</w>": 270,
  "when</w>": 271,
  "http</w>": 272,
  "now</w>": 273,
  "persons</w>": 274,
  "part</w>": 275,
  "areas</w>": 276,
  "2011</w>": 277,
  "5": 278,
  "relevant</w>": 279,
  "=</w>": 280,
  "view</w>": 281,
  "health</w>": 282,
  "programmes</w>": 283,
  "ated</w>": 284,
  "2012</w>": 285,
  "6": 286,
  "President</w>": 287,
  "S</w>": 288,
  "2006</w>": 289,
  "e</w>": 290,
  "As</w>": 291,
  "Office</w>": 292,
  "do</w>": 293,
  "June</w>": 294,
  "Special</w>": 295,
  "legal</w>": 296,
  "said</w>": 297,
  "developing</w>": 298,
  "where</w>": 299,
  "V": 300,
  "s</w>": 301,
  "world</w>": 302,
  "ate</w>": 303,
  "adopted</w>": 304,
  "political</w>": 305,
  "2007</w>": 306,
  "At</w>": 307,
  "data</w>": 308,
  "education</w>": 309,
  "26</w>": 310,
  "staff</w>": 311,
  "action</w>": 312,
  "many</w>": 313,
  "31</w>": 314,
  "taken</w>": 315,
  "policy</w>": 316,
  "able</w>": 317,
  "2005</w>": 318,
  "27</w>": 319,
  "o</w>": 320,
  "training</w>": 321,
  "9": 322,
  "2016</w>": 323,
  "protection</w>": 324,
  "%</w>": 325,
  "p": 326,
  "W": 327,
  "after</w>": 328,
  "accordance</w>": 329,
  "set</w>": 330,
  "review</w>": 331,
  "2013</w>": 332,
  "regard</w>": 333,
  "7": 334,
  "situation</w>": 335,
  "us</w>": 336,
  "es</w>": 337,
  "same</w>": 338,
  "important</w>": 339,
  "d</w>": 340,
  "both</w>": 341,
  "parties</w>": 342,
  "special</w>": 343,
  "28</w>": 344,
  "access</w>": 345,
  "make</w>": 346,
  "used</w>": 347,
  "ating</w>": 348,
  "UN": 349,
  "agenda</w>": 350,
  "P</w>": 351,
  "case</w>": 352,
  "8": 353,
  "capacity</w>": 354,
  "AM</w>": 355,
  "possible</w>": 356,
  "established</w>": 357,
  "July</w>": 358,
  "...</w>": 359,
  "On</w>": 360,
  "among</w>": 361,
  "see</w>": 362,
  "Con": 363,
  "European</w>": 364,
  "m</w>": 365,
  "November</w>": 366,
  "effective</w>": 367,
  "place</w>": 368,
  "29</w>": 369,
  "For</w>": 370,
  "before</w>": 371,
  "reports</w>": 372,
  "U": 373,
  "s": 374,
  "National</w>": 375,
  "continue</w>": 376,
  "community</w>": 377,
  "peace</w>": 378,
  "region</w>": 379,
  "1": 380,
  "Programme</w>": 381,
  "present</w>": 382,
  "available</w>": 383,
  "October</w>": 384,
  "In": 385,
  "Organization</w>": 386,
  "To</w>": 387,
  "recommendations</w>": 388,
  "&lt;</w>": 389,
  "respect</w>": 390,
  "technical</w>": 391,
  "working</w>": 392,
  "September</w>": 393,
  "Working</w>": 394,
  "necessary</w>": 395,
  "Parties</w>": 396,
  "area</w>": 397,
  "_</w>": 398,
  "en": 399,
  "three</w>": 400,
  "basis</w>": 401,
  "y": 402,
  "o": 403,
  "Pro": 404,
  "without</w>": 405,
  "z": 406,
  "PM</w>": 407,
  "01</w>": 408,
  "building</w>": 409,
  "each</w>": 410,
  "high</w>": 411,
  "item</w>": 412,
  "World</w>": 413,
  "March</w>": 414,
  "ing</w>": 415,
  "t": 416,
  "role</w>": 417,
  "end</w>": 418,
  "c": 419,
  "cases</w>": 420,
  "Member</w>": 421,
  "04</w>": 422,
  "m": 423,
  "al": 424,
  "50</w>": 425,
  "2004</w>": 426,
  "!</w>": 427,
  "global</w>": 428,
  "progress</w>": 429,
  "Phone</w>": 430,
  "since</w>": 431,
  "02</w>": 432,
  "appropriate</w>": 433,
  "general</w>": 434,
  "provisions</w>": 435,
  "group</w>": 436,
  "nuclear</w>": 437,
  "groups</w>": 438,
  "Economic</w>": 439,
  "local</w>": 440,
  "full</w>": 441,
  "03</w>": 442,
  "06</w>": 443,
  "R</w>": 444,
  "way</w>": 445,
  "Board</w>": 446,
  "B</w>": 447,
  "i": 448,
  "de</w>": 449,
  "He</w>": 450,
  "v": 451,
  "D</w>": 452,
  "million</w>": 453,
  "project</w>": 454,
  "January</w>": 455,
  "Russian</w>": 456,
  "currently</w>": 457,
  "institutions</w>": 458,
  "requirements</w>": 459,
  "New</w>": 460,
  "April</w>": 461,
  "tions</w>": 462,
  "Africa</w>": 463,
  "trade</w>": 464,
  "05</w>": 465,
  "g": 466,
  "meetings</w>": 467,
  "requested</w>": 468,
  "specific</w>": 469,
  "very</w>": 470,
  "account</w>": 471,
  "budget</w>": 472,
  "u": 473,
  "considered</w>": 474,
  "violence</w>": 475,
  "include</w>": 476,
  "document</w>": 477,
  "e": 478,
  "conditions</w>": 479,
  "noted</w>": 480,
  "service</w>": 481,
  "If</w>": 482,
  "2014</w>": 483,
  "Social</w>": 484,
  "issue</w>": 485,
  "policies</w>": 486,
  "consideration</w>": 487,
  "increase</w>": 488,
  "Article</w>": 489,
  "field</w>": 490,
  "while</w>": 491,
  "authorities</w>": 492,
  "2003</w>": 493,
  "40</w>": 494,
  "upon</w>": 495,
  "2000</w>": 496,
  "needs</w>": 497,
  "what</w>": 498,
  "required</w>": 499,
  "age</w>": 500,
  "proposed</w>": 501,
  "South</w>": 502,
  "second</w>": 503,
  "developed</w>": 504,
  "07</w>": 505,
  "am</w>": 506,
  "gender</w>": 507,
  "current</w>": 508,
  "like</w>": 509,
  "sector</w>": 510,
  "g</w>": 511,
  "08</w>": 512,
  "concerned</w>": 513,
  "how</w>": 514,
  "19": 515,
  "ting</w>": 516,
  "various</w>": 517,
  "control</w>": 518,
  "bodies</w>": 519,
  "n": 520,
  "her</w>": 521,
  "framework</w>": 522,
  "2015</w>": 523,
  "systems</w>": 524,
  "submitted</w>": 525,
  "2002</w>": 526,
  "There</w>": 527,
  "my</w>": 528,
  "a": 529,
  "term</w>": 530,
  "09</w>": 531,
  "delegation</w>": 532,
  "f": 533,
  "future</w>": 534,
  "different</w>": 535,
  "participation</w>": 536,
  "ad": 537,
  "projects</w>": 538,
  "above</w>": 539,
  "given</w>": 540,
  "0</w>": 541,
  "water</w>": 542,
  "F</w>": 543,
  "private</w>": 544,
  "means</w>": 545,
  "African</w>": 546,
  "Court</w>": 547,
  "an": 548,
  "society</w>": 549,
  "Z": 550,
  "dis": 551,
  "military</w>": 552,
  "Re": 553,
  "r": 554,
  "life</w>": 555,
  "ar": 556,
  "No.</w>": 557,
  "plan</w>": 558,
  "addition</w>": 559,
  "b": 560,
  "continued</w>": 561,
  "particularly</w>": 562,
  "2001</w>": 563,
  "t</w>": 564,
  "sustainable</w>": 565,
  "total</w>": 566,
  "j": 567,
  "address</w>": 568,
  "Union</w>": 569,
  "www.": 570,
  "zation</w>": 571,
  "August</w>": 572,
  "because</w>": 573,
  "importance</w>": 574,
  "results</w>": 575,
  "February</w>": 576,
  "additional</w>": 577,
  "population</w>": 578,
  "or": 579,
  "levels</w>": 580,
  "However</w>": 581,
  "free</w>": 582,
  "Fund</w>": 583,
  "note</w>": 584,
  "M</w>": 585,
  "im": 586,
  "Ministry</w>": 587,
  "representatives</w>": 588,
  "15": 589,
  "member</w>": 590,
  "land</w>": 591,
  "promote</w>": 592,
  "er": 593,
  "long</w>": 594,
  "2.": 595,
  "at": 596,
  "conflict</w>": 597,
  "production</w>": 598,
  "II</w>": 599,
  "change</w>": 600,
  "v</w>": 601,
  "form</w>": 602,
  "h": 603,
  "Women</w>": 604,
  "sub": 605,
  "discrimination</w>": 606,
  "All</w>": 607,
  "O</w>": 608,
  "concerning</w>": 609,
  "48</w>": 610,
  "1998</w>": 611,
  "Law</w>": 612,
  "1.": 613,
  "Department</w>": 614,
  "force</w>": 615,
  "L</w>": 616,
  "even</w>": 617,
  "32</w>": 618,
  "l": 619,
  "operations</w>": 620,
  "°</w>": 621,
  "di": 622,
  "result</w>": 623,
  "child</w>": 624,
  "1999</w>": 625,
  "organization</w>": 626,
  "civil</w>": 627,
  "18": 628,
  "agreed</w>": 629,
  "ed</w>": 630,
  "IS": 631,
  "16": 632,
  "agencies</w>": 633,
  "it": 634,
  "Protocol</w>": 635,
  "police</w>": 636,
  "status</w>": 637,
  "did</w>": 638,
  "received</w>": 639,
  "Action</w>": 640,
  "k</w>": 641,
  "1995</w>": 642,
  "day</w>": 643,
  "33</w>": 644,
  "Posted</w>": 645,
  "request</w>": 646,
  "ates</w>": 647,
  "major</w>": 648,
  "er</w>": 649,
  "governmental</w>": 650,
  "35</w>": 651,
  "own</w>": 652,
  "legislation</w>": 653,
  "Secretariat</w>": 654,
  "en</w>": 655,
  "u</w>": 656,
  "14": 657,
  "Ex": 658,
  "ts</w>": 659,
  "application</w>": 660,
  "humanitarian</w>": 661,
  "environmental</w>": 662,
  "whether</w>": 663,
  "attention</w>": 664,
  "person</w>": 665,
  "resolutions</w>": 666,
  "government</w>": 667,
  "secretariat</w>": 668,
  "49</w>": 669,
  "impact</w>": 670,
  "does</w>": 671,
  "main</w>": 672,
  "Governments</w>": 673,
  "They</w>": 674,
  "quality</w>": 675,
  "Affairs</w>": 676,
  "ri": 677,
  "third</w>": 678,
  "fully</w>": 679,
  "Act</w>": 680,
  "context</w>": 681,
  "found</w>": 682,
  "towards</w>": 683,
  "li": 684,
  "ative</w>": 685,
  "making</w>": 686,
  "de": 687,
  "1997</w>": 688,
  "1994</w>": 689,
  "standards</w>": 690,
  "representative</w>": 691,
  "contained</w>": 692,
  "then</w>": 693,
  "ex": 694,
  "existing</w>": 695,
  "En": 696,
  "monitoring</w>": 697,
  "RE": 698,
  "approach</w>": 699,
  "good</w>": 700,
  "him</w>": 701,
  "question</w>": 702,
  "included</w>": 703,
  "personnel</w>": 704,
  "family</w>": 705,
  "establishment</w>": 706,
  "environment</w>": 707,
  "business</w>": 708,
  "market</w>": 709,
  "consider</w>": 710,
  "equipment</w>": 711,
  "costs</w>": 712,
  "Mission</w>": 713,
  "1996</w>": 714,
  "poverty</w>": 715,
  "line</w>": 716,
  "state</w>": 717,
  "20": 718,
  "weapons</w>": 719,
  "example</w>": 720,
  "subject</w>": 721,
  "terms</w>": 722,
  "inter": 723,
  "45</w>": 724,
  "position</w>": 725,
  "13": 726,
  "due</w>": 727,
  "technology</w>": 728,
  "procedures</w>": 729,
  "energy</w>": 730,
  "small</w>": 731,
  "men</w>": 732,
  "last</w>": 733,
  "th": 734,
  "Party</w>": 735,
  "IC": 736,
  "ab": 737,
  "ment</w>": 738,
  "You</w>": 739,
  "Y": 740,
  "am": 741,
  "60</w>": 742,
  "These</w>": 743,
  "increased</w>": 744,
  "st": 745,
  "fact</w>": 746,
  "amount</w>": 747,
  "therefore</w>": 748,
  "34</w>": 749,
  "provision</w>": 750,
  "help</w>": 751,
  "especially</w>": 752,
  "concern</w>": 753,
  "as": 754,
  "date</w>": 755,
  "rules</w>": 756,
  "Europe</w>": 757,
  "treatment</w>": 758,
  "Rapporteur</w>": 759,
  "G</w>": 760,
  "n</w>": 761,
  "IN": 762,
  "relating</w>": 763,
  "expressed</w>": 764,
  "L.": 765,
  "51</w>": 766,
  "mandate</w>": 767,
  "6.": 768,
  "ers</w>": 769,
  "Kazakhstan</w>": 770,
  "still</w>": 771,
  "problems</w>": 772,
  "agreement</w>": 773,
  "High</w>": 774,
  "several</w>": 775,
  "list</w>": 776,
  "Executive</w>": 777,
  "taking</w>": 778,
  "tion</w>": 779,
  "36</w>": 780,
  "ic": 781,
  "ted</w>": 782,
  "annex</w>": 783,
  "With</w>": 784,
  "cost</w>": 785,
  "reporting</w>": 786,
  "J": 787,
  "statement</w>": 788,
  "x</w>": 789,
  "care</w>": 790,
  "domestic</w>": 791,
  "37</w>": 792,
  "took</w>": 793,
  "--</w>": 794,
  "regarding</w>": 795,
  "criminal</w>": 796,
  "Minister</w>": 797,
  "EN": 798,
  "17": 799,
  "ti": 800,
  "best</w>": 801,
  "CE": 802,
  "Declaration</w>": 803,
  "And</w>": 804,
  "provides</w>": 805,
  "Sub": 806,
  "documents</w>": 807,
  "52</w>": 808,
  "principles</w>": 809,
  "already</w>": 810,
  "called</w>": 811,
  "alization</w>": 812,
  "55</w>": 813,
  "improve</w>": 814,
  "EC": 815,
  "key</w>": 816,
  "para</w>": 817,
  "reported</w>": 818,
  "file</w>": 819,
  "r</w>": 820,
  "38</w>": 821,
  "f</w>": 822,
  "Reply</w>": 823,
  "comprehensive</w>": 824,
  "justice</w>": 825,
  "25": 826,
  "least</w>": 827,
  "th</w>": 828,
  "transport</w>": 829,
  "decisions</w>": 830,
  "coordination</w>": 831,
  "10": 832,
  "44</w>": 833,
  "39</w>": 834,
  "3.": 835,
  "risk</w>": 836,
  "on": 837,
  "si": 838,
  "me</w>": 839,
  "ant</w>": 840,
  "C.": 841,
  "official</w>": 842,
  "X": 843,
  "open</w>": 844,
  "providing</w>": 845,
  "responsibility</w>": 846,
  "con": 847,
  "41</w>": 848,
  "ent</w>": 849,
  "Report</w>": 850,
  "entitled</w>": 851,
  "implement</w>": 852,
  "&amp;</w>": 853,
  "power</w>": 854,
  "Service</w>": 855,
  "procedure</w>": 856,
  "assessment</w>": 857,
  "practices</w>": 858,
  "large</w>": 859,
  "decided</w>": 860,
  "common</w>": 861,
  "foreign</w>": 862,
  "ir": 863,
  "addressed</w>": 864,
  "cultural</w>": 865,
  "growth</w>": 866,
  "57</w>": 867,
  "als</w>": 868,
  "5.": 869,
  "obligations</w>": 870,
  "section</w>": 871,
  "42</w>": 872,
  "Russia</w>": 873,
  "mechanisms</w>": 874,
  "post</w>": 875,
  "l</w>": 876,
  "47</w>": 877,
  "Bank</w>": 878,
  "pre": 879,
  "inter</w>": 880,
  "OF</w>": 881,
  "ha": 882,
  "pro": 883,
  "every</w>": 884,
  "develop</w>": 885,
  "THE</w>": 886,
  "IT": 887,
  "response</w>": 888,
  "just</w>": 889,
  "days</w>": 890,
  "y</w>": 891,
  "strengthen</w>": 892,
  "4.": 893,
  "adoption</w>": 894,
  "Al": 895,
  "become</w>": 896,
  "funds</w>": 897,
  "America</w>": 898,
  "China</w>": 899,
  "using</w>": 900,
  "Israel</w>": 901,
  "ance</w>": 902,
  "mission</w>": 903,
  "53</w>": 904,
  "54</w>": 905,
  "light</w>": 906,
  "43</w>": 907,
  "next</w>": 908,
  "em": 909,
  "58</w>": 910,
  "59</w>": 911,
  "46</w>": 912,
  "recent</w>": 913,
  "certain</w>": 914,
  "armed</w>": 915,
  "actions</w>": 916,
  "ding</w>": 917,
  "food</w>": 918,
  "rate</w>": 919,
  "Central</w>": 920,
  "four</w>": 921,
  "less</w>": 922,
  "significant</w>": 923,
  "T</w>": 924,
  "Arab</w>": 925,
  "research</w>": 926,
  "ro": 927,
  "Federation</w>": 928,
  "five</w>": 929,
  "100</w>": 930,
  "might</w>": 931,
  "AT": 932,
  "together</w>": 933,
  "another</w>": 934,
  "Centre</w>": 935,
  "point</w>": 936,
  "indigenous</w>": 937,
  "es": 938,
  "p</w>": 939,
  "follow</w>": 940,
  "products</w>": 941,
  "Other</w>": 942,
  "ability</w>": 943,
  "AL</w>": 944,
  "ac": 945,
  "trans": 946,
  "Palestinian</w>": 947,
  "carried</w>": 948,
  "56</w>": 949,
  "better</w>": 950,
  "administrative</w>": 951,
  "Information</w>": 952,
  "1993</w>": 953,
  "form": 954,
  "space</w>": 955,
  "contributions</w>": 956,
  "@</w>": 957,
  "ag": 958,
  "however</w>": 959,
  "regular</w>": 960,
  "ch": 961,
  "individual</w>": 962,
  "practice</w>": 963,
  "East</w>": 964,
  "strengthening</w>": 965,
  "Advisory</w>": 966,
  "integration</w>": 967,
  "rule</w>": 968,
  "Chairman</w>": 969,
  "company</w>": 970,
  "sp": 971,
  "victims</w>": 972,
  "employment</w>": 973,
  "approved</w>": 974,
  "challenges</w>": 975,
  "performance</w>": 976,
  "per": 977,
  "ar</w>": 978,
  "UNDP</w>": 979,
  "2017</w>": 980,
  "organized</w>": 981,
  "below</w>": 982,
  "give</w>": 983,
  "interest</w>": 984,
  "zed</w>": 985,
  "analysis</w>": 986,
  "acts</w>": 987,
  "Com": 988,
  "zing</w>": 989,
  "forces</w>": 990,
  "establish</w>": 991,
  "il": 992,
  "investment</w>": 993,
  "according</w>": 994,
  "h</w>": 995,
  "planning</w>": 996,
  "experience</w>": 997,
  "informed</w>": 998,
  "Code</w>": 999,
  "annual</w>": 1000,
  "problem</w>": 1001,
  "purpose</w>": 1002,
  "missions</w>": 1003,
  "consultations</w>": 1004,
  "ational</w>": 1005,
  "strategy</w>": 1006,
  "ze</w>": 1007,
  "lack</w>": 1008,
  "income</w>": 1009,
  "office</w>": 1010,
  "act</w>": 1011,
  "CO": 1012,
  "she</w>": 1013,
  "meet</w>": 1014,
  "value</w>": 1015,
  "much</w>": 1016,
  "times</w>": 1017,
  "over": 1018,
  "joint</w>": 1019,
  "needed</w>": 1020,
  "responsible</w>": 1021,
  "facilities</w>": 1022,
  "Director</w>": 1023,
  "Asia</w>": 1024,
  "prepared</w>": 1025,
  "body</w>": 1026,
  "property</w>": 1027,
  "st</w>": 1028,
  "7.": 1029,
  "fication</w>": 1030,
  "x": 1031,
  "ms</w>": 1032,
  ".com</w>": 1033,
  "During</w>": 1034,
  "dated</w>": 1035,
  "agreements</w>": 1036,
  "UN</w>": 1037,
  "recommended</w>": 1038,
  "um</w>": 1039,
  "discussion</w>": 1040,
  "commitment</w>": 1041,
  "behalf</w>": 1042,
  "experts</w>": 1043,
  "But</w>": 1044,
  "wipe</w>": 1045,
  "months</w>": 1046,
  "city</w>": 1047,
  "safety</w>": 1048,
  "initiatives</w>": 1049,
  "&apos;t</w>": 1050,
  "matters</w>": 1051,
  "dialogue</w>": 1052,
  "course</w>": 1053,
  "great</w>": 1054,
  "matter</w>": 1055,
  "ings</w>": 1056,
  "changes</w>": 1057,
  "Representative</w>": 1058,
  "priority</w>": 1059,
  "H</w>": 1060,
  "exchange</w>": 1061,
  "text</w>": 1062,
  "living</w>": 1063,
  "III</w>": 1064,
  "Annex</w>": 1065,
  "Geneva</w>": 1066,
  "site</w>": 1067,
  "direct</w>": 1068,
  "While</w>": 1069,
  "peoples</w>": 1070,
  "expected</w>": 1071,
  "prevention</w>": 1072,
  "presented</w>": 1073,
  "previous</w>": 1074,
  "natural</w>": 1075,
  "plans</w>": 1076,
  "terrorism</w>": 1077,
  "early</w>": 1078,
  "se</w>": 1079,
  "knowledge</w>": 1080,
  "laws</w>": 1081,
  "violations</w>": 1082,
  "involved</w>": 1083,
  "equality</w>": 1084,
  "el": 1085,
  "proposal</w>": 1086,
  "instruments</w>": 1087,
  "8.": 1088,
  "focus</w>": 1089,
  "man</w>": 1090,
  "One</w>": 1091,
  "z</w>": 1092,
  "Meeting</w>": 1093,
  "active</w>": 1094,
  "ol": 1095,
  "promotion</w>": 1096,
  "forms</w>": 1097,
  "aimed</w>": 1098,
  "go</w>": 1099,
  "reform</w>": 1100,
  "disarmament</w>": 1101,
  "media</w>": 1102,
  "atory</w>": 1103,
  "ally</w>": 1104,
  "posts</w>": 1105,
  "type</w>": 1106,
  "air</w>": 1107,
  "prevent</w>": 1108,
  "proposals</w>": 1109,
  "requests</w>": 1110,
  "partners</w>": 1111,
  "nature</w>": 1112,
  "put</w>": 1113,
  "supported</w>": 1114,
  "potential</w>": 1115,
  "study</w>": 1116,
  "steps</w>": 1117,
  "reduction</w>": 1118,
  "Covenant</w>": 1119,
  "clear</w>": 1120,
  "communication</w>": 1121,
  "Agreement</w>": 1122,
  "Iraq</w>": 1123,
  "led</w>": 1124,
  "Ms.</w>": 1125,
  "reference</w>": 1126,
  "ap": 1127,
  "basic</w>": 1128,
  "test</w>": 1129,
  "crime</w>": 1130,
  "stated</w>": 1131,
  "ER": 1132,
  "trafficking</w>": 1133,
  "past</w>": 1134,
  "30": 1135,
  "ator</w>": 1136,
  "That</w>": 1137,
  "issued</w>": 1138,
  "operation</w>": 1139,
  "know</w>": 1140,
  "funding</w>": 1141,
  "committed</w>": 1142,
  "implemented</w>": 1143,
  "range</w>": 1144,
  "des</w>": 1145,
  "objectives</w>": 1146,
  "having</w>": 1147,
  "Ukraine</w>": 1148,
  "serious</w>": 1149,
  "author</w>": 1150,
  "thus</w>": 1151,
  "ants</w>": 1152,
  "treaty</w>": 1153,
  "low</w>": 1154,
  "self</w>": 1155,
  "achieve</w>": 1156,
  "language</w>": 1157,
  "compliance</w>": 1158,
  "often</w>": 1159,
  "ECE</w>": 1160,
  "V</w>": 1161,
  "Ad": 1162,
  "authority</w>": 1163,
  "effect</w>": 1164,
  "statements</w>": 1165,
  "Foreign</w>": 1166,
  "come</w>": 1167,
  "sh": 1168,
  "principle</w>": 1169,
  "63</w>": 1170,
  "equal</w>": 1171,
  "65</w>": 1172,
  "ul": 1173,
  "implementing</w>": 1174,
  "ements</w>": 1175,
  "court</w>": 1176,
  "others</w>": 1177,
  "According</w>": 1178,
  "connection</w>": 1179,
  "conference</w>": 1180,
  "operational</w>": 1181,
  "greater</w>": 1182,
  "school</w>": 1183,
  "until</w>": 1184,
  "is": 1185,
  "lo": 1186,
  "sexual</w>": 1187,
  "Ac": 1188,
  "Dis": 1189,
  "12": 1190,
  "HIV</w>": 1191,
  "Kingdom</w>": 1192,
  "communities</w>": 1193,
  "promoting</w>": 1194,
  "name</w>": 1195,
  "bi": 1196,
  "notes</w>": 1197,
  "arms</w>": 1198,
  "Trade</w>": 1199,
  "strategies</w>": 1200,
  "W</w>": 1201,
  "affected</w>": 1202,
  "table</w>": 1203,
  "back</w>": 1204,
  "peacekeeping</w>": 1205,
  "workers</w>": 1206,
  "facilitate</w>": 1207,
  "material</w>": 1208,
  "yet</w>": 1209,
  "9.": 1210,
  "activity</w>": 1211,
  "strategic</w>": 1212,
  "Criminal</w>": 1213,
  "awareness</w>": 1214,
  "limited</w>": 1215,
  "Ar": 1216,
  "ages</w>": 1217,
  "co": 1218,
  "questions</w>": 1219,
  "processes</w>": 1220,
  "US</w>": 1221,
  "Management</w>": 1222,
  "economy</w>": 1223,
  "sion</w>": 1224,
  "Division</w>": 1225,
  "64</w>": 1226,
  "room</w>": 1227,
  "26": 1228,
  "ement</w>": 1229,
  "Agenda</w>": 1230,
  "ways</w>": 1231,
  "An</w>": 1232,
  "Treaty</w>": 1233,
  "opportunity</w>": 1234,
  "aspects</w>": 1235,
  "AN": 1236,
  "understanding</w>": 1237,
  "adequate</w>": 1238,
  "offices</w>": 1239,
  "find</w>": 1240,
  "De": 1241,
  "functions</w>": 1242,
  "St": 1243,
  "former</w>": 1244,
  "00": 1245,
  "independent</w>": 1246,
  "goods</w>": 1247,
  ".1</w>": 1248,
  "opportunities</w>": 1249,
  "el</w>": 1250,
  "arrangements</w>": 1251,
  "evaluation</w>": 1252,
  "essential</w>": 1253,
  "par": 1254,
  "Constitution</w>": 1255,
  "ed": 1256,
  "Commissioner</w>": 1257,
  "participants</w>": 1258,
  "Permanent</w>": 1259,
  "territory</w>": 1260,
  "Armenia</w>": 1261,
  "biennium</w>": 1262,
  "AIDS</w>": 1263,
  "regions</w>": 1264,
  "preparation</w>": 1265,
  "medical</w>": 1266,
  "referred</w>": 1267,
  "Inter": 1268,
  "ments</w>": 1269,
  "te": 1270,
  "ter</w>": 1271,
  "officials</w>": 1272,
  "ensuring</w>": 1273,
  "financing</w>": 1274,
  "war</w>": 1275,
  "detention</w>": 1276,
  "wish</w>": 1277,
  "undertaken</w>": 1278,
  "articles</w>": 1279,
  "guidelines</w>": 1280,
  "Germany</w>": 1281,
  "events</w>": 1282,
  "61</w>": 1283,
  "delegations</w>": 1284,
  "climate</w>": 1285,
  "materials</w>": 1286,
  "increasing</w>": 1287,
  "individuals</w>": 1288,
  "Forum</w>": 1289,
  "cannot</w>": 1290,
  "infrastructure</w>": 1291,
  "paragraphs</w>": 1292,
  "transfer</w>": 1293,
  "far</w>": 1294,
  "higher</w>": 1295,
  "ur": 1296,
  "items</w>": 1297,
  "w": 1298,
  "freedom</w>": 1299,
  "AM": 1300,
  "assist</w>": 1301,
  "down</w>": 1302,
  "ency</w>": 1303,
  "Agency</w>": 1304,
  "done</w>": 1305,
  "ality</w>": 1306,
  "recognized</w>": 1307,
  "judicial</w>": 1308,
  "80</w>": 1309,
  "York</w>": 1310,
  "labour</w>": 1311,
  "final</w>": 1312,
  "His</w>": 1313,
  "companies</w>": 1314,
  "U</w>": 1315,
  "France</w>": 1316,
  "hours</w>": 1317,
  "whole</w>": 1318,
  "Global</w>": 1319,
  "ES": 1320,
  "wide</w>": 1321,
  "Tribunal</w>": 1322,
  "conducted</w>": 1323,
  "recommendation</w>": 1324,
  "contribute</w>": 1325,
  "views</w>": 1326,
  "crisis</w>": 1327,
  "ent": 1328,
  "around</w>": 1329,
  "today</w>": 1330,
  "mentioned</w>": 1331,
  "directly</w>": 1332,
  "conduct</w>": 1333,
  "works</w>": 1334,
  "negotiations</w>": 1335,
  "relations</w>": 1336,
  "om": 1337,
  "Plan</w>": 1338,
  "When</w>": 1339,
  "benefits</w>": 1340,
  "Belarus</w>": 1341,
  "Cooperation</w>": 1342,
  "six</w>": 1343,
  "pursuant</w>": 1344,
  "informal</w>": 1345,
  "enhance</w>": 1346,
  "ak": 1347,
  "torture</w>": 1348,
  "comm": 1349,
  "0.": 1350,
  "28": 1351,
  "Public</w>": 1352,
  "under": 1353,
  "te</w>": 1354,
  "se": 1355,
  "forum</w>": 1356,
  "construction</w>": 1357,
  "Justice</w>": 1358,
  "integrated</w>": 1359,
  "protect</w>": 1360,
  "team</w>": 1361,
  "IS</w>": 1362,
  "vehicle</w>": 1363,
  "enable</w>": 1364,
  "et</w>": 1365,
  "AR": 1366,
  "ses</w>": 1367,
  "citizens</w>": 1368,
  "ec": 1369,
  "internal</w>": 1370,
  "Charter</w>": 1371,
  "A.</w>": 1372,
  "62</w>": 1373,
  "here</w>": 1374,
  "rates</w>": 1375,
  "mechanism</w>": 1376,
  "create</w>": 1377,
  "ot": 1378,
  "N</w>": 1379,
  "young</w>": 1380,
  "overall</w>": 1381,
  "Institute</w>": 1382,
  "Democratic</w>": 1383,
  "manner</w>": 1384,
  "goals</w>": 1385,
  "ad</w>": 1386,
  "tive</w>": 1387,
  "mo": 1388,
  "close</w>": 1389,
  "sions</w>": 1390,
  "fundamental</w>": 1391,
  "page</w>": 1392,
  "contribution</w>": 1393,
  "girls</w>": 1394,
  "ly</w>": 1395,
  "&apos;": 1396,
  "old</w>": 1397,
  "visit</w>": 1398,
  "Some</w>": 1399,
  "Regional</w>": 1400,
  "positive</w>": 1401,
  "alized</w>": 1402,
  "Mobile</w>": 1403,
  "points</w>": 1404,
  "pm</w>": 1405,
  "27": 1406,
  "allow</w>": 1407,
  "evidence</w>": 1408,
  "ans</w>": 1409,
  "get</w>": 1410,
  "Dec": 1411,
  "administration</w>": 1412,
  "us": 1413,
  "approval</w>": 1414,
  "remain</w>": 1415,
  "ic</w>": 1416,
  "capital</w>": 1417,
  "letter</w>": 1418,
  "ine</w>": 1419,
  "submit</w>": 1420,
  "participate</w>": 1421,
  "actual</w>": 1422,
  "purposes</w>": 1423,
  "reduce</w>": 1424,
  "CH": 1425,
  "indicated</w>": 1426,
  "AC": 1427,
  "Japan</w>": 1428,
  "Since</w>": 1429,
  "ary</w>": 1430,
  "ST": 1431,
  "о": 1432,
  "sources</w>": 1433,
  "No</w>": 1434,
  "ren": 1435,
  "Review</w>": 1436,
  "officers</w>": 1437,
  "share</w>": 1438,
  "rural</w>": 1439,
  "American</w>": 1440,
  "refugees</w>": 1441,
  "God</w>": 1442,
  "sessions</w>": 1443,
  "effects</w>": 1444,
  "Under</w>": 1445,
  ".org</w>": 1446,
  "AD": 1447,
  "regulations</w>": 1448,
  "standard</w>": 1449,
  "Implementation</w>": 1450,
  "Israeli</w>": 1451,
  "event</w>": 1452,
  "People</w>": 1453,
  "structure</w>": 1454,
  "enti": 1455,
  "itself</w>": 1456,
  "side</w>": 1457,
  "includes</w>": 1458,
  "expert</w>": 1459,
  "communications</w>": 1460,
  "Protection</w>": 1461,
  "su": 1462,
  "keeping</w>": 1463,
  "technologies</w>": 1464,
  "few</w>": 1465,
  "formal</w>": 1466,
  "complete</w>": 1467,
  "play</w>": 1468,
  "ge": 1469,
  "concerns</w>": 1470,
  "created</w>": 1471,
  "exercise</w>": 1472,
  "gas</w>": 1473,
  "identified</w>": 1474,
  "crimes</w>": 1475,
  "return</w>": 1476,
  "forward</w>": 1477,
  "off</w>": 1478,
  "again</w>": 1479,
  "real</w>": 1480,
  "90</w>": 1481,
  "alia</w>": 1482,
  "industry</w>": 1483,
  "strong</w>": 1484,
  "call</w>": 1485,
  "K</w>": 1486,
  "67</w>": 1487,
  "Canada</w>": 1488,
  "whose</w>": 1489,
  "70</w>": 1490,
  "66</w>": 1491,
  "Force</w>": 1492,
  "out": 1493,
  "ended</w>": 1494,
  "methods</w>": 1495,
  "ethnic</w>": 1496,
  "ical</w>": 1497,
  "X</w>": 1498,
  "provisional</w>": 1499,
  "е": 1500,
  "1992</w>": 1501,
  "elements</w>": 1502,
  "ov": 1503,
  "Di": 1504,
  "there": 1505,
  "design</w>": 1506,
  "apply</w>": 1507,
  "lead</w>": 1508,
  "What</w>": 1509,
  "enforcement</w>": 1510,
  "achieved</w>": 1511,
  "recommends</w>": 1512,
  "applied</w>": 1513,
  "primary</w>": 1514,
  "remains</w>": 1515,
  "Support</w>": 1516,
  "UNO": 1517,
  "bring</w>": 1518,
  "res</w>": 1519,
  "comments</w>": 1520,
  "fy</w>": 1521,
  "throughout</w>": 1522,
  "Health</w>": 1523,
  "ents</w>": 1524,
  "Panel</w>": 1525,
  "Add.": 1526,
  "commitments</w>": 1527,
  "ological</w>": 1528,
  "objective</w>": 1529,
  "art</w>": 1530,
  "ci": 1531,
  "First</w>": 1532,
  "vi": 1533,
  "ev": 1534,
  "death</w>": 1535,
  "revised</w>": 1536,
  "always</w>": 1537,
  "entities</w>": 1538,
  "fourth</w>": 1539,
  "efficiency</w>": 1540,
  "Non</w>": 1541,
  "centres</w>": 1542,
  "border</w>": 1543,
  "committee</w>": 1544,
  "families</w>": 1545,
  "vote</w>": 1546,
  "Environment</w>": 1547,
  "introduced</w>": 1548,
  "words</w>": 1549,
  "resource</w>": 1550,
  "Ch": 1551,
  "receive</w>": 1552,
  "proceedings</w>": 1553,
  "ne": 1554,
  "TI": 1555,
  "circumstances</w>": 1556,
  "parts</w>": 1557,
  "interests</w>": 1558,
  "elections</w>": 1559,
  "Section</w>": 1560,
  "delivery</w>": 1561,
  "institutional</w>": 1562,
  "indicators</w>": 1563,
  "met</w>": 1564,
  "operating</w>": 1565,
  "oil</w>": 1566,
  "invited</w>": 1567,
  "ity</w>": 1568,
  "network</w>": 1569,
  "Min": 1570,
  "improving</w>": 1571,
  "either</w>": 1572,
  "sectors</w>": 1573,
  "Millennium</w>": 1574,
  "ob": 1575,
  "maintenance</w>": 1576,
  "29": 1577,
  "outcome</w>": 1578,
  "multilateral</w>": 1579,
  "CC": 1580,
  "Services</w>": 1581,
  "po": 1582,
  "designed</w>": 1583,
  "By</w>": 1584,
  "gu": 1585,
  "vehicles</w>": 1586,
  "read</w>": 1587,
  "brought</w>": 1588,
  "similar</w>": 1589,
  "а": 1590,
  "signed</w>": 1591,
  "After</w>": 1592,
  "hand</w>": 1593,
  "religious</w>": 1594,
  "discussed</w>": 1595,
  "follows</w>": 1596,
  "schools</w>": 1597,
  "OR": 1598,
  "mi": 1599,
  "developments</w>": 1600,
  "statistics</w>": 1601,
  "IV</w>": 1602,
  "road</w>": 1603,
  "themselves</w>": 1604,
  "travel</w>": 1605,
  "India</w>": 1606,
  "op": 1607,
  "periodic</w>": 1608,
  "com": 1609,
  "kind</w>": 1610,
  "discussions</w>": 1611,
  "Sudan</w>": 1612,
  "transition</w>": 1613,
  "benefit</w>": 1614,
  "require</w>": 1615,
  "ES</w>": 1616,
  "urban</w>": 1617,
  "Summit</w>": 1618,
  "Par": 1619,
  "US": 1620,
  "ongoing</w>": 1621,
  "supply</w>": 1622,
  "housing</w>": 1623,
  "program</w>": 1624,
  "face</w>": 1625,
  "ons</w>": 1626,
  "critical</w>": 1627,
  "English</w>": 1628,
  ",": 1629,
  "pay</w>": 1630,
  "ded</w>": 1631,
  "prior</w>": 1632,
  "drug</w>": 1633,
  "ing": 1634,
  "ati": 1635,
  "associated</w>": 1636,
  "claims</w>": 1637,
  "Such</w>": 1638,
  "ties</w>": 1639,
  "initiative</w>": 1640,
  "difficult</w>": 1641,
  "mental</w>": 1642,
  "ure</w>": 1643,
  "km</w>": 1644,
  "distribution</w>": 1645,
  "Sh": 1646,
  "av": 1647,
  "substantive</w>": 1648,
  "effectively</w>": 1649,
  "ter": 1650,
  "Regulation</w>": 1651,
  "scale</w>": 1652,
  "ali": 1653,
  "outside</w>": 1654,
  "68</w>": 1655,
  "estimated</w>": 1656,
  "once</w>": 1657,
  "fifty</w>": 1658,
  "ov</w>": 1659,
  "URL</w>": 1660,
  "Also</w>": 1661,
  "75</w>": 1662,
  "Administrative</w>": 1663,
  "ni": 1664,
  "welcomed</w>": 1665,
  "physical</w>": 1666,
  "AND</w>": 1667,
  "source</w>": 1668,
  "UNCTAD</w>": 1669,
  "40": 1670,
  "EU</w>": 1671,
  "Gu": 1672,
  "UNICEF</w>": 1673,
  "settlement</w>": 1674,
  "pl": 1675,
  "Joint</w>": 1676,
  "press</w>": 1677,
  "contact</w>": 1678,
  "UR": 1679,
  "Ser": 1680,
  "central</w>": 1681,
  "scope</w>": 1682,
  "et": 1683,
  "series</w>": 1684,
  ".php</w>": 1685,
  "TRANS</w>": 1686,
  "relation</w>": 1687,
  "respective</w>": 1688,
  "states</w>": 1689,
  "Internet</w>": 1690,
  "centre</w>": 1691,
  "ty</w>": 1692,
  "mass</w>": 1693,
  "effectiveness</w>": 1694,
  "т": 1695,
  "2,": 1696,
  "units</w>": 1697,
  "located</w>": 1698,
  "known</w>": 1699,
  "AS": 1700,
  "50": 1701,
  "effort</w>": 1702,
  "legislative</w>": 1703,
  "qu": 1704,
  "um": 1705,
  "hold</w>": 1706,
  "Unit</w>": 1707,
  "alities</w>": 1708,
  "asked</w>": 1709,
  "creation</w>": 1710,
  "guidance</w>": 1711,
  "single</w>": 1712,
  "balance</w>": 1713,
  "size</w>": 1714,
  "ut": 1715,
  "applicable</w>": 1716,
  "le": 1717,
  "priorities</w>": 1718,
  "paid</w>": 1719,
  "le</w>": 1720,
  "amendments</w>": 1721,
  "offer</w>": 1722,
  "Children</w>": 1723,
  "Cor": 1724,
  "ds</w>": 1725,
  "defined</w>": 1726,
  "home</w>": 1727,
  "Korea</w>": 1728,
  "situations</w>": 1729,
  "combat</w>": 1730,
  "server</w>": 1731,
  "solution</w>": 1732,
  "1990</w>": 1733,
  "1991</w>": 1734,
  "price</w>": 1735,
  "average</w>": 1736,
  "itation</w>": 1737,
  "rather</w>": 1738,
  "assets</w>": 1739,
  "co</w>": 1740,
  "CON": 1741,
  "governance</w>": 1742,
  "ism</w>": 1743,
  "Political</w>": 1744,
  "want</w>": 1745,
  "for": 1746,
  "detailed</w>": 1747,
  "ON": 1748,
  "Y</w>": 1749,
  "intergovernmental</w>": 1750,
  "University</w>": 1751,
  "courts</w>": 1752,
  "tical</w>": 1753,
  "Pacific</w>": 1754,
  "Deci": 1755,
  "ru": 1756,
  "French</w>": 1757,
  "att": 1758,
  "specialized</w>": 1759,
  "extent</w>": 1760,
  "ground</w>": 1761,
  "Our</w>": 1762,
  "Islamic</w>": 1763,
  "Li": 1764,
  "os</w>": 1765,
  "Me": 1766,
  "payment</w>": 1767,
  "Education</w>": 1768,
  "Civil</w>": 1769,
  "billion</w>": 1770,
  "ors</w>": 1771,
  "и": 1772,
  "educational</w>": 1773,
  "paper</w>": 1774,
  "to": 1775,
  "77</w>": 1776,
  "types</w>": 1777,
  "collaboration</w>": 1778,
  "ten": 1779,
  "Q": 1780,
  "permanent</w>": 1781,
  "personal</w>": 1782,
  "Room</w>": 1783,
  "culture</w>": 1784,
  ".ru</w>": 1785,
  "Im": 1786,
  "She</w>": 1787,
  "debt</w>": 1788,
  "peaceful</w>": 1789,
  "practical</w>": 1790,
  "uni": 1791,
  "Trans": 1792,
  "later</w>": 1793,
  "ay": 1794,
  "Iran</w>": 1795,
  "stakeholders</w>": 1796,
  "stage</w>": 1797,
  "ous</w>": 1798,
  "positions</w>": 1799,
  "TR": 1800,
  "Item</w>": 1801,
  "Federal</w>": 1802,
  "B.</w>": 1803,
  "no": 1804,
  "net</w>": 1805,
  "completed</w>": 1806,
  "opinion</w>": 1807,
  "poor</w>": 1808,
  "collection</w>": 1809,
  "Turkey</w>": 1810,
  "category</w>": 1811,
  "200</w>": 1812,
  "civilian</w>": 1813,
  "re</w>": 1814,
  "An": 1815,
  "short</w>": 1816,
  "GR": 1817,
  "UNEP</w>": 1818,
  "entry</w>": 1819,
  "ship</w>": 1820,
  "investigation</w>": 1821,
  "Italy</w>": 1822,
  "demand</w>": 1823,
  "money</w>": 1824,
  "establishing</w>": 1825,
  "ence</w>": 1826,
  "sts</w>": 1827,
  "start</w>": 1828,
  "etc</w>": 1829,
  "initial</w>": 1830,
  "external</w>": 1831,
  "product</w>": 1832,
  "teenth</w>": 1833,
  "continues</w>": 1834,
  "scientific</w>": 1835,
  "identify</w>": 1836,
  "sed</w>": 1837,
  "traditional</w>": 1838,
  "voluntary</w>": 1839,
  "trial</w>": 1840,
  "Furthermore</w>": 1841,
  "too</w>": 1842,
  "North</w>": 1843,
  "end": 1844,
  "Moscow</w>": 1845,
  "along</w>": 1846,
  "Azerbaijan</w>": 1847,
  "reached</w>": 1848,
  "sk</w>": 1849,
  "ators</w>": 1850,
  "For": 1851,
  "Sustainable</w>": 1852,
  "minimum</w>": 1853,
  "universal</w>": 1854,
  "RC</w>": 1855,
  "sec": 1856,
  "fifth</w>": 1857,
  "Crime</w>": 1858,
  "house</w>": 1859,
  "professional</w>": 1860,
  "Ab": 1861,
  "head</w>": 1862,
  "der</w>": 1863,
  "responsibilities</w>": 1864,
  "Peace</w>": 1865,
  "sent</w>": 1866,
  "improved</w>": 1867,
  "mm</w>": 1868,
  "majority</w>": 1869,
  "ari": 1870,
  "beginning</w>": 1871,
  "West</w>": 1872,
  "carry</w>": 1873,
  "WP.": 1874,
  "leading</w>": 1875,
  "ering</w>": 1876,
  "ite</w>": 1877,
  "ah</w>": 1878,
  "build</w>": 1879,
  "ina</w>": 1880,
  "leaders</w>": 1881,
  "Regi": 1882,
  "step</w>": 1883,
  "core</w>": 1884,
  "efficient</w>": 1885,
  "seen</w>": 1886,
  "emergency</w>": 1887,
  "task</w>": 1888,
  "continuing</w>": 1889,
  "zone</w>": 1890,
  "reasons</w>": 1891,
  "factors</w>": 1892,
  "anti</w>": 1893,
  "be": 1894,
  "73</w>": 1895,
  "95</w>": 1896,
  "website</w>": 1897,
  "Afghanistan</w>": 1898,
  "lines</w>": 1899,
  "calls</w>": 1900,
  "model</w>": 1901,
  "hotel</w>": 1902,
  "violation</w>": 1903,
  "acc": 1904,
  "Add.1</w>": 1905,
  "stability</w>": 1906,
  "10.": 1907,
  "intended</w>": 1908,
  "economies</w>": 1909,
  "supporting</w>": 1910,
  "consultation</w>": 1911,
  "au": 1912,
  "achieving</w>": 1913,
  "aim</w>": 1914,
  "month</w>": 1915,
  "Mar": 1916,
  "UNHCR</w>": 1917,
  "Mexico</w>": 1918,
  "covered</w>": 1919,
  "ii</w>": 1920,
  "content</w>": 1921,
  "atic</w>": 1922,
  "AS</w>": 1923,
  "version</w>": 1924,
  "Second</w>": 1925,
  "aid</w>": 1926,
  "-": 1927,
  "successful</w>": 1928,
  "coming</w>": 1929,
  "obligation</w>": 1930,
  "reach</w>": 1931,
  "agency</w>": 1932,
  "abuse</w>": 1933,
  "Chair</w>": 1934,
  "partnership</w>": 1935,
  "multi": 1936,
  "Joined</w>": 1937,
  "CN.": 1938,
  "From</w>": 1939,
  "software</w>": 1940,
  "half</w>": 1941,
  "live</w>": 1942,
  "contract</w>": 1943,
  "say</w>": 1944,
  "dec": 1945,
  "criteria</w>": 1946,
  "rec": 1947,
  "function</w>": 1948,
  "a.": 1949,
  "Car": 1950,
  "across</w>": 1951,
  "pos": 1952,
  "believe</w>": 1953,
  "serve</w>": 1954,
  "possibility</w>": 1955,
  "published</w>": 1956,
  "Caribbean</w>": 1957,
  "1,": 1958,
  "10H</w>": 1959,
  "Su": 1960,
  "Po": 1961,
  "sufficient</w>": 1962,
  "adopt</w>": 1963,
  "Discrimination</w>": 1964,
  "bilateral</w>": 1965,
  "jurisdiction</w>": 1966,
  "studies</w>": 1967,
  "Vienna</w>": 1968,
  "students</w>": 1969,
  "addressing</w>": 1970,
  "TS</w>": 1971,
  "election</w>": 1972,
  "left</w>": 1973,
  "produced</w>": 1974,
  "fund</w>": 1975,
  "Au": 1976,
  "ev</w>": 1977,
  "concluded</w>": 1978,
  "cover</w>": 1979,
  "encourage</w>": 1980,
  "ade</w>": 1981,
  "Association</w>": 1982,
  "threat</w>": 1983,
  "pres": 1984,
  "regime</w>": 1985,
  "Netherlands</w>": 1986,
  "twenty</w>": 1987,
  "added</w>": 1988,
  "news</w>": 1989,
  "racial</w>": 1990,
  "Proc": 1991,
  "determination</w>": 1992,
  "lower</w>": 1993,
  "youth</w>": 1994,
  "claim</w>": 1995,
  "Mi": 1996,
  "Bureau</w>": 1997,
  "69</w>": 1998,
  "P.": 1999,
  "emissions</w>": 2000,
  "compensation</w>": 2001,
  "industrial</w>": 2002,
  "described</w>": 2003,
  "planned</w>": 2004,
  "Th": 2005,
  "values</w>": 2006,
  "shown</w>": 2007,
  "vulnerable</w>": 2008,
  "Sec": 2009,
  "placed</w>": 2010,
  "me": 2011,
  "goal</w>": 2012,
  "although</w>": 2013,
  "sing</w>": 2014,
  "encounter</w>": 2015,
  "oc": 2016,
  "soon</w>": 2017,
  "ka</w>": 2018,
  "IC</w>": 2019,
  "Draft</w>": 2020,
  "conferences</w>": 2021,
  "users</w>": 2022,
  "Countries</w>": 2023,
  "encouraged</w>": 2024,
  "maintain</w>": 2025,
  "markets</w>": 2026,
  "complex</w>": 2027,
  "Technical</w>": 2028,
  "ps</w>": 2029,
  "tor</w>": 2030,
  "Un": 2031,
  "success</w>": 2032,
  "System</w>": 2033,
  "pressure</w>": 2034,
  "Transport</w>": 2035,
  "Congo</w>": 2036,
  "solutions</w>": 2037,
  "Cuba</w>": 2038,
  "consensus</w>": 2039,
  "debate</w>": 2040,
  "raised</w>": 2041,
  "presence</w>": 2042,
  "appreciation</w>": 2043,
  "man": 2044,
  "requires</w>": 2045,
  "Recalling</w>": 2046,
  "Mo": 2047,
  "commercial</w>": 2048,
  "IM": 2049,
  "maximum</w>": 2050,
  "Latin</w>": 2051,
  "displaced</w>": 2052,
  "red</w>": 2053,
  "movement</w>": 2054,
  "Australia</w>": 2055,
  "af": 2056,
  "treaties</w>": 2057,
  "applications</w>": 2058,
  "sure</w>": 2059,
  "languages</w>": 2060,
  "suggested</w>": 2061,
  "Disarmament</w>": 2062,
  "hope</w>": 2063,
  "electronic</w>": 2064,
  "Mal": 2065,
  "Although</w>": 2066,
  "station</w>": 2067,
  "Ireland</w>": 2068,
  "ession</w>": 2069,
  "tools</w>": 2070,
  "ving</w>": 2071,
  "uses</w>": 2072,
  "useful</w>": 2073,
  "Child</w>": 2074,
  "specified</w>": 2075,
  "deal</w>": 2076,
  "proliferation</w>": 2077,
  "determined</w>": 2078,
  "den": 2079,
  "authorized</w>": 2080,
  "takes</w>": 2081,
  "clearly</w>": 2082,
  "judges</w>": 2083,
  "NGOs</w>": 2084,
  "Syrian</w>": 2085,
  "categories</w>": 2086,
  "sub</w>": 2087,
  "Rec": 2088,
  "Moreover</w>": 2089,
  "Spain</w>": 2090,
  "improvement</w>": 2091,
  "Rev": 2092,
  "reflected</w>": 2093,
  "Administration</w>": 2094,
  "bank</w>": 2095,
  "prepare</w>": 2096,
  "history</w>": 2097,
  "recently</w>": 2098,
  "p.m.</w>": 2099,
  "agricultural</w>": 2100,
  "temporary</w>": 2101,
  "deployment</w>": 2102,
  "phase</w>": 2103,
  "loss</w>": 2104,
  "avoid</w>": 2105,
  "longer</w>": 2106,
  "leave</w>": 2107,
  "written</w>": 2108,
  "ago</w>": 2109,
  "show</w>": 2110,
  "elected</w>": 2111,
  "ID": 2112,
  "Windows</w>": 2113,
  "terrorist</w>": 2114,
  "Unknown</w>": 2115,
  "mis": 2116,
  "ned</w>": 2117,
  "remained</w>": 2118,
  "beyond</w>": 2119,
  "har": 2120,
  "IL": 2121,
  "ture</w>": 2122,
  "away</w>": 2123,
  "Headquarters</w>": 2124,
  "fr": 2125,
  "fuel</w>": 2126,
  "word</w>": 2127,
  "OP": 2128,
  "Policy</w>": 2129,
  "38": 2130,
  "mind</w>": 2131,
  "export</w>": 2132,
  "Brazil</w>": 2133,
  "registration</w>": 2134,
  "Fac": 2135,
  "independence</w>": 2136,
  "submission</w>": 2137,
  "PR": 2138,
  "observations</w>": 2139,
  "consistent</w>": 2140,
  "My</w>": 2141,
  "stressed</w>": 2142,
  "growing</w>": 2143,
  "El</w>": 2144,
  "ve</w>": 2145,
  "online</w>": 2146,
  "resulting</w>": 2147,
  "disabilities</w>": 2148,
  "actors</w>": 2149,
  "places</w>": 2150,
  "seek</w>": 2151,
  "plenary</w>": 2152,
  "72</w>": 2153,
  "utili": 2154,
  "pe": 2155,
  "ai": 2156,
  "aries</w>": 2157,
  "represented</w>": 2158,
  "top</w>": 2159,
  "EM": 2160,
  "Goals</w>": 2161,
  "origin</w>": 2162,
  "topic</w>": 2163,
  "Table</w>": 2164,
  "compared</w>": 2165,
  "finance</w>": 2166,
  "mobil": 2167,
  "Georgia</w>": 2168,
  "speed</w>": 2169,
  "diversity</w>": 2170,
  "300</w>": 2171,
  "sea</w>": 2172,
  "Middle</w>": 2173,
  "Hotel</w>": 2174,
  "Persons</w>": 2175,
  "aged</w>": 2176,
  "he": 2177,
  "target</w>": 2178,
  "Switzerland</w>": 2179,
  "dem": 2180,
  "ats</w>": 2181,
  "Page</w>": 2182,
  "approaches</w>": 2183,
  "monitor</w>": 2184,
  "Prevention</w>": 2185,
  "rev": 2186,
  "How</w>": 2187,
  "updated</w>": 2188,
  "UNECE</w>": 2189,
  "statistical</w>": 2190,
  "Pe": 2191,
  "cause</w>": 2192,
  "tr": 2193,
  "location</w>": 2194,
  "came</w>": 2195,
  "forest</w>": 2196,
  "likely</w>": 2197,
  "consequences</w>": 2198,
  "sharing</w>": 2199,
  "Peace": 2200,
  "mod": 2201,
  "appeal</w>": 2202,
  "Develop": 2203,
  "ge</w>": 2204,
  "recovery</w>": 2205,
  "Optional</w>": 2206,
  "concept</w>": 2207,
  "host</w>": 2208,
  "destruction</w>": 2209,
  "Community</w>": 2210,
  "Legal</w>": 2211,
  "Provi": 2212,
  "instrument</w>": 2213,
  "COMM": 2214,
  "king</w>": 2215,
  "sixth</w>": 2216,
  "advice</w>": 2217,
  "rooms</w>": 2218,
  "rise</w>": 2219,
  "options</w>": 2220,
  "involving</w>": 2221,
  "Egypt</w>": 2222,
  "н": 2223,
  "prison</w>": 2224,
  "reason</w>": 2225,
  "focused</w>": 2226,
  "leadership</w>": 2227,
  "look</w>": 2228,
  "Experts</w>": 2229,
  "modern</w>": 2230,
  "skills</w>": 2231,
  "ya</w>": 2232,
  "relationship</w>": 2233,
  "analy": 2234,
  "hor": 2235,
  "weapon</w>": 2236,
  "sixty</w>": 2237,
  "Deputy</w>": 2238,
  "base</w>": 2239,
  "message</w>": 2240,
  "fying</w>": 2241,
  "Coordination</w>": 2242,
  "Western</w>": 2243,
  "illegal</w>": 2244,
  "implications</w>": 2245,
  "harmoni": 2246,
  "Norway</w>": 2247,
  "12.": 2248,
  "fore": 2249,
  "unit</w>": 2250,
  "offers</w>": 2251,
  "fields</w>": 2252,
  "Requests</w>": 2253,
  "reduced</w>": 2254,
  "ou": 2255,
  "ATION</w>": 2256,
  "gi": 2257,
  "au</w>": 2258,
  "fac": 2259,
  "Wel": 2260,
  "Police</w>": 2261,
  "documentation</w>": 2262,
  "por": 2263,
  "alternative</w>": 2264,
  "FOR</w>": 2265,
  "Please</w>": 2266,
  "definition</w>": 2267,
  "allowed</w>": 2268,
  "enterprises</w>": 2269,
  "Ho": 2270,
  "500</w>": 2271,
  "Pakistan</w>": 2272,
  "components</w>": 2273,
  "ancement</w>": 2274,
  "why</w>": 2275,
  "up": 2276,
  "conflicts</w>": 2277,
  "ending</w>": 2278,
  "separate</w>": 2279,
  "ju": 2280,
  "AC.": 2281,
  "prices</w>": 2282,
  "respond</w>": 2283,
  "contains</w>": 2284,
  "hi": 2285,
  "ples</w>": 2286,
  "CD": 2287,
  "ID</w>": 2288,
  "é</w>": 2289,
  "rence</w>": 2290,
  "sibility</w>": 2291,
  "duty</w>": 2292,
  "OS</w>": 2293,
  "Energy</w>": 2294,
  "fight</w>": 2295,
  "dic": 2296,
  "ninth</w>": 2297,
  "actively</w>": 2298,
  "e.g.</w>": 2299,
  "almost</w>": 2300,
  "near</w>": 2301,
  "inform</w>": 2302,
  "sk": 2303,
  "caused</w>": 2304,
  "going</w>": 2305,
  "measure</w>": 2306,
  "standing</w>": 2307,
  "tic</w>": 2308,
  "11.": 2309,
  "competent</w>": 2310,
  "registered</w>": 2311,
  "Poland</w>": 2312,
  "processing</w>": 2313,
  "achievement</w>": 2314,
  "stations</w>": 2315,
  "23": 2316,
  "Bi": 2317,
  "conclusion</w>": 2318,
  "keep</w>": 2319,
  "sy": 2320,
  "Elimination</w>": 2321,
  "vision</w>": 2322,
  "ness</w>": 2323,
  "workshop</w>": 2324,
  "71</w>": 2325,
  "highest</w>": 2326,
  "cross</w>": 2327,
  "Labour</w>": 2328,
  "Ap": 2329,
  "Princi": 2330,
  "seventh</w>": 2331,
  "forced</w>": 2332,
  "Great</w>": 2333,
  "expenditure</w>": 2334,
  "sanctions</w>": 2335,
  "3,": 2336,
  "democratic</w>": 2337,
  "Ro": 2338,
  "launched</w>": 2339,
  "Al</w>": 2340,
  "highly</w>": 2341,
  "safe</w>": 2342,
  "Further</w>": 2343,
  "procurement</w>": 2344,
  "é": 2345,
  "structures</w>": 2346,
  "challenge</w>": 2347,
  "See</w>": 2348,
  "little</w>": 2349,
  "never</w>": 2350,
  "CE</w>": 2351,
  "damage</w>": 2352,
  "Asian</w>": 2353,
  "Financial</w>": 2354,
  "eighth</w>": 2355,
  "fin": 2356,
  "week</w>": 2357,
  "tional</w>": 2358,
  "ess</w>": 2359,
  "determine</w>": 2360,
  "mon": 2361,
  "74</w>": 2362,
  "Lebanon</w>": 2363,
  "SP": 2364,
  "capacities</w>": 2365,
  "conclusions</w>": 2366,
  "UNFPA</w>": 2367,
  "85</w>": 2368,
  "Stat": 2369,
  "followed</w>": 2370,
  "str": 2371,
  "game</w>": 2372,
  "ile</w>": 2373,
  "participated</w>": 2374,
  "ff": 2375,
  "Is": 2376,
  "DC</w>": 2377,
  "49": 2378,
  "and": 2379,
  "absence</w>": 2380,
  "accountability</w>": 2381,
  "ks</w>": 2382,
  "grounds</w>": 2383,
  "recognition</w>": 2384,
  "ang": 2385,
  "л": 2386,
  "listed</w>": 2387,
  "extended</w>": 2388,
  "vo": 2389,
  "99</w>": 2390,
  "broad</w>": 2391,
  "ening</w>": 2392,
  "ING</w>": 2393,
  "og": 2394,
  "negative</w>": 2395,
  "Sweden</w>": 2396,
  "transparency</w>": 2397,
  "accepted</w>": 2398,
  "consumption</w>": 2399,
  "Rules</w>": 2400,
  "nor</w>": 2401,
  "direction</w>": 2402,
  "oni": 2403,
  "Parliament</w>": 2404,
  "workshops</w>": 2405,
  "generally</w>": 2406,
  "Man": 2407,
  "things</w>": 2408,
  "entire</w>": 2409,
  "extension</w>": 2410,
  "az": 2411,
  "car</w>": 2412,
  "Pre": 2413,
  "zes</w>": 2414,
  "discuss</w>": 2415,
  "Tor": 2416,
  "sound</w>": 2417,
  "approximately</w>": 2418,
  "search</w>": 2419,
  "Members</w>": 2420,
  "dollars</w>": 2421,
  "difficulties</w>": 2422,
  "stry</w>": 2423,
  "raising</w>": 2424,
  "Ma": 2425,
  "insurance</w>": 2426,
  "Bosnia</w>": 2427,
  "competition</w>": 2428,
  "mail</w>": 2429,
  "guarantee</w>": 2430,
  "Nuclear</w>": 2431,
  "island</w>": 2432,
  "interested</w>": 2433,
  "membership</w>": 2434,
  "subregional</w>": 2435,
  "FI": 2436,
  "rest</w>": 2437,
  "involvement</w>": 2438,
  "female</w>": 2439,
  "let</w>": 2440,
  "\\</w>": 2441,
  "reflect</w>": 2442,
  "forty</w>": 2443,
  "AT</w>": 2444,
  "mainly</w>": 2445,
  "Mon": 2446,
  "true</w>": 2447,
  "24": 2448,
  "timely</w>": 2449,
  "owing</w>": 2450,
  "ver": 2451,
  "Many</w>": 2452,
  "ue</w>": 2453,
  "freedoms</w>": 2454,
  "accounts</w>": 2455,
  "comp": 2456,
  "Czech</w>": 2457,
  "Vice</w>": 2458,
  "More</w>": 2459,
  "ire</w>": 2460,
  "amended</w>": 2461,
  "advance</w>": 2462,
  "Note</w>": 2463,
  "setting</w>": 2464,
  "makes</w>": 2465,
  "credit</w>": 2466,
  "est": 2467,
  "concrete</w>": 2468,
  "confidence</w>": 2469,
  "Here</w>": 2470,
  "der": 2471,
  "summary</w>": 2472,
  "pen": 2473,
  "board</w>": 2474,
  "Authority</w>": 2475,
  "Lo": 2476,
  "C.</w>": 2477,
  "try</w>": 2478,
  "partnerships</w>": 2479,
  "ven": 2480,
  "76</w>": 2481,
  "Sa": 2482,
  "Strategy</w>": 2483,
  "VI</w>": 2484,
  "closely</w>": 2485,
  "ulation</w>": 2486,
  "ash": 2487,
  "offences</w>": 2488,
  "IR": 2489,
  "shared</w>": 2490,
  "expertise</w>": 2491,
  "component</w>": 2492,
  "became</w>": 2493,
  "Thus</w>": 2494,
  "ь</w>": 2495,
  "code</w>": 2496,
  "ies</w>": 2497,
  "risks</w>": 2498,
  "Third</w>": 2499,
  "immediately</w>": 2500,
  "audit</w>": 2501,
  "JSC</w>": 2502,
  "Kar": 2503,
  "Tim": 2504,
  "exploitation</w>": 2505,
  "96</w>": 2506,
  "Finland</w>": 2507,
  "Ministers</w>": 2508,
  "migration</w>": 2509,
  "science</w>": 2510,
  "pre</w>": 2511,
  "medium</w>": 2512,
  "Prime</w>": 2513,
  "Territory</w>": 2514,
  "ning</w>": 2515,
  "Contrac": 2516,
  "с": 2517,
  "tri": 2518,
  "occupied</w>": 2519,
  "ia</w>": 2520,
  "despite</w>": 2521,
  "mer": 2522,
  "minorities</w>": 2523,
  "limit</w>": 2524,
  "lives</w>": 2525,
  "comes</w>": 2526,
  "Ambassador</w>": 2527,
  "century</w>": 2528,
  "book</w>": 2529,
  "urgent</w>": 2530,
  "PRO": 2531,
  "started</w>": 2532,
  "Total</w>": 2533,
  "в": 2534,
  "sc": 2535,
  "rent</w>": 2536,
  "Cyprus</w>": 2537,
  "Rwanda</w>": 2538,
  "illicit</w>": 2539,
  "NE": 2540,
  "Monday</w>": 2541,
  "Sun</w>": 2542,
  "Governing</w>": 2543,
  "tasks</w>": 2544,
  "disaster</w>": 2545,
  "charge</w>": 2546,
  "reviewed</w>": 2547,
  "Herzegovina</w>": 2548,
  "•</w>": 2549,
  "res": 2550,
  "AL": 2551,
  "mar": 2552,
  "getary</w>": 2553,
  "commission</w>": 2554,
  "ology</w>": 2555,
  "id": 2556,
  "holding</w>": 2557,
  "bu": 2558,
  "record</w>": 2559,
  "tax</w>": 2560,
  "minutes</w>": 2561,
  "flow</w>": 2562,
  "Per": 2563,
  "AP</w>": 2564,
  "corruption</w>": 2565,
  "78</w>": 2566,
  "4,": 2567,
  "existence</w>": 2568,
  "CR": 2569,
  "release</w>": 2570,
  "da</w>": 2571,
  "Guinea</w>": 2572,
  "mat": 2573,
  "cycle</w>": 2574,
  "round</w>": 2575,
  "sites</w>": 2576,
  "Research</w>": 2577,
  "contributing</w>": 2578,
  "puts</w>": 2579,
  "Austria</w>": 2580,
  "all": 2581,
  "assessments</w>": 2582,
  "son</w>": 2583,
  "reducing</w>": 2584,
  "Of</w>": 2585,
  "estimates</w>": 2586,
  "granted</w>": 2587,
  "Part</w>": 2588,
  "rehabilitation</w>": 2589,
  "ever</w>": 2590,
  "fair</w>": 2591,
  "ming</w>": 2592,
  "woman</w>": 2593,
  "Eastern</w>": 2594,
  "PC</w>": 2595,
  "seven</w>": 2596,
  "acy</w>": 2597,
  "Chief</w>": 2598,
  "load</w>": 2599,
  "the": 2600,
  "selected</w>": 2601,
  "ute</w>": 2602,
  "availability</w>": 2603,
  "ME": 2604,
  "Coun": 2605,
  "original</w>": 2606,
  "appointed</w>": 2607,
  "regi": 2608,
  "MI": 2609,
  "immediate</w>": 2610,
  "ters</w>": 2611,
  "details</w>": 2612,
  "recommend</w>": 2613,
  "mandates</w>": 2614,
  "waste</w>": 2615,
  "participating</w>": 2616,
  "Assistance</w>": 2617,
  "eight</w>": 2618,
  "database</w>": 2619,
  "welcome</w>": 2620,
  "engaged</w>": 2621,
  "produce</w>": 2622,
  "AG": 2623,
  "emphasized</w>": 2624,
  "sex</w>": 2625,
  "please</w>": 2626,
  "Yugoslavia</w>": 2627,
  "City</w>": 2628,
  "Indonesia</w>": 2629,
  "courses</w>": 2630,
  "enhancing</w>": 2631,
  "rem": 2632,
  "opening</w>": 2633,
  "sian</w>": 2634,
  "els</w>": 2635,
  "Croatia</w>": 2636,
  "think</w>": 2637,
  "conventions</w>": 2638,
  "Paragraph</w>": 2639,
  "turn</w>": 2640,
  "move</w>": 2641,
  "religion</w>": 2642,
  "tion": 2643,
  "Cs</w>": 2644,
  "floor</w>": 2645,
  "donors</w>": 2646,
  "Day</w>": 2647,
  "clu": 2648,
  "fied</w>": 2649,
  "entered</w>": 2650,
  "cha": 2651,
  "democracy</w>": 2652,
  "UNITED</w>": 2653,
  "imposed</w>": 2654,
  "Somalia</w>": 2655,
  "Thursday</w>": 2656,
  "welcomes</w>": 2657,
  "ch</w>": 2658,
  "Integr": 2659,
  "Sea</w>": 2660,
  "declaration</w>": 2661,
  "complaints</w>": 2662,
  "undertake</w>": 2663,
  "Si": 2664,
  "inclusion</w>": 2665,
  "defence</w>": 2666,
  "bo": 2667,
  "web</w>": 2668,
  "grading</w>": 2669,
  "trust</w>": 2670,
  "presentation</w>": 2671,
  "cooperate</w>": 2672,
  "attacks</w>": 2673,
  "networks</w>": 2674,
  "Kuwait</w>": 2675,
  "PO": 2676,
  "PS</w>": 2677,
  "Friday</w>": 2678,
  "Training</w>": 2679,
  "87</w>": 2680,
  "dealing</w>": 2681,
  "Task</w>": 2682,
  "cash</w>": 2683,
  "Cultural</w>": 2684,
  "namely</w>": 2685,
  "mutual</w>": 2686,
  "containing</w>": 2687,
  "opened</w>": 2688,
  "ph": 2689,
  "Pr": 2690,
  "refugee</w>": 2691,
  "creating</w>": 2692,
  "oting</w>": 2693,
  "Vi": 2694,
  "offered</w>": 2695,
  "ce</w>": 2696,
  "aircraft</w>": 2697,
  "representation</w>": 2698,
  "honour</w>": 2699,
  "Pl": 2700,
  "traffic</w>": 2701,
  "do": 2702,
  "ON</w>": 2703,
  "civilians</w>": 2704,
  "inv": 2705,
  "reviews</w>": 2706,
  "territories</w>": 2707,
  "Regulations</w>": 2708,
  "respectively</w>": 2709,
  "í": 2710,
  "I.</w>": 2711,
  "unique</w>": 2712,
  "Bo": 2713,
  "SO": 2714,
  "senior</w>": 2715,
  "AC</w>": 2716,
  "Technology</w>": 2717,
  "assess</w>": 2718,
  "remaining</w>": 2719,
  "coordinated</w>": 2720,
  "don</w>": 2721,
  "built</w>": 2722,
  "paras</w>": 2723,
  "ep": 2724,
  "requirement</w>": 2725,
  "Coordin": 2726,
  "parents</w>": 2727,
  "bl": 2728,
  "ret": 2729,
  "Palestine</w>": 2730,
  "Project</w>": 2731,
  "Six": 2732,
  "ites</w>": 2733,
  "html</w>": 2734,
  "subsequent</w>": 2735,
  "ratification</w>": 2736,
  "extr": 2737,
  "Armenian</w>": 2738,
  "observers</w>": 2739,
  "ics</w>": 2740,
  "fications</w>": 2741,
  "á": 2742,
  "specifically</w>": 2743,
  "whom</w>": 2744,
  "amendment</w>": 2745,
  "Argentina</w>": 2746,
  "reforms</w>": 2747,
  "Operations</w>": 2748,
  "tieth</w>": 2749,
  "SE": 2750,
  "interpretation</w>": 2751,
  "express</w>": 2752,
  "fl": 2753,
  "Chapter</w>": 2754,
  "identification</w>": 2755,
  "secure</w>": 2756,
  "Rea": 2757,
  "€</w>": 2758,
  "Dist": 2759,
  "device</w>": 2760,
  "enc": 2761,
  "enhanced</w>": 2762,
  "exp": 2763,
  "Sig": 2764,
  "79</w>": 2765,
  "ars</w>": 2766,
  "Northern</w>": 2767,
  "39": 2768,
  "punishment</w>": 2769,
  "fil": 2770,
  "map</w>": 2771,
  "run</w>": 2772,
  "numbers</w>": 2773,
  "actually</w>": 2774,
  "br": 2775,
  "offence</w>": 2776,
  "400</w>": 2777,
  "dr": 2778,
  "ual</w>": 2779,
  "Moldova</w>": 2780,
  "constitute</w>": 2781,
  "AN</w>": 2782,
  "causes</w>": 2783,
  "trends</w>": 2784,
  "failure</w>": 2785,
  "condition</w>": 2786,
  "la</w>": 2787,
  "indicate</w>": 2788,
  "resulted</w>": 2789,
  "ili": 2790,
  "NATIONS</w>": 2791,
  "Islands</w>": 2792,
  "enter</w>": 2793,
  "vari": 2794,
  "urged</w>": 2795,
  "que</w>": 2796,
  "C.3</w>": 2797,
  "employees</w>": 2798,
  "86</w>": 2799,
  "association</w>": 2800,
  "ENT</w>": 2801,
  "ess": 2802,
  "Fifth</w>": 2803,
  "constitu": 2804,
  "tal</w>": 2805,
  "83</w>": 2806,
  "ici": 2807,
  "files</w>": 2808,
  "sum": 2809,
  "88</w>": 2810,
  "Recogni": 2811,
  "motion</w>": 2812,
  "user</w>": 2813,
  "work": 2814,
  "EC</w>": 2815,
  "ous": 2816,
  "compl": 2817,
  "tors</w>": 2818,
  "survey</w>": 2819,
  "sentence</w>": 2820,
  "Those</w>": 2821,
  "began</w>": 2822,
  "Co": 2823,
  "occupation</w>": 2824,
  "closed</w>": 2825,
  "engine</w>": 2826,
  "affairs</w>": 2827,
  "ell": 2828,
  "chemical</w>": 2829,
  "CD</w>": 2830,
  "tool</w>": 2831,
  "regulation</w>": 2832,
  "Letter</w>": 2833,
  "Year</w>": 2834,
  "TE": 2835,
  "port": 2836,
  "raise</w>": 2837,
  "ize</w>": 2838,
  "ves</w>": 2839,
  "tu": 2840,
  "Recommend": 2841,
  "relief</w>": 2842,
  "subsidiary</w>": 2843,
  "El": 2844,
  "aware</w>": 2845,
  "Therefore</w>": 2846,
  "constitutional</w>": 2847,
  "UNIDO</w>": 2848,
  "speaking</w>": 2849,
  "functioning</w>": 2850,
  "counter</w>": 2851,
  "chapter</w>": 2852,
  "So</w>": 2853,
  "WP.29</w>": 2854,
  "expression</w>": 2855,
  "ances</w>": 2856,
  "ill</w>": 2857,
  "strengthened</w>": 2858,
  "Framework</w>": 2859,
  "Zealand</w>": 2860,
  "Views</w>": 2861,
  "81</w>": 2862,
  "gross</w>": 2863,
  "observed</w>": 2864,
  "nation</w>": 2865,
  ".html</w>": 2866,
  "introduction</w>": 2867,
  "600</w>": 2868,
  "Chairperson</w>": 2869,
  "acting</w>": 2870,
  "allows</w>": 2871,
  "Company</w>": 2872,
  "campaign</w>": 2873,
  "Incre": 2874,
  "records</w>": 2875,
  "integrity</w>": 2876,
  "update</w>": 2877,
  "decide</w>": 2878,
  "choice</w>": 2879,
  "recorded</w>": 2880,
  "candidates</w>": 2881,
  "games</w>": 2882,
  "collective</w>": 2883,
  "conformity</w>": 2884,
  "lies</w>": 2885,
  "rati": 2886,
  "link</w>": 2887,
  "cur": 2888,
  "electoral</w>": 2889,
  "Following</w>": 2890,
  "ER</w>": 2891,
  "82</w>": 2892,
  "multi</w>": 2893,
  "increasingly</w>": 2894,
  "targets</w>": 2895,
  "institution</w>": 2896,
  "comply</w>": 2897,
  "60": 2898,
  "add</w>": 2899,
  "Kaz": 2900,
  "job</w>": 2901,
  "organizational</w>": 2902,
  "internationally</w>": 2903,
  "du": 2904,
  "ready</w>": 2905,
  "Supreme</w>": 2906,
  "attended</w>": 2907,
  "headquarters</w>": 2908,
  "send</w>": 2909,
  "Am": 2910,
  "Center</w>": 2911,
  "computer</w>": 2912,
  "executive</w>": 2913,
  "earlier</w>": 2914,
  "Chamber</w>": 2915,
  "ones</w>": 2916,
  "recruitment</w>": 2917,
  "Prepar": 2918,
  "Col": 2919,
  "Ð</w>": 2920,
  "evalu": 2921,
  "EL": 2922,
  "bed</w>": 2923,
  "fire</w>": 2924,
  "98</w>": 2925,
  "threats</w>": 2926,
  "findings</w>": 2927,
  "84</w>": 2928,
  "are": 2929,
  "q": 2930,
  "Wednesday</w>": 2931,
  "emphasis</w>": 2932,
  "i.e.</w>": 2933,
  "though</w>": 2934,
  "ST</w>": 2935,
  "w</w>": 2936,
  "cities</w>": 2937,
  "Officer</w>": 2938,
  "largest</w>": 2939,
  "unless</w>": 2940,
  "ra": 2941,
  "mitting</w>": 2942,
  "sale</w>": 2943,
  "temperature</w>": 2944,
  "OH": 2945,
  "protected</w>": 2946,
  "к": 2947,
  "secondary</w>": 2948,
  "eg": 2949,
  "Jerusalem</w>": 2950,
  "except</w>": 2951,
  "substances</w>": 2952,
  "enjoy</w>": 2953,
  "ful</w>": 2954,
  "93</w>": 2955,
  "combating</w>": 2956,
  "territorial</w>": 2957,
  "R.": 2958,
  "organs</w>": 2959,
  "Head</w>": 2960,
  "ay</w>": 2961,
  "Safety</w>": 2962,
  "announced</w>": 2963,
  "contracts</w>": 2964,
  "del": 2965,
  "publication</w>": 2966,
  "Consi": 2967,
  "Cre": 2968,
  "RO": 2969,
  "donor</w>": 2970,
  "ty": 2971,
  "nations</w>": 2972,
  "encourages</w>": 2973,
  "kg</w>": 2974,
  "gr": 2975,
  "emerging</w>": 2976,
  "completion</w>": 2977,
  "mines</w>": 2978,
  "volume</w>": 2979,
  "method</w>": 2980,
  "norms</w>": 2981,
  "IG": 2982,
  "Particip": 2983,
  "option</w>": 2984,
  "94</w>": 2985,
  "daily</w>": 2986,
  "obtain</w>": 2987,
  "payments</w>": 2988,
  "affect</w>": 2989,
  "pi": 2990,
  "Tuesday</w>": 2991,
  "posed</w>": 2992,
  "night</w>": 2993,
  "97</w>": 2994,
  "investigations</w>": 2995,
  "Commit": 2996,
  "regulatory</w>": 2997,
  "race</w>": 2998,
  "aims</w>": 2999,
  "extend</w>": 3000,
  "investments</w>": 3001,
  "С": 3002,
  "j</w>": 3003,
  "late</w>": 3004,
  "eliminate</w>": 3005,
  "Kosovo</w>": 3006,
  "outcomes</w>": 3007,
  "variety</w>": 3008,
  "ou</w>": 3009,
  "Territories</w>": 3010,
  "class</w>": 3011,
  "Pri": 3012,
  "outstanding</w>": 3013,
  "Comm": 3014,
  "grant</w>": 3015,
  "Any</w>": 3016,
  "migrants</w>": 3017,
  "Weapons</w>": 3018,
  "shows</w>": 3019,
  "crucial</w>": 3020,
  "German</w>": 3021,
  "ION</w>": 3022,
  "Control</w>": 3023,
  "carrying</w>": 3024,
  "seeking</w>": 3025,
  "ten</w>": 3026,
  "perspective</w>": 3027,
  "agriculture</w>": 3028,
  "ED</w>": 3029,
  "significantly</w>": 3030,
  "contributed</w>": 3031,
  "ines</w>": 3032,
  "Fourth</w>": 3033,
  "inc": 3034,
  "akh</w>": 3035,
  "E.</w>": 3036,
  "confirmed</w>": 3037,
  "Staff</w>": 3038,
  "dissemination</w>": 3039,
  "top": 3040,
  "highlighted</w>": 3041,
  "minority</w>": 3042,
  "linked</w>": 3043,
  "Inter</w>": 3044,
  "previously</w>": 3045,
  "ame": 3046,
  "Gaza</w>": 3047,
  "port</w>": 3048,
  "devices</w>": 3049,
  "numerous</w>": 3050,
  "substantial</w>": 3051,
  "Food</w>": 3052,
  "experiences</w>": 3053,
  "AR</w>": 3054,
  "modi": 3055,
  "advisory</w>": 3056,
  "TO</w>": 3057,
  "heard</w>": 3058,
  "Sierra</w>": 3059,
  "Status</w>": 3060,
  "ca": 3061,
  "la": 3062,
  "Direc": 3063,
  "otherwise</w>": 3064,
  "nationality</w>": 3065,
  "visits</w>": 3066,
  "Each</w>": 3067,
  "restrictions</w>": 3068,
  "spirit</w>": 3069,
  "Pol": 3070,
  "Belgium</w>": 3071,
  "alize</w>": 3072,
  "alleged</w>": 3073,
  "heads</w>": 3074,
  "stay</w>": 3075,
  "ders</w>": 3076,
  "Population</w>": 3077,
  "them": 3078,
  "WA</w>": 3079,
  "ani": 3080,
  "birth</w>": 3081,
  "gave</w>": 3082,
  "MIN": 3083,
  "ery</w>": 3084,
  "Bar": 3085,
  "а</w>": 3086,
  "considering</w>": 3087,
  "ries</w>": 3088,
  "p.": 3089,
  "aire</w>": 3090,
  "Most</w>": 3091,
  "Eff": 3092,
  "obtained</w>": 3093,
  "92</w>": 3094,
  "Ob": 3095,
  "Its</w>": 3096,
  "eng": 3097,
  "Gender</w>": 3098,
  "urges</w>": 3099,
  "бр": 3100,
  "Spanish</w>": 3101,
  "allegations</w>": 3102,
  "pages</w>": 3103,
  "ak</w>": 3104,
  "ea": 3105,
  "qui": 3106,
  "formed</w>": 3107,
  "considers</w>": 3108,
  "Rule</w>": 3109,
  "Tr": 3110,
  "understand</w>": 3111,
  "91</w>": 3112,
  "Prosecutor</w>": 3113,
  "Financing</w>": 3114,
  "ASE</w>": 3115,
  "begin</w>": 3116,
  "consent</w>": 3117,
  "89</w>": 3118,
  "sought</w>": 3119,
  "asylum</w>": 3120,
  "UNI": 3121,
  "factor</w>": 3122,
  "via</w>": 3123,
  "responses</w>": 3124,
  "Liberia</w>": 3125,
  "governments</w>": 3126,
  "car": 3127,
  "mine</w>": 3128,
  "speci": 3129,
  "fi": 3130,
  "ech": 3131,
  "accounting</w>": 3132,
  "concluding</w>": 3133,
  "Internal</w>": 3134,
  "tification</w>": 3135,
  "Introduction</w>": 3136,
  "theme</w>": 3137,
  "Ne": 3138,
  "pointed</w>": 3139,
  "Space</w>": 3140,
  "reiter": 3141,
  "simply</w>": 3142,
  "exist</w>": 3143,
  "endorsed</w>": 3144,
  "TION</w>": 3145,
  "funded</w>": 3146,
  "D.</w>": 3147,
  "iii</w>": 3148,
  "OS": 3149,
  "testing</w>": 3150,
  "forth</w>": 3151,
  "realization</w>": 3152,
  "Bel": 3153,
  "worked</w>": 3154,
  "ling</w>": 3155,
  "erial</w>": 3156,
  "DL": 3157,
  "diseases</w>": 3158,
  "AP": 3159,
  "considerable</w>": 3160,
  "Haiti</w>": 3161,
  "Tran": 3162,
  "bit</w>": 3163,
  "Over": 3164,
  "Minist": 3165,
  "format</w>": 3166,
  "district</w>": 3167,
  "Expert</w>": 3168,
  "Another</w>": 3169,
  "Field</w>": 3170,
  "ach": 3171,
  "ale</w>": 3172,
  "Adoption</w>": 3173,
  "placement</w>": 3174,
  "70": 3175,
  "eradic": 3176,
  "5,": 3177,
  "instance</w>": 3178,
  "Date</w>": 3179,
  "examination</w>": 3180,
  "Colombia</w>": 3181,
  "ub": 3182,
  "ementary</w>": 3183,
  "sen": 3184,
  "expenditures</w>": 3185,
  "ant": 3186,
  "UNESCO</w>": 3187,
  "To": 3188,
  "cu": 3189,
  "Romania</w>": 3190,
  "Statistics</w>": 3191,
  "Or": 3192,
  "Speci": 3193,
  "accused</w>": 3194,
  "11": 3195,
  "commissions</w>": 3196,
  "IAEA</w>": 3197,
  "stipul": 3198,
  "declared</w>": 3199,
  "les</w>": 3200,
  "maintained</w>": 3201,
  "Cl": 3202,
  "reservations</w>": 3203,
  "latest</w>": 3204,
  "learned</w>": 3205,
  "went</w>": 3206,
  "Kyrgy": 3207,
  "correct</w>": 3208,
  "contain</w>": 3209,
  "Questions</w>": 3210,
  "mu": 3211,
  "wor": 3212,
  "od": 3213,
  "recognize</w>": 3214,
  "proper</w>": 3215,
  "tives</w>": 3216,
  "go": 3217,
  "Ye": 3218,
  "ill": 3219,
  "Are</w>": 3220,
  "learning</w>": 3221,
  "prisoners</w>": 3222,
  "La</w>": 3223,
  "elimination</w>": 3224,
  "expansion</w>": 3225,
  "sted</w>": 3226,
  "Bu": 3227,
  "cl": 3228,
  "Paris</w>": 3229,
  "locations</w>": 3230,
  "reservation</w>": 3231,
  "MO": 3232,
  "eries</w>": 3233,
  "Consul": 3234,
  "governing</w>": 3235,
  "ua</w>": 3236,
  "center</w>": 3237,
  "dress</w>": 3238,
  "FAO</w>": 3239,
  "giving</w>": 3240,
  "ma</w>": 3241,
  "Two</w>": 3242,
  "sky</w>": 3243,
  "alism</w>": 3244,
  "flows</w>": 3245,
  "airport</w>": 3246,
  "scheduled</w>": 3247,
  "supports</w>": 3248,
  "links</w>": 3249,
  "Resolution</w>": 3250,
  "Leone</w>": 3251,
  "anniversary</w>": 3252,
  "Tajikistan</w>": 3253,
  "Finally</w>": 3254,
  "Morocco</w>": 3255,
  "clari": 3256,
  "engage</w>": 3257,
  "heart</w>": 3258,
  "banks</w>": 3259,
  "Ur": 3260,
  "glob": 3261,
  "elabor": 3262,
  "ised</w>": 3263,
  "Monitoring</w>": 3264,
  "Burundi</w>": 3265,
  "Environmental</w>": 3266,
  "associations</w>": 3267,
  "dissemin": 3268,
  "delay</w>": 3269,
  "Chinese</w>": 3270,
  "view": 3271,
  "lot</w>": 3272,
  "delivered</w>": 3273,
  ".net</w>": 3274,
  "double</w>": 3275,
  "preparing</w>": 3276,
  "est</w>": 3277,
  "eri": 3278,
  "fo": 3279,
  "guarantees</w>": 3280,
  "initiated</w>": 3281,
  "satisfaction</w>": 3282,
  "Respon": 3283,
  "length</w>": 3284,
  "Nigeria</w>": 3285,
  "latter</w>": 3286,
  "land": 3287,
  "faced</w>": 3288,
  "marriage</w>": 3289,
  "victim</w>": 3290,
  "stock</w>": 3291,
  "ton</w>": 3292,
  "Sha": 3293,
  "combined</w>": 3294,
  "sovereignty</w>": 3295,
  "degree</w>": 3296,
  "UND": 3297,
  "publications</w>": 3298,
  "supplies</w>": 3299,
  "arbitr": 3300,
  "quite</w>": 3301,
  "toral</w>": 3302,
  "ratified</w>": 3303,
  "Today</w>": 3304,
  "impe": 3305,
  "arising</w>": 3306,
  "preliminary</w>": 3307,
  "hard</w>": 3308,
  "VII</w>": 3309,
  "Ky": 3310,
  "6,": 3311,
  "appointment</w>": 3312,
  "ently</w>": 3313,
  "800</w>": 3314,
  "identity</w>": 3315,
  "selection</w>": 3316,
  "ki</w>": 3317,
  "lessons</w>": 3318,
  "preventing</w>": 3319,
  "diplomatic</w>": 3320,
  "percentage</w>": 3321,
  "Denmark</w>": 3322,
  "so": 3323,
  "Region</w>": 3324,
  "inclusive</w>": 3325,
  "a.m.</w>": 3326,
  "boundary</w>": 3327,
  "tual</w>": 3328,
  "ges</w>": 3329,
  "check</w>": 3330,
  "agree</w>": 3331,
  "Hungary</w>": 3332,
  "TV</w>": 3333,
  "enough</w>": 3334,
  "flights</w>": 3335,
  "engagement</w>": 3336,
  "sign</w>": 3337,
  "duties</w>": 3338,
  "emission</w>": 3339,
  "drugs</w>": 3340,
  "eli": 3341,
  "easy</w>": 3342,
  "innovative</w>": 3343,
  "IP": 3344,
  "Lu": 3345,
  "front</w>": 3346,
  "primarily</w>": 3347,
  "productive</w>": 3348,
  "Your</w>": 3349,
  "Humanitarian</w>": 3350,
  "thirty</w>": 3351,
  "performed</w>": 3352,
  "played</w>": 3353,
  "DA</w>": 3354,
  "mes</w>": 3355,
  "teams</w>": 3356,
  "DA": 3357,
  "love</w>": 3358,
  "populations</w>": 3359,
  "contr": 3360,
  "Congress</w>": 3361,
  "doing</w>": 3362,
  "cor": 3363,
  "Use</w>": 3364,
  "influence</w>": 3365,
  "weeks</w>": 3366,
  "element</w>": 3367,
  "Op": 3368,
  "р": 3369,
  "Chile</w>": 3370,
  "prec": 3371,
  "decrease</w>": 3372,
  "Resources</w>": 3373,
  "enterprise</w>": 3374,
  "Indigenous</w>": 3375,
  "convened</w>": 3376,
  "Thailand</w>": 3377,
  "PS": 3378,
  "Streng": 3379,
  "Lord</w>": 3380,
  "ular</w>": 3381,
  "fulfil</w>": 3382,
  "men": 3383,
  "proc": 3384,
  "Power</w>": 3385,
  "normal</w>": 3386,
  "Ad</w>": 3387,
  "coverage</w>": 3388,
  "Astana</w>": 3389,
  "Number</w>": 3390,
  "reaffir": 3391,
  "s.": 3392,
  "background</w>": 3393,
  "Mea": 3394,
  "assessed</w>": 3395,
  "Open</w>": 3396,
  "figure</w>": 3397,
  "im</w>": 3398,
  "ori": 3399,
  "transit</w>": 3400,
  "main": 3401,
  "ful": 3402,
  "advantage</w>": 3403,
  "wishes</w>": 3404,
  "envis": 3405,
  "Habitat</w>": 3406,
  "allocated</w>": 3407,
  "min": 3408,
  "choose</w>": 3409,
  "Ju": 3410,
  "town</w>": 3411,
  "accept</w>": 3412,
  "deep</w>": 3413,
  "arrest</w>": 3414,
  "enjoyment</w>": 3415,
  "video</w>": 3416,
  "akes</w>": 3417,
  "fe": 3418,
  "gen": 3419,
  "Bulgaria</w>": 3420,
  "surface</w>": 3421,
  "ory</w>": 3422,
  "thousand</w>": 3423,
  "changing</w>": 3424,
  "Family</w>": 3425,
  "Business</w>": 3426,
  "spoke</w>": 3427,
  "ana</w>": 3428,
  "expenses</w>": 3429,
  "technological</w>": 3430,
  "ects</w>": 3431,
  "Turkish</w>": 3432,
  "partner</w>": 3433,
  "7,": 3434,
  "ve": 3435,
  "ani</w>": 3436,
  "marked</w>": 3437,
  "worldwide</w>": 3438,
  "Pur": 3439,
  ",0": 3440,
  "Guid": 3441,
  "Serbia</w>": 3442,
  "PR</w>": 3443,
  "Free</w>": 3444,
  "vital</w>": 3445,
  "ited</w>": 3446,
  "Greece</w>": 3447,
  "Their</w>": 3448,
  "ilization</w>": 3449,
  "Lithuania</w>": 3450,
  "ET": 3451,
  "amounts</w>": 3452,
  "Sam": 3453,
  "iting</w>": 3454,
  "Ste": 3455,
  "pri": 3456,
  "equitable</w>": 3457,
  "Scientific</w>": 3458,
  "charges</w>": 3459,
  "facing</w>": 3460,
  "Several</w>": 3461,
  "Now</w>": 3462,
  "comment</w>": 3463,
  "draw</w>": 3464,
  "storage</w>": 3465,
  "Uzbekistan</w>": 3466,
  "strongly</w>": 3467,
  "Cha": 3468,
  "Britain</w>": 3469,
  "Additional</w>": 3470,
  "Latvia</w>": 3471,
  "marine</w>": 3472,
  "na</w>": 3473,
  "medi": 3474,
  "idea</w>": 3475,
  "Despite</w>": 3476,
  "failed</w>": 3477,
  "ication</w>": 3478,
  "mobile</w>": 3479,
  "appear</w>": 3480,
  "racism</w>": 3481,
  "mean</w>": 3482,
  "ective</w>": 3483,
  "drawn</w>": 3484,
  "departments</w>": 3485,
  "authori": 3486,
  "AD</w>": 3487,
  "penalty</w>": 3488,
  "Sun": 3489,
  "limits</w>": 3490,
  "features</w>": 3491,
  "stan</w>": 3492,
  "entation</w>": 3493,
  "click</w>": 3494,
  "programs</w>": 3495,
  "sign": 3496,
  "hoc</w>": 3497,
  "mor": 3498,
  "iss": 3499,
  "ass": 3500,
  "residence</w>": 3501,
  "corporate</w>": 3502,
  "generation</w>": 3503,
  "released</w>": 3504,
  "disease</w>": 3505,
  "&apos;I": 3506,
  "drafting</w>": 3507,
  "judge</w>": 3508,
  "recalled</w>": 3509,
  "learn</w>": 3510,
  "Roma</w>": 3511,
  "anc": 3512,
  "Model</w>": 3513,
  "e.": 3514,
  "Refugees</w>": 3515,
  "enabling</w>": 3516,
  "ation": 3517,
  "sense</w>": 3518,
  "WHO</w>": 3519,
  "customers</w>": 3520,
  "IT</w>": 3521,
  "targeted</w>": 3522,
  "sets</w>": 3523,
  "ization</w>": 3524,
  "serving</w>": 3525,
  "ver</w>": 3526,
  "maintaining</w>": 3527,
  "News</w>": 3528,
  "prohi": 3529,
  "sus</w>": 3530,
  "conven": 3531,
  "ja</w>": 3532,
  "of": 3533,
  "inside</w>": 3534,
  "Network</w>": 3535,
  "plant</w>": 3536,
  "prosecution</w>": 3537,
  "fall</w>": 3538,
  "Trust</w>": 3539,
  "Cô": 3540,
  "ends</w>": 3541,
  "visited</w>": 3542,
  "ying</w>": 3543,
  "Algeria</w>": 3544,
  "м": 3545,
  "weight</w>": 3546,
  "perform</w>": 3547,
  "differences</w>": 3548,
  "names</w>": 3549,
  "Construction</w>": 3550,
  "intention</w>": 3551,
  "budgetary</w>": 3552,
  "impacts</w>": 3553,
  "000</w>": 3554,
  "elines</w>": 3555,
  "Ter": 3556,
  "facilit": 3557,
  "dev": 3558,
  "Ps</w>": 3559,
  "Water</w>": 3560,
  "seminars</w>": 3561,
  "accommodation</w>": 3562,
  "powers</w>": 3563,
  "Qu": 3564,
  "verification</w>": 3565,
  "convention</w>": 3566,
  "receiving</w>": 3567,
  "Ben": 3568,
  "alone</w>": 3569,
  "entity</w>": 3570,
  "dence</w>": 3571,
  "fixed</w>": 3572,
  "owned</w>": 3573,
  "Volun": 3574,
  "designated</w>": 3575,
  "stop</w>": 3576,
  "ian</w>": 3577,
  "ho": 3578,
  "reconciliation</w>": 3579,
  "ber": 3580,
  "ast": 3581,
  "favour</w>": 3582,
  "V.</w>": 3583,
  "streaming</w>": 3584,
  "occurred</w>": 3585,
  "permit</w>": 3586,
  "eco": 3587,
  "fif": 3588,
  "proved</w>": 3589,
  "lost</w>": 3590,
  "Work</w>": 3591,
  "Portugal</w>": 3592,
  "controlled</w>": 3593,
  "rein": 3594,
  "dum</w>": 3595,
  "socio</w>": 3596,
  "ownership</w>": 3597,
  "everything</w>": 3598,
  "sections</w>": 3599,
  "Organiz": 3600,
  "widely</w>": 3601,
  "binding</w>": 3602,
  "List</w>": 3603,
  "ain": 3604,
  "tory</w>": 3605,
  "37": 3606,
  "Docum": 3607,
  "sides</w>": 3608,
  "attack</w>": 3609,
  "Where</w>": 3610,
  "Har": 3611,
  "Customs</w>": 3612,
  "Ukrainian</w>": 3613,
  "legitimate</w>": 3614,
  "committees</w>": 3615,
  "Pen": 3616,
  "equipped</w>": 3617,
  "ster</w>": 3618,
  "duction</w>": 3619,
  "told</w>": 3620,
  "80": 3621,
  "teachers</w>": 3622,
  "thereby</w>": 3623,
  "AB": 3624,
  "ably</w>": 3625,
  "examine</w>": 3626,
  "ble</w>": 3627,
  "ice</w>": 3628,
  "bio": 3629,
  "transportation</w>": 3630,
  "Z</w>": 3631,
  "born</w>": 3632,
  "ens</w>": 3633,
  "sures</w>": 3634,
  "IA</w>": 3635,
  "ta": 3636,
  "internally</w>": 3637,
  "suppl": 3638,
  "CO</w>": 3639,
  "tests</w>": 3640,
  "unable</w>": 3641,
  "achievements</w>": 3642,
  "sur": 3643,
  "package</w>": 3644,
  "aff": 3645,
  "regularly</w>": 3646,
  "liber": 3647,
  "Kenya</w>": 3648,
  "No": 3649,
  "liability</w>": 3650,
  "Philippines</w>": 3651,
  "San</w>": 3652,
  "facts</w>": 3653,
  "wi": 3654,
  "train</w>": 3655,
  "represent</w>": 3656,
  "thought</w>": 3657,
  "dedicated</w>": 3658,
  "bringing</w>": 3659,
  "usually</w>": 3660,
  "equ": 3661,
  "served</w>": 3662,
  "passed</w>": 3663,
  "reproductive</w>": 3664,
  "ection</w>": 3665,
  "something</w>": 3666,
  "itors</w>": 3667,
  "PT</w>": 3668,
  "facilitating</w>": 3669,
  "transparent</w>": 3670,
  "sive</w>": 3671,
  "changed</w>": 3672,
  "customs</w>": 3673,
  "120</w>": 3674,
  "Bal": 3675,
  "extensive</w>": 3676,
  "Jesus</w>": 3677,
  "geographical</w>": 3678,
  "oration</w>": 3679,
  "Peru</w>": 3680,
  "assigned</w>": 3681,
  "stand</w>": 3682,
  "refer</w>": 3683,
  "ler</w>": 3684,
  "Ci": 3685,
  "Summary</w>": 3686,
  "advanced</w>": 3687,
  "village</w>": 3688,
  "Foundation</w>": 3689,
  "rich</w>": 3690,
  "calendar</w>": 3691,
  "F.": 3692,
  "settlements</w>": 3693,
  "д": 3694,
  "Euro": 3695,
  "cont": 3696,
  "Gen": 3697,
  "ен": 3698,
  "sports</w>": 3699,
  "sis</w>": 3700,
  "troops</w>": 3701,
  "principal</w>": 3702,
  "Br": 3703,
  "guide</w>": 3704,
  "incidents</w>": 3705,
  "discriminatory</w>": 3706,
  "index": 3707,
  "systematic</w>": 3708,
  "dangerous</w>": 3709,
  "faith</w>": 3710,
  "Initiative</w>": 3711,
  "obstacles</w>": 3712,
  "TH": 3713,
  "tourism</w>": 3714,
  "Re</w>": 3715,
  "Official</w>": 3716,
  "jointly</w>": 3717,
  "Ethiopia</w>": 3718,
  "Data</w>": 3719,
  "cour": 3720,
  "ra</w>": 3721,
  "subjected</w>": 3722,
  "starting</w>": 3723,
  "examples</w>": 3724,
  "dating</w>": 3725,
  "1989</w>": 3726,
  "ese</w>": 3727,
  "mortality</w>": 3728,
  "encouraging</w>": 3729,
  "Forces</w>": 3730,
  "explained</w>": 3731,
  "Inv": 3732,
  "Mat": 3733,
  "seminar</w>": 3734,
  "figures</w>": 3735,
  "Main</w>": 3736,
  "imprisonment</w>": 3737,
  "Set": 3738,
  "inspection</w>": 3739,
  "Then</w>": 3740,
  "tics</w>": 3741,
  "attached</w>": 3742,
  "ry</w>": 3743,
  "connected</w>": 3744,
  "entr": 3745,
  "covering</w>": 3746,
  "OECD</w>": 3747,
  "bar</w>": 3748,
  "cohe": 3749,
  "ll</w>": 3750,
  "ideas</w>": 3751,
  "dit</w>": 3752,
  "Science</w>": 3753,
  "identifying</w>": 3754,
  "150</w>": 3755,
  "ur</w>": 3756,
  "Out": 3757,
  "oversight</w>": 3758,
  "distributed</w>": 3759,
  "A.": 3760,
  "Suppl": 3761,
  "Church</w>": 3762,
  "directed</w>": 3763,
  "really</w>": 3764,
  "panel</w>": 3765,
  "War</w>": 3766,
  "link": 3767,
  "resolve</w>": 3768,
  "Fun": 3769,
  "sustained</w>": 3770,
  "reconstruction</w>": 3771,
  "improvements</w>": 3772,
  "transmitted</w>": 3773,
  "lists</w>": 3774,
  "tl": 3775,
  "corresponding</w>": 3776,
  "rapid</w>": 3777,
  "sa</w>": 3778,
  "Jud": 3779,
  "Plat": 3780,
  "Por": 3781,
  "allocation</w>": 3782,
  "older</w>": 3783,
  "transactions</w>": 3784,
  "Air</w>": 3785,
  "2nd</w>": 3786,
  "reasonable</w>": 3787,
  "eous</w>": 3788,
  "communic": 3789,
  "IN</w>": 3790,
  "stable</w>": 3791,
  "prepar": 3792,
  "everyone</w>": 3793,
  "looking</w>": 3794,
  "shi": 3795,
  "fur": 3796,
  "Bud": 3797,
  "Assistant</w>": 3798,
  "lu": 3799,
  "believes</w>": 3800,
  "700</w>": 3801,
  "detained</w>": 3802,
  "structural</w>": 3803,
  "topics</w>": 3804,
  "outer</w>": 3805,
  "index</w>": 3806,
  "trading</w>": 3807,
  "ption</w>": 3808,
  "я</w>": 3809,
  "adaptation</w>": 3810,
  "attend</w>": 3811,
  "mot": 3812,
  "Malaysia</w>": 3813,
  "arrested</w>": 3814,
  "appropri": 3815,
  "examined</w>": 3816,
  "Military</w>": 3817,
  "201": 3818,
  "shing</w>": 3819,
  "stand": 3820,
  "federal</w>": 3821,
  "SU": 3822,
  "killed</w>": 3823,
  "amend</w>": 3824,
  "Universal</w>": 3825,
  "tw": 3826,
  "migrant</w>": 3827,
  "vities</w>": 3828,
  "Q</w>": 3829,
  "historical</w>": 3830,
  "ancy</w>": 3831,
  "sustainability</w>": 3832,
  "Finance</w>": 3833,
  "gated</w>": 3834,
  "200": 3835,
  "collabor": 3836,
  "sin": 3837,
  "35": 3838,
  "pending</w>": 3839,
  "PA</w>": 3840,
  "inform": 3841,
  "pollution</w>": 3842,
  "ena</w>": 3843,
  "ane</w>": 3844,
  "Home</w>": 3845,
  "Drugs</w>": 3846,
  "appears</w>": 3847,
  "Saudi</w>": 3848,
  "protecting</w>": 3849,
  "exc": 3850,
  "competence</w>": 3851,
  "gives</w>": 3852,
  "Partnership</w>": 3853,
  "Be": 3854,
  "affecting</w>": 3855,
  "Appl": 3856,
  "Saint</w>": 3857,
  "guests</w>": 3858,
  "Hel": 3859,
  "spec": 3860,
  "Mechan": 3861,
  "ental</w>": 3862,
  "losses</w>": 3863,
  "Res": 3864,
  "Bangladesh</w>": 3865,
  "nationals</w>": 3866,
  "preventive</w>": 3867,
  "ships</w>": 3868,
  "vac": 3869,
  "GMT</w>": 3870,
  "ns</w>": 3871,
  "speakers</w>": 3872,
  "thing</w>": 3873,
  "dispute</w>": 3874,
  "abroad</w>": 3875,
  "initi": 3876,
  "Terrorism</w>": 3877,
  "EM</w>": 3878,
  "1st</w>": 3879,
  "noting</w>": 3880,
  "pha": 3881,
  "shes</w>": 3882,
  "exhibition</w>": 3883,
  "Mar</w>": 3884,
  "sensitive</w>": 3885,
  "writing</w>": 3886,
  "controls</w>": 3887,
  "ot</w>": 3888,
  "disasters</w>": 3889,
  "interim</w>": 3890,
  "ensive</w>": 3891,
  "Independent</w>": 3892,
  "Des": 3893,
  "Deleg": 3894,
  "sional</w>": 3895,
  "register</w>": 3896,
  "coordinate</w>": 3897,
  "ki": 3898,
  "pursue</w>": 3899,
  "speak</w>": 3900,
  "Uganda</w>": 3901,
  "nine</w>": 3902,
  "Acti": 3903,
  "app": 3904,
  "GE": 3905,
  "36": 3906,
  "charged</w>": 3907,
  "managed</w>": 3908,
  "Cer": 3909,
  "hour</w>": 3910,
  "employed</w>": 3911,
  "Society</w>": 3912,
  "mother</w>": 3913,
  "Darfur</w>": 3914,
  "complainant</w>": 3915,
  "lam": 3916,
  "Soviet</w>": 3917,
  "²</w>": 3918,
  "ex</w>": 3919,
  "tolerance</w>": 3920,
  "transferred</w>": 3921,
  "capabilities</w>": 3922,
  "CC</w>": 3923,
  "prohibited</w>": 3924,
  "weather</w>": 3925,
  "characteristics</w>": 3926,
  "affir": 3927,
  "Doc": 3928,
  "Post</w>": 3929,
  "encies</w>": 3930,
  "card</w>": 3931,
  "Costa</w>": 3932,
  "forums</w>": 3933,
  "strength</w>": 3934,
  "ail</w>": 3935,
  "ardi": 3936,
  "unemployment</w>": 3937,
  "Ver": 3938,
  "District</w>": 3939,
  "lat": 3940,
  "instead</w>": 3941,
  "nothing</w>": 3942,
  "B.": 3943,
  "image</w>": 3944,
  "я": 3945,
  "purchase</w>": 3946,
  "ences</w>": 3947,
  "pilot</w>": 3948,
  "object</w>": 3949,
  "judiciary</w>": 3950,
  "managers</w>": 3951,
  "regards</w>": 3952,
  "ear": 3953,
  "dignity</w>": 3954,
  "Iraqi</w>": 3955,
  "Strategic</w>": 3956,
  "sel": 3957,
  "Red</w>": 3958,
  "era</w>": 3959,
  "ree</w>": 3960,
  "Sunday</w>": 3961,
  "sible</w>": 3962,
  "sha": 3963,
  "Sat</w>": 3964,
  "lab": 3965,
  "Slovakia</w>": 3966,
  "à</w>": 3967,
  "&apos;ll</w>": 3968,
  "1988</w>": 3969,
  "St.</w>": 3970,
  "voc": 3971,
  "periods</w>": 3972,
  "heavy</w>": 3973,
  "Govern": 3974,
  "platform</w>": 3975,
  "ol</w>": 3976,
  "composition</w>": 3977,
  "friendly</w>": 3978,
  "methodology</w>": 3979,
  "lin": 3980,
  "accessible</w>": 3981,
  "ambi": 3982,
  "Professional</w>": 3983,
  "character</w>": 3984,
  "suitable</w>": 3985,
  "8,": 3986,
  "wished</w>": 3987,
  "simple</w>": 3988,
  "consult": 3989,
  "ong": 3990,
  "popular</w>": 3991,
  "hoped</w>": 3992,
  "remedies</w>": 3993,
  "valuation</w>": 3994,
  "Apr</w>": 3995,
  "jobs</w>": 3996,
  "Guatemala</w>": 3997,
  "Representatives</w>": 3998,
  "sal": 3999,
  "suffering</w>": 4000,
  "NO": 4001,
  "disputes</w>": 4002,
  "annex": 4003,
  "expand</w>": 4004,
  "eeding</w>": 4005,
  "Myanmar</w>": 4006,
  "reliable</w>": 4007,
  "returned</w>": 4008,
  "trend</w>": 4009,
  "Jordan</w>": 4010,
  "guaranteed</w>": 4011,
  "helped</w>": 4012,
  "sometimes</w>": 4013,
  "constructive</w>": 4014,
  "circulated</w>": 4015,
  "sequently</w>": 4016,
  "Erit": 4017,
  "safeguards</w>": 4018,
  "expanded</w>": 4019,
  "ai</w>": 4020,
  "behind</w>": 4021,
  "Constitutional</w>": 4022,
  "moment</w>": 4023,
  "pan": 4024,
  "voting</w>": 4025,
  "I.": 4026,
  "bility</w>": 4027,
  "ig": 4028,
  "feel</w>": 4029,
  "1.1</w>": 4030,
  "radio</w>": 4031,
  "disability</w>": 4032,
  "2.1</w>": 4033,
  "val": 4034,
  "proportion</w>": 4035,
  "ely</w>": 4036,
  "tural</w>": 4037,
  "perpetrators</w>": 4038,
  "acceptance</w>": 4039,
  "UR</w>": 4040,
  "ICT</w>": 4041,
  "USA</w>": 4042,
  "Jan</w>": 4043,
  "tables</w>": 4044,
  "manage</w>": 4045,
  "installation</w>": 4046,
  "shares</w>": 4047,
  "Movement</w>": 4048,
  "premises</w>": 4049,
  "himself</w>": 4050,
  "focal</w>": 4051,
  "lic": 4052,
  "demonstrated</w>": 4053,
  "exports</w>": 4054,
  "reiterated</w>": 4055,
  "difference</w>": 4056,
  "tot": 4057,
  "assi": 4058,
  "joined</w>": 4059,
  "WTO</w>": 4060,
  "percent</w>": 4061,
  "chemicals</w>": 4062,
  "observer</w>": 4063,
  "alizing</w>": 4064,
  "multiple</w>": 4065,
  "des": 4066,
  "burden</w>": 4067,
  "mal": 4068,
  "attempt</w>": 4069,
  "bro": 4070,
  "shop</w>": 4071,
  "adjustment</w>": 4072,
  "description</w>": 4073,
  "votes</w>": 4074,
  "sol": 4075,
  "Fi": 4076,
  "subsequently</w>": 4077,
  "successfully</w>": 4078,
  "Earth</w>": 4079,
  "represents</w>": 4080,
  "Before</w>": 4081,
  "ner": 4082,
  "Taking</w>": 4083,
  "south</w>": 4084,
  "empowerment</w>": 4085,
  "instructions</w>": 4086,
  "experienced</w>": 4087,
  "Excell": 4088,
  "House</w>": 4089,
  "buildings</w>": 4090,
  "Cy": 4091,
  "900</w>": 4092,
  "Co</w>": 4093,
  "join</w>": 4094,
  "ser</w>": 4095,
  "outlined</w>": 4096,
  "objects</w>": 4097,
  "Given</w>": 4098,
  "tons</w>": 4099,
  "Jo": 4100,
  "schedule</w>": 4101,
  "Local</w>": 4102,
  "os": 4103,
  "Over</w>": 4104,
  "ban</w>": 4105,
  "bur": 4106,
  "Ti": 4107,
  "Slovenia</w>": 4108,
  "cut</w>": 4109,
  "method": 4110,
  "Accordingly</w>": 4111,
  "sales</w>": 4112,
  "Ku": 4113,
  "select</w>": 4114,
  "big</w>": 4115,
  "depth</w>": 4116,
  "bun": 4117,
  "din": 4118,
  "output</w>": 4119,
  "dealt</w>": 4120,
  "ennial</w>": 4121,
  "Small</w>": 4122,
  "Is</w>": 4123,
  "papers</w>": 4124,
  "ically</w>": 4125,
  "Cal": 4126,
  "Uni": 4127,
  "says</w>": 4128,
  "Estonia</w>": 4129,
  "manife": 4130,
  "Compreh": 4131,
  "1.2</w>": 4132,
  "Concer": 4133,
  "LD": 4134,
  "contrary</w>": 4135,
  "extremely</w>": 4136,
  "Beijing</w>": 4137,
  "Pal": 4138,
  "phone</w>": 4139,
  "models</w>": 4140,
  "Le": 4141,
  "demands</w>": 4142,
  "complaint</w>": 4143,
  "Rel": 4144,
  "liberty</w>": 4145,
  "legally</w>": 4146,
  "hotels</w>": 4147,
  "non": 4148,
  "thank</w>": 4149,
  "Wi": 4150,
  "Sch": 4151,
  "oriented</w>": 4152,
  "App": 4153,
  "AI": 4154,
  "ask</w>": 4155,
  "letters</w>": 4156,
  "currency</w>": 4157,
  "carbon</w>": 4158,
  "deployed</w>": 4159,
  "Having</w>": 4160,
  "increases</w>": 4161,
  "Д": 4162,
  "Even</w>": 4163,
  "pool</w>": 4164,
  "finding</w>": 4165,
  "soldiers</w>": 4166,
  "Team</w>": 4167,
  "Sep</w>": 4168,
  "stri": 4169,
  "Web</w>": 4170,
  "Price</w>": 4171,
  "opposition</w>": 4172,
  "bearing</w>": 4173,
  "bil": 4174,
  "installed</w>": 4175,
  "abilities</w>": 4176,
  "relatively</w>": 4177,
  "pe</w>": 4178,
  "Lebanese</w>": 4179,
  "felt</w>": 4180,
  "constraints</w>": 4181,
  "devoted</w>": 4182,
  "measured</w>": 4183,
  "humanity</w>": 4184,
  "Do</w>": 4185,
  "war": 4186,
  "mandated</w>": 4187,
  "endi": 4188,
  "Calls</w>": 4189,
  "continuous</w>": 4190,
  "DE": 4191,
  "kept</w>": 4192,
  "ner</w>": 4193,
  "operate</w>": 4194,
  "title</w>": 4195,
  "won</w>": 4196,
  "revision</w>": 4197,
  "warning</w>": 4198,
  "Ecuador</w>": 4199,
  "techniques</w>": 4200,
  "Belar": 4201,
  "partial</w>": 4202,
  "shment</w>": 4203,
  "organize</w>": 4204,
  "maps</w>": 4205,
  "Only</w>": 4206,
  "ins</w>": 4207,
  "mits</w>": 4208,
  "firm</w>": 4209,
  "IONS</w>": 4210,
  "Ak": 4211,
  "ables</w>": 4212,
  "Climate</w>": 4213,
  "tor": 4214,
  "stages</w>": 4215,
  "becoming</w>": 4216,
  "formation</w>": 4217,
  "equivalent</w>": 4218,
  "XX": 4219,
  "As": 4220,
  "introduce</w>": 4221,
  "missible</w>": 4222,
  "British</w>": 4223,
  "NGO</w>": 4224,
  "ann": 4225,
  "master</w>": 4226,
  "Sar": 4227,
  "campaigns</w>": 4228,
  "reality</w>": 4229,
  "п": 4230,
  "Venezuela</w>": 4231,
  "assisting</w>": 4232,
  "launch</w>": 4233,
  "Sp": 4234,
  "incorporated</w>": 4235,
  "adv": 4236,
  "conducting</w>": 4237,
  "Rome</w>": 4238,
  "il</w>": 4239,
  "applying</w>": 4240,
  "Fifty</w>": 4241,
  "soci": 4242,
  "fies</w>": 4243,
  "clean</w>": 4244,
  "ument</w>": 4245,
  "у": 4246,
  "facility</w>": 4247,
  "sphere</w>": 4248,
  "90": 4249,
  "ä": 4250,
  "ir</w>": 4251,
  "Assessment</w>": 4252,
  "execution</w>": 4253,
  "satellite</w>": 4254,
  "gap</w>": 4255,
  "direc": 4256,
  "questionn": 4257,
  "establi": 4258,
  "qualified</w>": 4259,
  "tees</w>": 4260,
  "sanitation</w>": 4261,
  "ordinary</w>": 4262,
  "vessels</w>": 4263,
  "Country</w>": 4264,
  "distance</w>": 4265,
  "ambia</w>": 4266,
  "extreme</w>": 4267,
  "quarter</w>": 4268,
  "box</w>": 4269,
  "aya</w>": 4270,
  "href</w>": 4271,
  "}</w>": 4272,
  "signing</w>": 4273,
  "violated</w>": 4274,
  "ber</w>": 4275,
  "peace": 4276,
  "iter": 4277,
  "Comp": 4278,
  "clients</w>": 4279,
  "gre": 4280,
  "mit</w>": 4281,
  "authors</w>": 4282,
  "trained</w>": 4283,
  "accompanied</w>": 4284,
  "teaching</w>": 4285,
  "easily</w>": 4286,
  "EP</w>": 4287,
  "enting</w>": 4288,
  "relate</w>": 4289,
  "not": 4290,
  "sti": 4291,
  "aw": 4292,
  "machine</w>": 4293,
  "believed</w>": 4294,
  "imp": 4295,
  "quickly</w>": 4296,
  "CA</w>": 4297,
  "{</w>": 4298,
  "med</w>": 4299,
  "arbitrary</w>": 4300,
  "wing</w>": 4301,
  "anti": 4302,
  "ail": 4303,
  "pension</w>": 4304,
  "substance</w>": 4305,
  "treated</w>": 4306,
  "oples</w>": 4307,
  "overcome</w>": 4308,
  "completely</w>": 4309,
  "reply</w>": 4310,
  "locked</w>": 4311,
  "Road</w>": 4312,
  "involve</w>": 4313,
  "Next</w>": 4314,
  "relevance</w>": 4315,
  "coordinating</w>": 4316,
  "grave</w>": 4317,
  "Communications</w>": 4318,
  "Turk": 4319,
  "Uruguay</w>": 4320,
  "MD": 4321,
  "endeav": 4322,
  "manufacturer</w>": 4323,
  "Right</w>": 4324,
  "Agriculture</w>": 4325,
  "Location</w>": 4326,
  "books</w>": 4327,
  "track</w>": 4328,
  "duration</w>": 4329,
  "Go</w>": 4330,
  "mitted</w>": 4331,
  "Gr": 4332,
  "nutrition</w>": 4333,
  "ems</w>": 4334,
  "Fa": 4335,
  "Observer</w>": 4336,
  "holder</w>": 4337,
  "cap": 4338,
  "translation</w>": 4339,
  "command</w>": 4340,
  "PRE": 4341,
  "innovation</w>": 4342,
  "TER": 4343,
  "north</w>": 4344,
  "custody</w>": 4345,
  "gallery</w>": 4346,
  "London</w>": 4347,
  "Sri</w>": 4348,
  "vali": 4349,
  "47": 4350,
  "laid</w>": 4351,
  "indicates</w>": 4352,
  "Let</w>": 4353,
  "invitation</w>": 4354,
  "Change</w>": 4355,
  "ah": 4356,
  "input</w>": 4357,
  "welfare</w>": 4358,
  "spread</w>": 4359,
  "neither</w>": 4360,
  "serv": 4361,
  "valuable</w>": 4362,
  "IL</w>": 4363,
  "music</w>": 4364,
  "monthly</w>": 4365,
  "apartment</w>": 4366,
  "reaffirmed</w>": 4367,
  "department</w>": 4368,
  "houses</w>": 4369,
  "detainees</w>": 4370,
  "Equ": 4371,
  "ü": 4372,
  "eable</w>": 4373,
  "AF": 4374,
  "exception</w>": 4375,
  "dependent</w>": 4376,
  "reaching</w>": 4377,
  "cooper": 4378,
  "hands</w>": 4379,
  "minist": 4380,
  "Planning</w>": 4381,
  "grants</w>": 4382,
  "aison</w>": 4383,
  "orders</w>": 4384,
  "lea": 4385,
  "GDP</w>": 4386,
  "officer</w>": 4387,
  "emphasi": 4388,
  "preparations</w>": 4389,
  "sters</w>": 4390,
  "consists</w>": 4391,
  "functional</w>": 4392,
  "109</w>": 4393,
  "Jul</w>": 4394,
  "representing</w>": 4395,
  "Fore": 4396,
  "ario</w>": 4397,
  "amounted</w>": 4398,
  "sul": 4399,
  "ö": 4400,
  "Southern</w>": 4401,
  "resumed</w>": 4402,
  "Em": 4403,
  "resident</w>": 4404,
  "Jun</w>": 4405,
  "Body</w>": 4406,
  "Angola</w>": 4407,
  "Sal": 4408,
  "with": 4409,
  "Nairobi</w>": 4410,
  "trem": 4411,
  "dering</w>": 4412,
  "Tur": 4413,
  "Not</w>": 4414,
  "105</w>": 4415,
  "Among</w>": 4416,
  "segment</w>": 4417,
  "pass</w>": 4418,
  "sues</w>": 4419,
  "dates</w>": 4420,
  "ish</w>": 4421,
  "lasting</w>": 4422,
  "remote</w>": 4423,
  "ga</w>": 4424,
  "Within</w>": 4425,
  "Lea": 4426,
  "Cap": 4427,
  "Treatment</w>": 4428,
  "Nor": 4429,
  "roles</w>": 4430,
  "indeed</w>": 4431,
  "Cambodia</w>": 4432,
  "hibition</w>": 4433,
  "restric": 4434,
  "investigate</w>": 4435,
  "avi": 4436,
  "savings</w>": 4437,
  "disp": 4438,
  "disposal</w>": 4439,
  "protocol</w>": 4440,
  "micro": 4441,
  "Ge": 4442,
  "mining</w>": 4443,
  "incorpor": 4444,
  "larger</w>": 4445,
  "2.2</w>": 4446,
  "ko</w>": 4447,
  "budge": 4448,
  "VIII</w>": 4449,
  "ased</w>": 4450,
  "id</w>": 4451,
  "down": 4452,
  "belief</w>": 4453,
  "disciplinary</w>": 4454,
  "termin": 4455,
  "leader</w>": 4456,
  "staffing</w>": 4457,
  "ect</w>": 4458,
  "ophobia</w>": 4459,
  "Industrial</w>": 4460,
  "212</w>": 4461,
  "Wor": 4462,
  "air": 4463,
  "competitive</w>": 4464,
  "seem</w>": 4465,
  "largely</w>": 4466,
  "acquisition</w>": 4467,
  "Rica</w>": 4468,
  "So": 4469,
  "witnesses</w>": 4470,
  "lia</w>": 4471,
  "southern</w>": 4472,
  "icking</w>": 4473,
  "import</w>": 4474,
  "generated</w>": 4475,
  "flight</w>": 4476,
  "sting</w>": 4477,
  "borders</w>": 4478,
  "solidarity</w>": 4479,
  "refers</w>": 4480,
  "thousands</w>": 4481,
  "mid</w>": 4482,
  "repatri": 4483,
  "fill</w>": 4484,
  "Press</w>": 4485,
  "13.": 4486,
  "ach</w>": 4487,
  "Fri</w>": 4488,
  "TA</w>": 4489,
  "bid</w>": 4490,
  "impunity</w>": 4491,
  "ye</w>": 4492,
  "E.": 4493,
  "broader</w>": 4494,
  "classification</w>": 4495,
  "societies</w>": 4496,
  "rea</w>": 4497,
  "allowing</w>": 4498,
  "adi": 4499,
  "green</w>": 4500,
  "army</w>": 4501,
  "recognizes</w>": 4502,
  "DP</w>": 4503,
  "Sy": 4504,
  "wood</w>": 4505,
  "9,": 4506,
  "budgets</w>": 4507,
  "orial</w>": 4508,
  "balanced</w>": 4509,
  "covers</w>": 4510,
  "bar": 4511,
  "ined</w>": 4512,
  "replace</w>": 4513,
  "lands</w>": 4514,
  "occup": 4515,
  "Mu": 4516,
  "troop</w>": 4517,
  "arts</w>": 4518,
  "minim": 4519,
  "aci": 4520,
  "grad": 4521,
  "ear</w>": 4522,
  "professionals</w>": 4523,
  "leg": 4524,
  "15.": 4525,
  "newly</w>": 4526,
  "USD</w>": 4527,
  "ministerial</w>": 4528,
  "measurement</w>": 4529,
  "loc": 4530,
  "gaps</w>": 4531,
  "Based</w>": 4532,
  "reflects</w>": 4533,
  "biological</w>": 4534,
  "occasion</w>": 4535,
  "certificate</w>": 4536,
  "Tri": 4537,
  "showed</w>": 4538,
  "Time</w>": 4539,
  "Youth</w>": 4540,
  "relative</w>": 4541,
  "Montenegro</w>": 4542,
  "square</w>": 4543,
  "detail</w>": 4544,
  "deliver</w>": 4545,
  "camps</w>": 4546,
  "48": 4547,
  "sponsors</w>": 4548,
  "lar</w>": 4549,
  "suffered</w>": 4550,
  "taining</w>": 4551,
  "....": 4552,
  "deliberations</w>": 4553,
  "unication</w>": 4554,
  "Equality</w>": 4555,
  "wrong</w>": 4556,
  "players</w>": 4557,
  "belonging</w>": 4558,
  "severe</w>": 4559,
  "removed</w>": 4560,
  "missing</w>": 4561,
  "ously</w>": 4562,
  "Advis": 4563,
  "saw</w>": 4564,
  "250</w>": 4565,
  "acti": 4566,
  "45": 4567,
  "probably</w>": 4568,
  "andum</w>": 4569,
  "conc": 4570,
  "ore</w>": 4571,
  "Budget</w>": 4572,
  "accordingly</w>": 4573,
  "focusing</w>": 4574,
  "decline</w>": 4575,
  "pment</w>": 4576,
  "Investment</w>": 4577,
  "financed</w>": 4578,
  "ta</w>": 4579,
  "constitutes</w>": 4580,
  "Operation</w>": 4581,
  "door</w>": 4582,
  "vol": 4583,
  "withdrawal</w>": 4584,
  "ker</w>": 4585,
  "key": 4586,
  "rose</w>": 4587,
  "programming</w>": 4588,
  "prohibition</w>": 4589,
  "confi": 4590,
  "consolidated</w>": 4591,
  "plants</w>": 4592,
  "eth</w>": 4593,
  "lig": 4594,
  "residents</w>": 4595,
  "seems</w>": 4596,
  "pression</w>": 4597,
  "Senegal</w>": 4598,
  "ght</w>": 4599,
  "Ri": 4600,
  "acial</w>": 4601,
  "Tunisia</w>": 4602,
  "wast": 4603,
  "Aug</w>": 4604,
  "Arabia</w>": 4605,
  "died</w>": 4606,
  "enh": 4607,
  "applic": 4608,
  "22": 4609,
  "California</w>": 4610,
  "tel</w>": 4611,
  "define</w>": 4612,
  "stration</w>": 4613,
  "applies</w>": 4614,
  "MON": 4615,
  "ging</w>": 4616,
  "father</w>": 4617,
  "advocacy</w>": 4618,
  "vulnerability</w>": 4619,
  "log": 4620,
  "Send</w>": 4621,
  "Follow</w>": 4622,
  "ste": 4623,
  "exceed</w>": 4624,
  "notification</w>": 4625,
  "mark</w>": 4626,
  "Exchange</w>": 4627,
  "super": 4628,
  "zones</w>": 4629,
  "household</w>": 4630,
  "Land</w>": 4631,
  "IP</w>": 4632,
  "homes</w>": 4633,
  "mode</w>": 4634,
  "atives</w>": 4635,
  "3.1</w>": 4636,
  "kha": 4637,
  "Ki": 4638,
  "pleased</w>": 4639,
  "ce": 4640,
  "33": 4641,
  "acceptable</w>": 4642,
  "disabled</w>": 4643,
  "parti": 4644,
  "Self</w>": 4645,
  "journalists</w>": 4646,
  "regul": 4647,
  "Both</w>": 4648,
  "Last</w>": 4649,
  "Ou": 4650,
  "urs</w>": 4651,
  "å": 4652,
  "equity</w>": 4653,
  "industries</w>": 4654,
  "Sup": 4655,
  "barriers</w>": 4656,
  "considerations</w>": 4657,
  "integrate</w>": 4658,
  "Island</w>": 4659,
  "decade</w>": 4660,
  "prostitution</w>": 4661,
  "ita</w>": 4662,
  "capable</w>": 4663,
  "meaning</w>": 4664,
  "14.": 4665,
  "dimensions</w>": 4666,
  "oral</w>": 4667,
  "stan": 4668,
  "copy</w>": 4669,
  "male</w>": 4670,
  "aud": 4671,
  "Nevertheless</w>": 4672,
  "Il": 4673,
  "extradition</w>": 4674,
  "conservation</w>": 4675,
  "Char": 4676,
  "Oct</w>": 4677,
  "School</w>": 4678,
  "110</w>": 4679,
  "intervention</w>": 4680,
  "fighting</w>": 4681,
  "At": 4682,
  "ica</w>": 4683,
  "harm</w>": 4684,
  "collected</w>": 4685,
  "intellectual</w>": 4686,
  "occur</w>": 4687,
  "manufacturing</w>": 4688,
  "Lanka</w>": 4689,
  "torate</w>": 4690,
  "Ty": 4691,
  "oms</w>": 4692,
  "stat": 4693,
  "undertaking</w>": 4694,
  "ei": 4695,
  "interaction</w>": 4696,
  "deration</w>": 4697,
  "Armed</w>": 4698,
  "presidential</w>": 4699,
  "oto</w>": 4700,
  "и</w>": 4701,
  "Greek</w>": 4702,
  "Alexander</w>": 4703,
  "insufficient</w>": 4704,
  "Rem": 4705,
  "Christ</w>": 4706,
  "tem": 4707,
  "thanks</w>": 4708,
  "ase</w>": 4709,
  "PL": 4710,
  "ratio</w>": 4711,
  "fish": 4712,
  "transfers</w>": 4713,
  "Defence</w>": 4714,
  "valid</w>": 4715,
  "Val": 4716,
  "television</w>": 4717,
  "ee</w>": 4718,
  "Saturday</w>": 4719,
  "Gar": 4720,
  "Salvador</w>": 4721,
  "offering</w>": 4722,
  "engineering</w>": 4723,
  "decades</w>": 4724,
  "crimin": 4725,
  "tigation</w>": 4726,
  "Notes</w>": 4727,
  "east</w>": 4728,
  "removal</w>": 4729,
  "oring</w>": 4730,
  "atmosphere</w>": 4731,
  "Vol": 4732,
  "holders</w>": 4733,
  "resolved</w>": 4734,
  "unity</w>": 4735,
  "gration</w>": 4736,
  "enko</w>": 4737,
  "pat": 4738,
  "League</w>": 4739,
  "foster</w>": 4740,
  "3rd</w>": 4741,
  "Ni": 4742,
  "gener": 4743,
  "Source</w>": 4744,
  "wage</w>": 4745,
  "col": 4746,
  "Area</w>": 4747,
  "porting</w>": 4748,
  "nearly</w>": 4749,
  "issu": 4750,
  "ices</w>": 4751,
  "О": 4752,
  "tried</w>": 4753,
  "ino</w>": 4754,
  "appeared</w>": 4755,
  "Palestinians</w>": 4756,
  "Nepal</w>": 4757,
  "machinery</w>": 4758,
  "LE</w>": 4759,
  "forming</w>": 4760,
  "bas": 4761,
  "cive</w>": 4762,
  "proceed</w>": 4763,
  "Macedonia</w>": 4764,
  "Arti": 4765,
  "essional</w>": 4766,
  "ada</w>": 4767,
  "acknowledged</w>": 4768,
  "elling</w>": 4769,
  "adverse</w>": 4770,
  "compatible</w>": 4771,
  "widespread</w>": 4772,
  "counsel</w>": 4773,
  "spices</w>": 4774,
  "fishing</w>": 4775,
  "requ": 4776,
  "specialists</w>": 4777,
  "answer</w>": 4778,
  "surveys</w>": 4779,
  "understood</w>": 4780,
  "academic</w>": 4781,
  "Du": 4782,
  "Mon</w>": 4783,
  "tures</w>": 4784,
  "ulated</w>": 4785,
  "parliamentary</w>": 4786,
  "Off": 4787,
  "Nar": 4788,
  "permitted</w>": 4789,
  "behaviour</w>": 4790,
  "Rio</w>": 4791,
  "Access</w>": 4792,
  "grade</w>": 4793,
  "Washington</w>": 4794,
  "integral</w>": 4795,
  "ories</w>": 4796,
  "bound</w>": 4797,
  "cr": 4798,
  "eastern</w>": 4799,
  "Violence</w>": 4800,
  "ma": 4801,
  "min</w>": 4802,
  "notice</w>": 4803,
  "bear</w>": 4804,
  "xen": 4805,
  "intensi": 4806,
  "cles</w>": 4807,
  "agents</w>": 4808,
  "contacts</w>": 4809,
  "wider</w>": 4810,
  "deb": 4811,
  "parameters</w>": 4812,
  "LE": 4813,
  "asset</w>": 4814,
  "excellent</w>": 4815,
  "photo</w>": 4816,
  "seriously</w>": 4817,
  "reimbur": 4818,
  "properly</w>": 4819,
  "MAN</w>": 4820,
  "tom": 4821,
  "spent</w>": 4822,
  "beautiful</w>": 4823,
  "stic</w>": 4824,
  "Sur": 4825,
  "А": 4826,
  "Rep": 4827,
  "restricted</w>": 4828,
  "ru</w>": 4829,
  "fear</w>": 4830,
  "determining</w>": 4831,
  "ft</w>": 4832,
  "Cas": 4833,
  "summer</w>": 4834,
  "inventory</w>": 4835,
  "appeals</w>": 4836,
  "wall</w>": 4837,
  "atistical</w>": 4838,
  "Clo": 4839,
  "middle</w>": 4840,
  "di</w>": 4841,
  "ke</w>": 4842,
  "atively</w>": 4843,
  "mac": 4844,
  "expresses</w>": 4845,
  "thir": 4846,
  "estimate</w>": 4847,
  "anian</w>": 4848,
  "danger</w>": 4849,
  "Acc": 4850,
  "copies</w>": 4851,
  "ef": 4852,
  "scheme</w>": 4853,
  "Standard</w>": 4854,
  "demonstrate</w>": 4855,
  "composed</w>": 4856,
  "memor": 4857,
  "versi": 4858,
  "movements</w>": 4859,
  "ard</w>": 4860,
  "replaced</w>": 4861,
  "helping</w>": 4862,
  "talks</w>": 4863,
  "regardless</w>": 4864,
  "em</w>": 4865,
  "Luxembourg</w>": 4866,
  "white</w>": 4867,
  "EX": 4868,
  "Multi": 4869,
  "client</w>": 4870,
  "ser": 4871,
  "truth</w>": 4872,
  "ets</w>": 4873,
  "style</w>": 4874,
  "aggression</w>": 4875,
  "Tanzania</w>": 4876,
  "conclude</w>": 4877,
  "productivity</w>": 4878,
  "adopting</w>": 4879,
  "sively</w>": 4880,
  "calculated</w>": 4881,
  "flexible</w>": 4882,
  "prescribed</w>": 4883,
  "Indeed</w>": 4884,
  "dual</w>": 4885,
  "1.5</w>": 4886,
  "interventions</w>": 4887,
  "agu": 4888,
  "Heads</w>": 4889,
  "turned</w>": 4890,
  "friends</w>": 4891,
  "cutting</w>": 4892,
  "conventional</w>": 4893,
  "comb": 4894,
  "requesting</w>": 4895,
  "drew</w>": 4896,
  "invite</w>": 4897,
  "Electr": 4898,
  "assembly</w>": 4899,
  "ther": 4900,
  "consoli": 4901,
  "suggestions</w>": 4902,
  "rejected</w>": 4903,
  "ie</w>": 4904,
  "hearing</w>": 4905,
  "six": 4906,
  "correc": 4907,
  "Regar": 4908,
  "è": 4909,
  "got</w>": 4910,
  "reserves</w>": 4911,
  "forests</w>": 4912,
  "..</w>": 4913,
  "Libyan</w>": 4914,
  "rap": 4915,
  "eb": 4916,
  "atically</w>": 4917,
  "enth</w>": 4918,
  "municipal</w>": 4919,
  "Holy</w>": 4920,
  "ain</w>": 4921,
  "driver</w>": 4922,
  "hus": 4923,
  "Building</w>": 4924,
  "lawyers</w>": 4925,
  "annually</w>": 4926,
  "frame</w>": 4927,
  "itor</w>": 4928,
  "cred": 4929,
  "citizenship</w>": 4930,
  "cul": 4931,
  "digital</w>": 4932,
  "pose</w>": 4933,
  "recogni": 4934,
  "grateful</w>": 4935,
  "57": 4936,
  "istic</w>": 4937,
  "conjunction</w>": 4938,
  "wa": 4939,
  "briefing</w>": 4940,
  "aging</w>": 4941,
  "texts</w>": 4942,
  "prospects</w>": 4943,
  "Se": 4944,
  "ches</w>": 4945,
  "resi": 4946,
  "onic</w>": 4947,
  "dian</w>": 4948,
  "claimed</w>": 4949,
  "allowance</w>": 4950,
  "icing</w>": 4951,
  "&apos;re</w>": 4952,
  "mandatory</w>": 4953,
  "Ev": 4954,
  "drawing</w>": 4955,
  "adequately</w>": 4956,
  "OM": 4957,
  "La": 4958,
  "IX</w>": 4959,
  "customer</w>": 4960,
  "34": 4961,
  "foundation</w>": 4962,
  "worth</w>": 4963,
  "path</w>": 4964,
  "ash</w>": 4965,
  "psychological</w>": 4966,
  "marks</w>": 4967,
  "abu": 4968,
  "Contin": 4969,
  "yan</w>": 4970,
  "running</w>": 4971,
  "1,000</w>": 4972,
  "ка": 4973,
  "exactly</w>": 4974,
  "showing</w>": 4975,
  "CS": 4976,
  "esti": 4977,
  "PAR": 4978,
  "U.S.</w>": 4979,
  "win</w>": 4980,
  "promoted</w>": 4981,
  "street</w>": 4982,
  "hear</w>": 4983,
  "LO": 4984,
  "Lin": 4985,
  "FC</w>": 4986,
  "IF": 4987,
  "Election</w>": 4988,
  "Work": 4989,
  "screen</w>": 4990,
  "unilateral</w>": 4991,
  "BI</w>": 4992,
  "water": 4993,
  "Ali": 4994,
  "buy</w>": 4995,
  "ils</w>": 4996,
  "balances</w>": 4997,
  "ao</w>": 4998,
  "explore</w>": 4999,
  "Ombudsman</w>": 5000,
  "Under": 5001,
  "un</w>": 5002,
  "dry</w>": 5003,
  "remedy</w>": 5004,
  "tary</w>": 5005,
  "ware</w>": 5006,
  "electric</w>": 5007,
  "properties</w>": 5008,
  "organizing</w>": 5009,
  "leaving</w>": 5010,
  "ected</w>": 5011,
  "margin": 5012,
  "bus</w>": 5013,
  "depending</w>": 5014,
  "scri": 5015,
  "rape</w>": 5016,
  "CN": 5017,
  "union</w>": 5018,
  "loans</w>": 5019,
  "Through</w>": 5020,
  "gate</w>": 5021,
  "drive</w>": 5022,
  "stress</w>": 5023,
  "Academy</w>": 5024,
  "combination</w>": 5025,
  "archi": 5026,
  "ecting</w>": 5027,
  "negotiation</w>": 5028,
  "deemed</w>": 5029,
  "becomes</w>": 5030,
  "fiscal</w>": 5031,
  "interesting</w>": 5032,
  "ED": 5033,
  "remove</w>": 5034,
  "Mad": 5035,
  "compar": 5036,
  "morning</w>": 5037,
  "desire</w>": 5038,
  "accomp": 5039,
  "Fin": 5040,
  "Annual</w>": 5041,
  "v.</w>": 5042,
  "bill</w>": 5043,
  "norm": 5044,
  "church</w>": 5045,
  "chosen</w>": 5046,
  "2.5</w>": 5047,
  "Dr": 5048,
  "hazardous</w>": 5049,
  "pr": 5050,
  "intolerance</w>": 5051,
  "3.2</w>": 5052,
  "Mali</w>": 5053,
  "equally</w>": 5054,
  "aggre": 5055,
  "CT": 5056,
  "procedural</w>": 5057,
  "John</w>": 5058,
  "restructuring</w>": 5059,
  "dupl": 5060,
  "Sol": 5061,
  "prove</w>": 5062,
  "Adv": 5063,
  "Go": 5064,
  "moving</w>": 5065,
  "advantages</w>": 5066,
  "Cross</w>": 5067,
  "electricity</w>": 5068,
  "greatest</w>": 5069,
  "investors</w>": 5070,
  "adoles": 5071,
  "indicator</w>": 5072,
  "forecast</w>": 5073,
  "impossible</w>": 5074,
  "Legisl": 5075,
  "dity</w>": 5076,
  "def": 5077,
  "ility</w>": 5078,
  "Pres": 5079,
  "Gal": 5080,
  "citizen</w>": 5081,
  "Dem": 5082,
  "intelligence</w>": 5083,
  "Employment</w>": 5084,
  "101</w>": 5085,
  "CP</w>": 5086,
  "underlying</w>": 5087,
  "requiring</w>": 5088,
  "Yugosla": 5089,
  "Dec</w>": 5090,
  "ba</w>": 5091,
  "moral</w>": 5092,
  "households</w>": 5093,
  "Nicar": 5094,
  "Mongo": 5095,
  "ly": 5096,
  "we": 5097,
  "back": 5098,
  "settings</w>": 5099,
  "4th</w>": 5100,
  "pressing</w>": 5101,
  "ne</w>": 5102,
  "inf": 5103,
  "Albania</w>": 5104,
  "Ann": 5105,
  "boys</w>": 5106,
  "Petersburg</w>": 5107,
  "fish</w>": 5108,
  "ternal</w>": 5109,
  "mari": 5110,
  "calling</w>": 5111,
  "flexibility</w>": 5112,
  "inadequate</w>": 5113,
  "evaluate</w>": 5114,
  "subjects</w>": 5115,
  "om</w>": 5116,
  "fine</w>": 5117,
  "filed</w>": 5118,
  "renewable</w>": 5119,
  "bri": 5120,
  "Educ": 5121,
  "hydro": 5122,
  "salary</w>": 5123,
  "blood</w>": 5124,
  "Because</w>": 5125,
  "introducing</w>": 5126,
  "our": 5127,
  "1986</w>": 5128,
  "print</w>": 5129,
  "supervision</w>": 5130,
  "northern</w>": 5131,
  "fre": 5132,
  "defenders</w>": 5133,
  "trac": 5134,
  "fa": 5135,
  "ro</w>": 5136,
  "tribu": 5137,
  "lah</w>": 5138,
  "patterns</w>": 5139,
  "aining</w>": 5140,
  "relationships</w>": 5141,
  "Liber": 5142,
  "goes</w>": 5143,
  "ferences</w>": 5144,
  "feature</w>": 5145,
  "Compl": 5146,
  "embargo</w>": 5147,
  "telephone</w>": 5148,
  "ographic</w>": 5149,
  "neighbouring</w>": 5150,
  "sample</w>": 5151,
  "eding</w>": 5152,
  "46": 5153,
  "ures</w>": 5154,
  "ax": 5155,
  "window</w>": 5156,
  "zon": 5157,
  "claiman": 5158,
  "assisted</w>": 5159,
  "zi": 5160,
  "gar": 5161,
  "Afghan</w>": 5162,
  "ado</w>": 5163,
  "Acting</w>": 5164,
  "noti": 5165,
  "TO": 5166,
  "Test</w>": 5167,
  "tenth</w>": 5168,
  "ole</w>": 5169,
  "president</w>": 5170,
  "explanation</w>": 5171,
  "possibilities</w>": 5172,
  "Org": 5173,
  "gation</w>": 5174,
  "Order</w>": 5175,
  "inde": 5176,
  "Singapore</w>": 5177,
  "til": 5178,
  "transmission</w>": 5179,
  "Nov": 5180,
  "1.3</w>": 5181,
  "ologies</w>": 5182,
  "munici": 5183,
  "hu": 5184,
  "gh": 5185,
  "cer": 5186,
  "EN</w>": 5187,
  "ji": 5188,
  "uation</w>": 5189,
  "Hy": 5190,
  "here": 5191,
  "wife</w>": 5192,
  "businesses</w>": 5193,
  "tering</w>": 5194,
  "з": 5195,
  "profit</w>": 5196,
  "DI</w>": 5197,
  "moderni": 5198,
  "stone</w>": 5199,
  "ere": 5200,
  "agua</w>": 5201,
  "Oc": 5202,
  "film</w>": 5203,
  "fast</w>": 5204,
  "environmentally</w>": 5205,
  "ports</w>": 5206,
  "reserve</w>": 5207,
  "77": 5208,
  "crises</w>": 5209,
  "ases</w>": 5210,
  "od</w>": 5211,
  "award</w>": 5212,
  "saying</w>": 5213,
  "Type</w>": 5214,
  "icity</w>": 5215,
  "producing</w>": 5216,
  "consumer</w>": 5217,
  "serves</w>": 5218,
  "stering</w>": 5219,
  "icate</w>": 5220,
  "break</w>": 5221,
  "inst": 5222,
  "patients</w>": 5223,
  "save</w>": 5224,
  "maternal</w>": 5225,
  "decides</w>": 5226,
  "17.": 5227,
  "fees</w>": 5228,
  "download</w>": 5229,
  "particip": 5230,
  "ñ": 5231,
  "reading</w>": 5232,
  "dynamic</w>": 5233,
  "han</w>": 5234,
  "presents</w>": 5235,
  "Str": 5236,
  "ova</w>": 5237,
  "Ghana</w>": 5238,
  "schemes</w>": 5239,
  "К": 5240,
  "г": 5241,
  "extra</w>": 5242,
  "concentration</w>": 5243,
  "gain</w>": 5244,
  "Relations</w>": 5245,
  "constant</w>": 5246,
  "eni": 5247,
  "frequently</w>": 5248,
  "UL": 5249,
  "contingent</w>": 5250,
  "Every</w>": 5251,
  "ruption</w>": 5252,
  "ski</w>": 5253,
  "founded</w>": 5254,
  "tur": 5255,
  "tested</w>": 5256,
  "Sem": 5257,
  "Bolivia</w>": 5258,
  "Qatar</w>": 5259,
  "revi": 5260,
  "oned</w>": 5261,
  "Je": 5262,
  "eration</w>": 5263,
  "oo": 5264,
  "can": 5265,
  "pon": 5266,
  "Culture</w>": 5267,
  "continuation</w>": 5268,
  "Italian</w>": 5269,
  "stabili": 5270,
  "projected</w>": 5271,
  "lar": 5272,
  "reflecting</w>": 5273,
  "reviewing</w>": 5274,
  "Traff": 5275,
  "sport</w>": 5276,
  "sev": 5277,
  "greatly</w>": 5278,
  "seats</w>": 5279,
  "signs</w>": 5280,
  "comparison</w>": 5281,
  "gencies</w>": 5282,
  "т</w>": 5283,
  "Army</w>": 5284,
  "feration</w>": 5285,
  "Tem": 5286,
  "AU</w>": 5287,
  "18.": 5288,
  "low": 5289,
  "transitional</w>": 5290,
  "cluster</w>": 5291,
  "va</w>": 5292,
  "begun</w>": 5293,
  "alling</w>": 5294,
  "consi": 5295,
  "eption</w>": 5296,
  "syn": 5297,
  "ath": 5298,
  "Fl": 5299,
  "Once</w>": 5300,
  "Mauri": 5301,
  "entations</w>": 5302,
  "cards</w>": 5303,
  "Oper": 5304,
  "ene</w>": 5305,
  "ours</w>": 5306,
  "prisons</w>": 5307,
  "branch</w>": 5308,
  "istan</w>": 5309,
  "replies</w>": 5310,
  "explain</w>": 5311,
  "Nam": 5312,
  "sovereign</w>": 5313,
  "diversi": 5314,
  "Nov</w>": 5315,
  "ha</w>": 5316,
  "ulate</w>": 5317,
  "shed</w>": 5318,
  "appro": 5319,
  "lamp</w>": 5320,
  "manufacture</w>": 5321,
  "dness</w>": 5322,
  "concepts</w>": 5323,
  "deprived</w>": 5324,
  "Dom": 5325,
  "16.": 5326,
  "tank</w>": 5327,
  "SB": 5328,
  "tro": 5329,
  "MS": 5330,
  "bonds</w>": 5331,
  "struggle</w>": 5332,
  "Reports</w>": 5333,
  "Ko": 5334,
  "regarded</w>": 5335,
  "Mis": 5336,
  "trying</w>": 5337,
  "UNIT": 5338,
  "shr": 5339,
  "awarded</w>": 5340,
  "amp</w>": 5341,
  "mercury</w>": 5342,
  "Interior</w>": 5343,
  "picture</w>": 5344,
  "Pi": 5345,
  "Industry</w>": 5346,
  "tension</w>": 5347,
  "Statement</w>": 5348,
  "denied</w>": 5349,
  "ling": 5350,
  "practi": 5351,
  "ring</w>": 5352,
  "exists</w>": 5353,
  "urge</w>": 5354,
  "commit</w>": 5355,
  "roads</w>": 5356,
  "deser": 5357,
  "strict</w>": 5358,
  "heritage</w>": 5359,
  "rapidly</w>": 5360,
  "acity</w>": 5361,
  "necessity</w>": 5362,
  "Mari": 5363,
  "favourable</w>": 5364,
  "consolidation</w>": 5365,
  "miti": 5366,
  "earth</w>": 5367,
  "Moz": 5368,
  "1987</w>": 5369,
  "institu": 5370,
  "Ham": 5371,
  "tell</w>": 5372,
  "Standards</w>": 5373,
  "instances</w>": 5374,
  "headed</w>": 5375,
  "е</w>": 5376,
  "itary</w>": 5377,
  "collect</w>": 5378,
  "cal": 5379,
  "banking</w>": 5380,
  "Bas": 5381,
  "airspace</w>": 5382,
  "observ": 5383,
  "arrangement</w>": 5384,
  "expanding</w>": 5385,
  "Her</w>": 5386,
  "responded</w>": 5387,
  "Can": 5388,
  "cargo</w>": 5389,
  "managing</w>": 5390,
  "renewed</w>": 5391,
  "imm": 5392,
  "assessing</w>": 5393,
  "1985</w>": 5394,
  "deaths</w>": 5395,
  "adjustments</w>": 5396,
  "TM": 5397,
  "ata</w>": 5398,
  "defini": 5399,
  "liv": 5400,
  "visitors</w>": 5401,
  "by": 5402,
  "voice</w>": 5403,
  "130</w>": 5404,
  "distinction</w>": 5405,
  "Indian</w>": 5406,
  "ahead</w>": 5407,
  "ained</w>": 5408,
  "iliation</w>": 5409,
  "о</w>": 5410,
  "manual</w>": 5411,
  "revenue</w>": 5412,
  "profile</w>": 5413,
  "candidate</w>": 5414,
  "Ñ</w>": 5415,
  "ā": 5416,
  "2.3</w>": 5417,
  "enforced</w>": 5418,
  "Naz": 5419,
  "drop</w>": 5420,
  "replacement</w>": 5421,
  "alo": 5422,
  "driving</w>": 5423,
  "walk</w>": 5424,
  "Det": 5425,
  "discharge</w>": 5426,
  "species</w>": 5427,
  "izing</w>": 5428,
  "allevi": 5429,
  "Figure</w>": 5430,
  "tain</w>": 5431,
  "stocks</w>": 5432,
  "attempts</w>": 5433,
  "entru": 5434,
  "healthy</w>": 5435,
  "Standing</w>": 5436,
  "soil</w>": 5437,
  "her": 5438,
  "POR": 5439,
  "automatically</w>": 5440,
  "genocide</w>": 5441,
  "addresses</w>": 5442,
  "univers": 5443,
  "cold</w>": 5444,
  "Sk": 5445,
  "ority</w>": 5446,
  "arities</w>": 5447,
  "parallel</w>": 5448,
  "ards</w>": 5449,
  "comprising</w>": 5450,
  "phenomenon</w>": 5451,
  "limitations</w>": 5452,
  "pied</w>": 5453,
  "division</w>": 5454,
  "closer</w>": 5455,
  "huge</w>": 5456,
  "sion": 5457,
  "sto": 5458,
  "Occu": 5459,
  "signature</w>": 5460,
  "powerful</w>": 5461,
  "za</w>": 5462,
  "ered</w>": 5463,
  "outreach</w>": 5464,
  "ilit": 5465,
  "commodity</w>": 5466,
  "dur": 5467,
  "Syria</w>": 5468,
  "kov</w>": 5469,
  "opti": 5470,
  "ć</w>": 5471,
  "Similarly</w>": 5472,
  "Ber": 5473,
  "unions</w>": 5474,
  "sam": 5475,
  "aspect</w>": 5476,
  "mostly</w>": 5477,
  "coastal</w>": 5478,
  "sentenced</w>": 5479,
  "freely</w>": 5480,
  "102</w>": 5481,
  "integr": 5482,
  "ei</w>": 5483,
  "camp</w>": 5484,
  "Three</w>": 5485,
  "incident</w>": 5486,
  "suggest</w>": 5487,
  "arrival</w>": 5488,
  "violent</w>": 5489,
  "lining</w>": 5490,
  "convicted</w>": 5491,
  "disc": 5492,
  "oning</w>": 5493,
  "Machine</w>": 5494,
  "divided</w>": 5495,
  "coordin": 5496,
  "stein</w>": 5497,
  "ide": 5498,
  "pling</w>": 5499,
  "tention</w>": 5500,
  "chap</w>": 5501,
  "Malta</w>": 5502,
  "stitu": 5503,
  "depends</w>": 5504,
  "CL": 5505,
  "Cameroon</w>": 5506,
  "adults</w>": 5507,
  "sia</w>": 5508,
  "ARY</w>": 5509,
  "He": 5510,
  "oy": 5511,
  "verb": 5512,
  "steel</w>": 5513,
  "AF</w>": 5514,
  "notably</w>": 5515,
  "55": 5516,
  "acquired</w>": 5517,
  "waters</w>": 5518,
  "duc": 5519,
  "convinced</w>": 5520,
  "meters</w>": 5521,
  "doubt</w>": 5522,
  "irs</w>": 5523,
  "famous</w>": 5524,
  "moved</w>": 5525,
  "counter": 5526,
  "administ": 5527,
  "Class</w>": 5528,
  "tre": 5529,
  "harassment</w>": 5530,
  "career</w>": 5531,
  "orientation</w>": 5532,
  "River</w>": 5533,
  "cen": 5534,
  "H.": 5535,
  "pu": 5536,
  "reportedly</w>": 5537,
  "seeks</w>": 5538,
  "ang</w>": 5539,
  "Fas": 5540,
  "ls</w>": 5541,
  "university</w>": 5542,
  "declar": 5543,
  "Tu": 5544,
  "mutually</w>": 5545,
  "themes</w>": 5546,
  "delays</w>": 5547,
  "Strip</w>": 5548,
  "certification</w>": 5549,
  "75": 5550,
  "conver": 5551,
  "CI</w>": 5552,
  "chair": 5553,
  "sufficiently</w>": 5554,
  "seat</w>": 5555,
  "Anti</w>": 5556,
  "M.</w>": 5557,
  "Sit": 5558,
  "Lev": 5559,
  "driven</w>": 5560,
  "1980</w>": 5561,
  "Airport</w>": 5562,
  "104</w>": 5563,
  "gies</w>": 5564,
  "part": 5565,
  "ba": 5566,
  "Yes</w>": 5567,
  "classes</w>": 5568,
  "Question</w>": 5569,
  "bre": 5570,
  "railway</w>": 5571,
  "receipt</w>": 5572,
  "Main": 5573,
  "images</w>": 5574,
  "emb": 5575,
  "ped": 5576,
  "vessel</w>": 5577,
  "rental</w>": 5578,
  "compulsory</w>": 5579,
  "universities</w>": 5580,
  "subsi": 5581,
  ".com.": 5582,
  "sum</w>": 5583,
  "sement</w>": 5584,
  "Vehic": 5585,
  "system": 5586,
  "bat</w>": 5587,
  "destroyed</w>": 5588,
  "Museum</w>": 5589,
  "termination</w>": 5590,
  "messages</w>": 5591,
  "recalls</w>": 5592,
  "ack</w>": 5593,
  "Japanese</w>": 5594,
  "ong</w>": 5595,
  "aria</w>": 5596,
  "SC</w>": 5597,
  "providers</w>": 5598,
  "Yemen</w>": 5599,
  "gold</w>": 5600,
  "protocols</w>": 5601,
  "alternatives</w>": 5602,
  "20.": 5603,
  "poly": 5604,
  "depl": 5605,
  "hs</w>": 5606,
  "67": 5607,
  "Upon</w>": 5608,
  "ved</w>": 5609,
  "dimension</w>": 5610,
  "entering</w>": 5611,
  "write</w>": 5612,
  "allegedly</w>": 5613,
  "sect</w>": 5614,
  "J</w>": 5615,
  "hosted</w>": 5616,
  "submissions</w>": 5617,
  "unities</w>": 5618,
  "Emp": 5619,
  "MS</w>": 5620,
  "cm</w>": 5621,
  "speech</w>": 5622,
  "19.": 5623,
  "respected</w>": 5624,
  "inhabitants</w>": 5625,
  "hundred</w>": 5626,
  "forthcoming</w>": 5627,
  "bs</w>": 5628,
  "hospital</w>": 5629,
  "1982</w>": 5630,
  "judgement</w>": 5631,
  "perpetr": 5632,
  "ict</w>": 5633,
  "103</w>": 5634,
  "farmers</w>": 5635,
  "ania</w>": 5636,
  "resort</w>": 5637,
  "human": 5638,
  "180</w>": 5639,
  "employers</w>": 5640,
  "ans": 5641,
  "tic": 5642,
  "generate</w>": 5643,
  "Del": 5644,
  "head": 5645,
  "accountable</w>": 5646,
  "witness</w>": 5647,
  "solve</w>": 5648,
  "coun": 5649,
  "stream": 5650,
  "proof</w>": 5651,
  "Barcelona</w>": 5652,
  "Production</w>": 5653,
  "Senior</w>": 5654,
  "Wh": 5655,
  "virus</w>": 5656,
  "customary</w>": 5657,
  "handling</w>": 5658,
  "exhau": 5659,
  "saving</w>": 5660,
  "Feb</w>": 5661,
  "accurate</w>": 5662,
  "grou": 5663,
  "census</w>": 5664,
  "ke": 5665,
  "seekers</w>": 5666,
  "metres</w>": 5667,
  "sponsored</w>": 5668,
  "derived</w>": 5669,
  "Tar": 5670,
  "pp": 5671,
  "locate</w>": 5672,
  "ass</w>": 5673,
  "separation</w>": 5674,
  "Progress</w>": 5675,
  "ра": 5676,
  "flu": 5677,
  "metal</w>": 5678,
  "situated</w>": 5679,
  "Original</w>": 5680,
  "solid</w>": 5681,
  "dic</w>": 5682,
  "colour</w>": 5683,
  "incorporate</w>": 5684,
  "nation": 5685,
  "anticipated</w>": 5686,
  "ference</w>": 5687,
  "Park</w>": 5688,
  "ano</w>": 5689,
  "lit": 5690,
  "negotiating</w>": 5691,
  "eligible</w>": 5692,
  "exclusion</w>": 5693,
  "prejudice</w>": 5694,
  "atories</w>": 5695,
  "Burk": 5696,
  "restaurant</w>": 5697,
  "spiritual</w>": 5698,
  "erous</w>": 5699,
  "consultants</w>": 5700,
  "inquiry</w>": 5701,
  "Prev": 5702,
  "internet</w>": 5703,
  "equi": 5704,
  "gained</w>": 5705,
  "MP</w>": 5706,
  "Guide</w>": 5707,
  "raw</w>": 5708,
  "consisting</w>": 5709,
  "Emergency</w>": 5710,
  "111</w>": 5711,
  "propose</w>": 5712,
  "Basic</w>": 5713,
  "prises</w>": 5714,
  "Log": 5715,
  "sig": 5716,
  "NATO</w>": 5717,
  "1967</w>": 5718,
  "laundering</w>": 5719,
  "pursued</w>": 5720,
  "Vladimir</w>": 5721,
  "sal</w>": 5722,
  "nit": 5723,
  "inflation</w>": 5724,
  "memory</w>": 5725,
  "kinds</w>": 5726,
  "quot": 5727,
  "perhaps</w>": 5728,
  "interpre": 5729,
  "utions</w>": 5730,
  "aking</w>": 5731,
  "bul": 5732,
  "exclusive</w>": 5733,
  "maritime</w>": 5734,
  "Commonwealth</w>": 5735,
  "portion</w>": 5736,
  "4.1</w>": 5737,
  "photos</w>": 5738,
  "AH</w>": 5739,
  "Cau": 5740,
  "SID": 5741,
  "firms</w>": 5742,
  "enabled</w>": 5743,
  "director</w>": 5744,
  "SS</w>": 5745,
  "arise</w>": 5746,
  "SA</w>": 5747,
  "continent</w>": 5748,
  "Tru": 5749,
  "heading</w>": 5750,
  "girl</w>": 5751,
  "observation</w>": 5752,
  "watch</w>": 5753,
  "historic</w>": 5754,
  "absolute</w>": 5755,
  "Mun": 5756,
  "tocols</w>": 5757,
  "ately</w>": 5758,
  "gg": 5759,
  "Cri": 5760,
  "sl": 5761,
  "gains</w>": 5762,
  "106</w>": 5763,
  "Tel</w>": 5764,
  "cents</w>": 5765,
  "indic": 5766,
  "info</w>": 5767,
  "140</w>": 5768,
  "playing</w>": 5769,
  "ressing</w>": 5770,
  "bits</w>": 5771,
  "Av": 5772,
  "explosive</w>": 5773,
  "simpli": 5774,
  "chain</w>": 5775,
  "Montreal</w>": 5776,
  "channels</w>": 5777,
  "marketing</w>": 5778,
  "112</w>": 5779,
  "certainly</w>": 5780,
  "fu": 5781,
  "hara</w>": 5782,
  "destination</w>": 5783,
  "exceptional</w>": 5784,
  "fell</w>": 5785,
  "perfect</w>": 5786,
  "sea": 5787,
  "bia</w>": 5788,
  "filled</w>": 5789,
  "transaction</w>": 5790,
  "regulated</w>": 5791,
  "rel": 5792,
  "harmful</w>": 5793,
  "Jewish</w>": 5794,
  "wanted</w>": 5795,
  "Sc": 5796,
  "essing</w>": 5797,
  "my": 5798,
  "UNF": 5799,
  "depend</w>": 5800,
  "ete</w>": 5801,
  "bor": 5802,
  "necessarily</w>": 5803,
  "resol": 5804,
  "injury</w>": 5805,
  "obtaining</w>": 5806,
  "AO</w>": 5807,
  "short": 5808,
  "ist": 5809,
  "reductions</w>": 5810,
  "108</w>": 5811,
  "minor</w>": 5812,
  "mention</w>": 5813,
  "penalties</w>": 5814,
  "hand": 5815,
  "exposure</w>": 5816,
  "sup": 5817,
  "coherent</w>": 5818,
  "Jamaica</w>": 5819,
  "villages</w>": 5820,
  "Bon": 5821,
  "UC": 5822,
  "ping</w>": 5823,
  "GO": 5824,
  "cruel</w>": 5825,
  "shift</w>": 5826,
  "teen</w>": 5827,
  "lawyer</w>": 5828,
  "makers</w>": 5829,
  "genuine</w>": 5830,
  "Medical</w>": 5831,
  "oper": 5832,
  "107</w>": 5833,
  "Inclu": 5834,
  "Mediterranean</w>": 5835,
  "fer": 5836,
  "Drug</w>": 5837,
  "connections</w>": 5838,
  "ordin": 5839,
  "poll": 5840,
  "Te": 5841,
  "significance</w>": 5842,
  "lev": 5843,
  "ron": 5844,
  "adhe": 5845,
  "Ren": 5846,
  "Alliance</w>": 5847,
  "Cour": 5848,
  "opinions</w>": 5849,
  "incentives</w>": 5850,
  "season</w>": 5851,
  "button</w>": 5852,
  "М": 5853,
  "ero": 5854,
  "2020</w>": 5855,
  "none</w>": 5856,
  "abo": 5857,
  "ala</w>": 5858,
  "nel</w>": 5859,
  "immigration</w>": 5860,
  "Reg": 5861,
  "EA</w>": 5862,
  "Her": 5863,
  "ened</w>": 5864,
  "Mor": 5865,
  "Id": 5866,
  "Program</w>": 5867,
  "Suite</w>": 5868,
  "responding</w>": 5869,
  "till</w>": 5870,
  "summit</w>": 5871,
  "1990s</w>": 5872,
  "competitiveness</w>": 5873,
  "yl": 5874,
  "carefully</w>": 5875,
  "meant</w>": 5876,
  "looked</w>": 5877,
  "modified</w>": 5878,
  "depos": 5879,
  "heat</w>": 5880,
  "incurred</w>": 5881,
  "Property</w>": 5882,
  "assumed</w>": 5883,
  "б": 5884,
  "empha": 5885,
  "root</w>": 5886,
  "carriage</w>": 5887,
  "Ru": 5888,
  "Lan": 5889,
  "decreased</w>": 5890,
  "marking</w>": 5891,
  "navigation</w>": 5892,
  "conting": 5893,
  "west</w>": 5894,
  "Hague</w>": 5895,
  "pattern</w>": 5896,
  "ó": 5897,
  "attributable</w>": 5898,
  "permits</w>": 5899,
  "ME</w>": 5900,
  "Chad</w>": 5901,
  "Ly": 5902,
  "IMF</w>": 5903,
  "Iceland</w>": 5904,
  "VE</w>": 5905,
  "guided</w>": 5906,
  "arrived</w>": 5907,
  "ministers</w>": 5908,
  "errors</w>": 5909,
  "refused</w>": 5910,
  "Private</w>": 5911,
  "RA</w>": 5912,
  "underlined</w>": 5913,
  "normally</w>": 5914,
  "BO": 5915,
  "ws</w>": 5916,
  "consequence</w>": 5917,
  "repeated</w>": 5918,
  "Descri": 5919,
  "objection</w>": 5920,
  "ric": 5921,
  "black</w>": 5922,
  "statute</w>": 5923,
  "skin</w>": 5924,
  "preserve</w>": 5925,
  "centr": 5926,
  "anything</w>": 5927,
  "tation</w>": 5928,
  "expectations</w>": 5929,
  "spo": 5930,
  "beings</w>": 5931,
  "Lim": 5932,
  "producers</w>": 5933,
  "stresses</w>": 5934,
  "invites</w>": 5935,
  "UT": 5936,
  "justified</w>": 5937,
  "ame</w>": 5938,
  "liabilities</w>": 5939,
  "contents</w>": 5940,
  "realized</w>": 5941,
  "clarify</w>": 5942,
  "Ir": 5943,
  "hal": 5944,
  "interference</w>": 5945,
  "unlawful</w>": 5946,
  "Doha</w>": 5947,
  "tim": 5948,
  "File</w>": 5949,
  "brief</w>": 5950,
  "finally</w>": 5951,
  "cooperative</w>": 5952,
  "dy</w>": 5953,
  "height</w>": 5954,
  "Life</w>": 5955,
  "hunger</w>": 5956,
  "oods</w>": 5957,
  "mption</w>": 5958,
  "mobility</w>": 5959,
  "Er": 5960,
  "Name</w>": 5961,
  "sh</w>": 5962,
  "ention</w>": 5963,
  "referendum</w>": 5964,
  "realize</w>": 5965,
  "sert</w>": 5966,
  "Shi": 5967,
  "wind</w>": 5968,
  "abuses</w>": 5969,
  "beach</w>": 5970,
  "delegates</w>": 5971,
  "maxim": 5972,
  "exploration</w>": 5973,
  "mul": 5974,
  "elev": 5975,
  "pil": 5976,
  "player</w>": 5977,
  "row</w>": 5978,
  "wrote</w>": 5979,
  "43": 5980,
  "dule</w>": 5981,
  "deeply</w>": 5982,
  "tin": 5983,
  "vis</w>": 5984,
  "XI</w>": 5985,
  "millions</w>": 5986,
  "organisations</w>": 5987,
  "Don": 5988,
  "UK</w>": 5989,
  "44": 5990,
  "curement</w>": 5991,
  "owners</w>": 5992,
  "securities</w>": 5993,
  "remun": 5994,
  "lor": 5995,
  "intensive</w>": 5996,
  "Nag": 5997,
  "satisfactory</w>": 5998,
  "diverse</w>": 5999,
  "aster</w>": 6000,
  "chance</w>": 6001,
  "chaired</w>": 6002,
  "juvenile</w>": 6003,
  "recur": 6004,
  "87": 6005,
  "Paragrap": 6006,
  "pa": 6007,
  "Grand</w>": 6008,
  "condu": 6009,
  "measuring</w>": 6010,
  "ara</w>": 6011,
  "du</w>": 6012,
  "doesn</w>": 6013,
  "deposit</w>": 6014,
  "diff": 6015,
  "ow": 6016,
  "log</w>": 6017,
  "ric</w>": 6018,
  "interactive</w>": 6019,
  "indicating</w>": 6020,
  "tran": 6021,
  "ration": 6022,
  "ulsion</w>": 6023,
  "restoration</w>": 6024,
  "uk": 6025,
  "seized</w>": 6026,
  "terrorists</w>": 6027,
  "eded</w>": 6028,
  "LA</w>": 6029,
  "parking</w>": 6030,
  "Jama": 6031,
  "ameter</w>": 6032,
  "apping</w>": 6033,
  "injured</w>": 6034,
  "stitutes</w>": 6035,
  "willingness</w>": 6036,
  "G.": 6037,
  "89": 6038,
  "Zimbabwe</w>": 6039,
  "fresh</w>": 6040,
  "eyes</w>": 6041,
  "115</w>": 6042,
  "sm": 6043,
  "lock</w>": 6044,
  "ban": 6045,
  "lish</w>": 6046,
  "Common</w>": 6047,
  "vin": 6048,
  "chief</w>": 6049,
  "160</w>": 6050,
  "river</w>": 6051,
  "officially</w>": 6052,
  "emer": 6053,
  "liquid": 6054,
  "closing</w>": 6055,
  "Panama</w>": 6056,
  "6th</w>": 6057,
  "servants</w>": 6058,
  "hot</w>": 6059,
  "detection</w>": 6060,
  "deprivation</w>": 6061,
  "tivity</w>": 6062,
  "specify</w>": 6063,
  "FR": 6064,
  "dependence</w>": 6065,
  "Appeals</w>": 6066,
  "asser": 6067,
  "vice</w>": 6068,
  "tradition</w>": 6069,
  "arity</w>": 6070,
  "mp": 6071,
  "sentences</w>": 6072,
  "secured</w>": 6073,
  "rit": 6074,
  "deals</w>": 6075,
  "QU": 6076,
  "Bot": 6077,
  "burg</w>": 6078,
  "relates</w>": 6079,
  "inci": 6080,
  "conviction</w>": 6081,
  "anyone</w>": 6082,
  "bitr": 6083,
  "enced</w>": 6084,
  "broad": 6085,
  "democr": 6086,
  "Click</w>": 6087,
  "aires</w>": 6088,
  "finds</w>": 6089,
  "5th</w>": 6090,
  "estate</w>": 6091,
  "operated</w>": 6092,
  "generations</w>": 6093,
  "rol": 6094,
  "4.2</w>": 6095,
  "etings</w>": 6096,
  "Fre": 6097,
  "59": 6098,
  "ore": 6099,
  "quantity</w>": 6100,
  "chi": 6101,
  "oun": 6102,
  "stru": 6103,
  "ti</w>": 6104,
  "expect</w>": 6105,
  "granting</w>": 6106,
  "contemporary</w>": 6107,
  "Olympic</w>": 6108,
  "ley</w>": 6109,
  "apartments</w>": 6110,
  "PP</w>": 6111,
  "q</w>": 6112,
  "88": 6113,
  "architecture</w>": 6114,
  "Web": 6115,
  "departure</w>": 6116,
  "ater": 6117,
  "mer</w>": 6118,
  "ini": 6119,
  "error</w>": 6120,
  "66": 6121,
  "radi": 6122,
  "F.</w>": 6123,
  "excessive</w>": 6124,
  "logistics</w>": 6125,
  "clearance</w>": 6126,
  "cultures</w>": 6127,
  "astly</w>": 6128,
  "0,000</w>": 6129,
  "specific": 6130,
  "minors</w>": 6131,
  "inary</w>": 6132,
  "operative</w>": 6133,
  "itative</w>": 6134,
  "rail</w>": 6135,
  "possession</w>": 6136,
  "closure</w>": 6137,
  "ст": 6138,
  "Yet</w>": 6139,
  "ads</w>": 6140,
  "nar": 6141,
  "pedi": 6142,
  "ts": 6143,
  "mag": 6144,
  "named</w>": 6145,
  "deleted</w>": 6146,
  "stronger</w>": 6147,
  "lied</w>": 6148,
  "fe</w>": 6149,
  "Analysis</w>": 6150,
  "passing</w>": 6151,
  "ancies</w>": 6152,
  "vation</w>": 6153,
  "Former</w>": 6154,
  "datab": 6155,
  "Azerbai": 6156,
  "Muslim</w>": 6157,
  "ple</w>": 6158,
  "ains</w>": 6159,
  "resistance</w>": 6160,
  "enemy</w>": 6161,
  "Ban</w>": 6162,
  "Na": 6163,
  "Agre": 6164,
  "Mrs.</w>": 6165,
  "husband</w>": 6166,
  "Christian</w>": 6167,
  "twel": 6168,
  "Equi": 6169,
  "ailed</w>": 6170,
  "s.</w>": 6171,
  "21": 6172,
  "IO": 6173,
  "strictly</w>": 6174,
  "western</w>": 6175,
  "organic</w>": 6176,
  "assume</w>": 6177,
  "vast</w>": 6178,
  "ss": 6179,
  "Mag": 6180,
  "pol": 6181,
  "slow</w>": 6182,
  "eless</w>": 6183,
  "alogue</w>": 6184,
  "rising</w>": 6185,
  "Basel</w>": 6186,
  "dor": 6187,
  "About</w>": 6188,
  "ination</w>": 6189,
  "posted</w>": 6190,
  "Besides</w>": 6191,
  "visible</w>": 6192,
  "Pap": 6193,
  "capability</w>": 6194,
  "breach</w>": 6195,
  "Sev": 6196,
  "secret</w>": 6197,
  "son": 6198,
  "Chemical</w>": 6199,
  "translated</w>": 6200,
  "merely</w>": 6201,
  "led": 6202,
  "consequ": 6203,
  "classified</w>": 6204,
  "fit</w>": 6205,
  "cell</w>": 6206,
  "accelerate</w>": 6207,
  "Pension</w>": 6208,
  "prev": 6209,
  "involves</w>": 6210,
  "ized</w>": 6211,
  "istics</w>": 6212,
  "CI": 6213,
  "Quote</w>": 6214,
  "frequency</w>": 6215,
  "owner</w>": 6216,
  "ok</w>": 6217,
  "Fe": 6218,
  "й</w>": 6219,
  "wh": 6220,
  "repair</w>": 6221,
  "smaller</w>": 6222,
  "feedback</w>": 6223,
  "awi</w>": 6224,
  "traditions</w>": 6225,
  "occupying</w>": 6226,
  "program": 6227,
  "excluded</w>": 6228,
  "Why</w>": 6229,
  "Spirit</w>": 6230,
  "TC</w>": 6231,
  "brief": 6232,
  "3.3</w>": 6233,
  "ich": 6234,
  "guest</w>": 6235,
  "minute</w>": 6236,
  "Way": 6237,
  "civili": 6238,
  "heating</w>": 6239,
  "ulating</w>": 6240,
  "dro": 6241,
  "1.4</w>": 6242,
  "minister</w>": 6243,
  "David</w>": 6244,
  "plus</w>": 6245,
  "monitored</w>": 6246,
  "restore</w>": 6247,
  "whereas</w>": 6248,
  "ammunition</w>": 6249,
  "Dr.</w>": 6250,
  "approve</w>": 6251,
  "operators</w>": 6252,
  "IV": 6253,
  "Records</w>": 6254,
  "holiday</w>": 6255,
  "getting</w>": 6256,
  "65": 6257,
  "lay</w>": 6258,
  "Resour": 6259,
  "à": 6260,
  "Take</w>": 6261,
  "provinces</w>": 6262,
  "unnecessary</w>": 6263,
  "craw": 6264,
  "ama</w>": 6265,
  "58": 6266,
  "ideal</w>": 6267,
  "Mac": 6268,
  "Estab": 6269,
  "Sof": 6270,
  "vian</w>": 6271,
  "loading</w>": 6272,
  "thy</w>": 6273,
  "Т": 6274,
  "lived</w>": 6275,
  "obliged</w>": 6276,
  "hom": 6277,
  "prosecutors</w>": 6278,
  "toward</w>": 6279,
  "ref": 6280,
  "Down": 6281,
  "5,000</w>": 6282,
  "ocide</w>": 6283,
  "mil": 6284,
  "Anti": 6285,
  "ACT</w>": 6286,
  "Eth": 6287,
  "Met": 6288,
  "consult</w>": 6289,
  "surveillance</w>": 6290,
  "Systems</w>": 6291,
  "bles</w>": 6292,
  "char": 6293,
  "regimes</w>": 6294,
  "literacy</w>": 6295,
  "inequality</w>": 6296,
  "Viol": 6297,
  "125</w>": 6298,
  "taxes</w>": 6299,
  "whereby</w>": 6300,
  "shments</w>": 6301,
  "loan</w>": 6302,
  "appearance</w>": 6303,
  "Latest</w>": 6304,
  "codes</w>": 6305,
  "ths</w>": 6306,
  "vic": 6307,
  "Dominican</w>": 6308,
  "32": 6309,
  "CM": 6310,
  "yl</w>": 6311,
  "brow": 6312,
  "den</w>": 6313,
  "drinking</w>": 6314,
  "cultiv": 6315,
  "organ</w>": 6316,
  "duly</w>": 6317,
  "Georgian</w>": 6318,
  "ick": 6319,
  "sw": 6320,
  "arm": 6321,
  "readiness</w>": 6322,
  "persistent</w>": 6323,
  "eliminating</w>": 6324,
  "revealed</w>": 6325,
  "116</w>": 6326,
  "int": 6327,
  "passenger</w>": 6328,
  "Between</w>": 6329,
  "geo": 6330,
  "truly</w>": 6331,
  "dent</w>": 6332,
  "Emirates</w>": 6333,
  "Observ": 6334,
  "2.4</w>": 6335,
  "ching</w>": 6336,
  "hibitions</w>": 6337,
  "hospitals</w>": 6338,
  "fulfilled</w>": 6339,
  "Esti": 6340,
  "adjusted</w>": 6341,
  "Google</w>": 6342,
  "Ram": 6343,
  "transformation</w>": 6344,
  "beauty</w>": 6345,
  "pictures</w>": 6346,
  "wealth</w>": 6347,
  "suffer</w>": 6348,
  "S.": 6349,
  "color</w>": 6350,
  "Arms</w>": 6351,
  "grow</w>": 6352,
  "ich</w>": 6353,
  "Arabic</w>": 6354,
  "display</w>": 6355,
  "113</w>": 6356,
  "Texas</w>": 6357,
  "Independence</w>": 6358,
  "facto</w>": 6359,
  "Swiss</w>": 6360,
  "offset</w>": 6361,
  "coer": 6362,
  "counts</w>": 6363,
  "ey": 6364,
  "confisc": 6365,
  "exclusively</w>": 6366,
  "pregnancy</w>": 6367,
  "&apos;ve</w>": 6368,
  "star</w>": 6369,
  "DS</w>": 6370,
  "56": 6371,
  "twice</w>": 6372,
  "tanks</w>": 6373,
  "willing</w>": 6374,
  "monetary</w>": 6375,
  "ordered</w>": 6376,
  "Final</w>": 6377,
  "trials</w>": 6378,
  "seas</w>": 6379,
  "Establishment</w>": 6380,
  "ections</w>": 6381,
  "province</w>": 6382,
  "comfortable</w>": 6383,
  "114</w>": 6384,
  "mothers</w>": 6385,
  "Stockholm</w>": 6386,
  "stock": 6387,
  "199": 6388,
  "limit": 6389,
  "pend": 6390,
  "Len": 6391,
  "FOR": 6392,
  "MM": 6393,
  "Parliamentary</w>": 6394,
  "looks</w>": 6395,
  "posi": 6396,
  "consistently</w>": 6397,
  "Due</w>": 6398,
  "fraud</w>": 6399,
  "furniture</w>": 6400,
  "tative</w>": 6401,
  "Pan": 6402,
  "weak</w>": 6403,
  "Inf": 6404,
  "ote</w>": 6405,
  "bud": 6406,
  "bad</w>": 6407,
  "ays</w>": 6408,
  "ón</w>": 6409,
  "counting</w>": 6410,
  "cease</w>": 6411,
  "encomp": 6412,
  "ger</w>": 6413,
  "suspected</w>": 6414,
  "infr": 6415,
  "ok": 6416,
  "salaries</w>": 6417,
  "districts</w>": 6418,
  "aj": 6419,
  "complement</w>": 6420,
  "foot": 6421,
  "progressive</w>": 6422,
  "П": 6423,
  "isite</w>": 6424,
  "suppliers</w>": 6425,
  "moni": 6426,
  "Do": 6427,
  "ishable</w>": 6428,
  "И": 6429,
  "Pat": 6430,
  "beneficiaries</w>": 6431,
  "atters</w>": 6432,
  "sized</w>": 6433,
  "Eur": 6434,
  "Natural</w>": 6435,
  "deadline</w>": 6436,
  "ticul": 6437,
  "gratitude</w>": 6438,
  "accor": 6439,
  "Administr": 6440,
  "Quality</w>": 6441,
  "tia</w>": 6442,
  "ensured</w>": 6443,
  "ux</w>": 6444,
  "happy</w>": 6445,
  "gl": 6446,
  "spending</w>": 6447,
  "dation</w>": 6448,
  "route</w>": 6449,
  "references</w>": 6450,
  "advances</w>": 6451,
  "123</w>": 6452,
  "satisfied</w>": 6453,
  "meth": 6454,
  "emented</w>": 6455,
  "inland</w>": 6456,
  "kewise</w>": 6457,
  "hin": 6458,
  "plate</w>": 6459,
  "pun": 6460,
  "displayed</w>": 6461,
  "optional</w>": 6462,
  "drafted</w>": 6463,
  "Tel": 6464,
  "3.5</w>": 6465,
  "dar</w>": 6466,
  "eting</w>": 6467,
  "Round</w>": 6468,
  "ining</w>": 6469,
  "supervis": 6470,
  "117</w>": 6471,
  "acted</w>": 6472,
  "creative</w>": 6473,
  "meaningful</w>": 6474,
  "conversion</w>": 6475,
  "&apos;m</w>": 6476,
  "web": 6477,
  "club</w>": 6478,
  "Gol": 6479,
  "Н": 6480,
  "Library</w>": 6481,
  "BR": 6482,
  "tioners</w>": 6483,
  "eva</w>": 6484,
  "thanked</w>": 6485,
  "install": 6486,
  "PD": 6487,
  "val</w>": 6488,
  "UC</w>": 6489,
  "ITY</w>": 6490,
  "intends</w>": 6491,
  "attitudes</w>": 6492,
  "bis</w>": 6493,
  "cast</w>": 6494,
  "ums</w>": 6495,
  "....</w>": 6496,
  "quest</w>": 6497,
  "1978</w>": 6498,
  "electrical</w>": 6499,
  "repl": 6500,
  "acquire</w>": 6501,
  "referring</w>": 6502,
  "provincial</w>": 6503,
  "Currently</w>": 6504,
  "org": 6505,
  "1984</w>": 6506,
  "helps</w>": 6507,
  "adult</w>": 6508,
  "suspended</w>": 6509,
  "symbol</w>": 6510,
  "kilometres</w>": 6511,
  "causing</w>": 6512,
  "credited</w>": 6513,
  "Gi": 6514,
  "impose</w>": 6515,
  "cell": 6516,
  "solv": 6517,
  "Best</w>": 6518,
  "forcing</w>": 6519,
  "onal</w>": 6520,
  "trip</w>": 6521,
  "recall</w>": 6522,
  "Just</w>": 6523,
  "mony</w>": 6524,
  "Gas</w>": 6525,
  "del</w>": 6526,
  "tian</w>": 6527,
  "Electoral</w>": 6528,
  "Front</w>": 6529,
  "Kiev</w>": 6530,
  "dollar</w>": 6531,
  "prevented</w>": 6532,
  "Kr": 6533,
  "post": 6534,
  "Sat": 6535,
  "Add</w>": 6536,
  "stro": 6537,
  "peti": 6538,
  "occasions</w>": 6539,
  "revit": 6540,
  "jan</w>": 6541,
  "Iranian</w>": 6542,
  "consistency</w>": 6543,
  "entreprene": 6544,
  "killing</w>": 6545,
  "substantially</w>": 6546,
  "Chair": 6547,
  "foreigners</w>": 6548,
  "remarks</w>": 6549,
  "tribunal</w>": 6550,
  "cre": 6551,
  "Р": 6552,
  "invasion</w>": 6553,
  "plane</w>": 6554,
  "Sw": 6555,
  "thinking</w>": 6556,
  "passengers</w>": 6557,
  "existed</w>": 6558,
  "prompt</w>": 6559,
  "album</w>": 6560,
  "defici": 6561,
  "automatic</w>": 6562,
  "patient</w>": 6563,
  "characterized</w>": 6564,
  "Microsoft</w>": 6565,
  "entirely</w>": 6566,
  "certificates</w>": 6567,
  "ate": 6568,
  "Branch</w>": 6569,
  "Kin": 6570,
  "coll": 6571,
  "attitude</w>": 6572,
  "122</w>": 6573,
  "TER</w>": 6574,
  "circul": 6575,
  "cou": 6576,
  "airlines</w>": 6577,
  "sor": 6578,
  "ck": 6579,
  "identi": 6580,
  "act": 6581,
  "Studies</w>": 6582,
  "coal</w>": 6583,
  "subsidies</w>": 6584,
  "detect</w>": 6585,
  "Freedom</w>": 6586,
  "ali</w>": 6587,
  "possibly</w>": 6588,
  "В": 6589,
  "defining</w>": 6590,
  "acceler": 6591,
  "considerably</w>": 6592,
  "pul": 6593,
  "Fil": 6594,
  "poses</w>": 6595,
  "speaker</w>": 6596,
  "Sav": 6597,
  "Comb": 6598,
  "Wind</w>": 6599,
  "Twenty</w>": 6600,
  "wel": 6601,
  "fee</w>": 6602,
  "gathered</w>": 6603,
  "decree</w>": 6604,
  "performing</w>": 6605,
  "condi": 6606,
  "Mand": 6607,
  "instruction</w>": 6608,
  "G.</w>": 6609,
  "desirable</w>": 6610,
  "24.": 6611,
  "zh": 6612,
  "ight</w>": 6613,
  "ny</w>": 6614,
  "mation</w>": 6615,
  "inations</w>": 6616,
  "outline</w>": 6617,
  "greenhouse</w>": 6618,
  "branches</w>": 6619,
  "exposed</w>": 6620,
  "2,000</w>": 6621,
  "Def": 6622,
  "student</w>": 6623,
  "stence</w>": 6624,
  "ease</w>": 6625,
  "PE</w>": 6626,
  "TD</w>": 6627,
  "enders</w>": 6628,
  "zero</w>": 6629,
  "dly</w>": 6630,
  "communicate</w>": 6631,
  "ceremony</w>": 6632,
  "machines</w>": 6633,
  "dead</w>": 6634,
  "seemed</w>": 6635,
  "1981</w>": 6636,
  "Tro": 6637,
  "separately</w>": 6638,
  "amb": 6639,
  "ET</w>": 6640,
  "Black</w>": 6641,
  "Nur": 6642,
  "stance</w>": 6643,
  "gases</w>": 6644,
  "appoint</w>": 6645,
  "iti</w>": 6646,
  "aboli": 6647,
  "imports</w>": 6648,
  "sold</w>": 6649,
  "concer": 6650,
  "permission</w>": 6651,
  "constantly</w>": 6652,
  "ily</w>": 6653,
  "pot": 6654,
  "ville</w>": 6655,
  "elsewhere</w>": 6656,
  "Not": 6657,
  "confirm</w>": 6658,
  "Travel</w>": 6659,
  "Ag": 6660,
  "administered</w>": 6661,
  "promptly</w>": 6662,
  "ural</w>": 6663,
  "san": 6664,
  "column</w>": 6665,
  "targeting</w>": 6666,
  "meets</w>": 6667,
  "holds</w>": 6668,
  "sole</w>": 6669,
  "Iv": 6670,
  "Korean</w>": 6671,
  "partially</w>": 6672,
  "VI": 6673,
  "tournament</w>": 6674,
  "quick</w>": 6675,
  "indication</w>": 6676,
  "ista</w>": 6677,
  "stood</w>": 6678,
  "San": 6679,
  "î": 6680,
  "tan": 6681,
  "pal</w>": 6682,
  "pur": 6683,
  "focuses</w>": 6684,
  "ules</w>": 6685,
  "leads</w>": 6686,
  "hy": 6687,
  "met": 6688,
  "SS": 6689,
  "coordinator</w>": 6690,
  "Base</w>": 6691,
  "Supp": 6692,
  "explicitly</w>": 6693,
  "parliam": 6694,
  "kitchen</w>": 6695,
  "commodities</w>": 6696,
  "Contact</w>": 6697,
  "seconds</w>": 6698,
  "disadvantaged</w>": 6699,
  "eline</w>": 6700,
  "kin": 6701,
  "documented</w>": 6702,
  "rating</w>": 6703,
  "regre": 6704,
  "accounted</w>": 6705,
  "directions</w>": 6706,
  "Back": 6707,
  "scientists</w>": 6708,
  "118</w>": 6709,
  "sit</w>": 6710,
  "Dep": 6711,
  "contractors</w>": 6712,
  "Euro</w>": 6713,
  "ensures</w>": 6714,
  "park</w>": 6715,
  "proceeds</w>": 6716,
  "Capital</w>": 6717,
  "install</w>": 6718,
  "attract</w>": 6719,
  "plo": 6720,
  "threatened</w>": 6721,
  "Ocean</w>": 6722,
  "icial</w>": 6723,
  "Cru": 6724,
  "eigh": 6725,
  "visa</w>": 6726,
  "encing</w>": 6727,
  "Mer": 6728,
  "benef": 6729,
  "analyse</w>": 6730,
  "encountered</w>": 6731,
  "lose</w>": 6732,
  "accidents</w>": 6733,
  "Kal": 6734,
  "stands</w>": 6735,
  "�</w>": 6736,
  "hopes</w>": 6737,
  "play": 6738,
  "hatred</w>": 6739,
  "Honduras</w>": 6740,
  "Light</w>": 6741,
  "pupils</w>": 6742,
  "ank": 6743,
  "channel</w>": 6744,
  "credibility</w>": 6745,
  "ens": 6746,
  "ap</w>": 6747,
  "falls</w>": 6748,
  "solely</w>": 6749,
  "Hall</w>": 6750,
  "hori": 6751,
  "arguments</w>": 6752,
  "hard": 6753,
  "industri": 6754,
  "gol": 6755,
  "frag": 6756,
  "surrounding</w>": 6757,
  "Related</w>": 6758,
  "Games</w>": 6759,
  "Gab": 6760,
  "cars</w>": 6761,
  "intermedi": 6762,
  "wages</w>": 6763,
  "Current</w>": 6764,
  "didn</w>": 6765,
  "fruit</w>": 6766,
  "ruling</w>": 6767,
  "mountain</w>": 6768,
  "disclosure</w>": 6769,
  "Win": 6770,
  "Ref": 6771,
  "exercises</w>": 6772,
  "demographic</w>": 6773,
  "packages</w>": 6774,
  "S.</w>": 6775,
  "long": 6776,
  "potentially</w>": 6777,
  "prai": 6778,
  "Line</w>": 6779,
  "supplied</w>": 6780,
  "dispens": 6781,
  "pregnant</w>": 6782,
  "drivers</w>": 6783,
  "precise</w>": 6784,
  "highlight</w>": 6785,
  "ww": 6786,
  "rential</w>": 6787,
  "undermine</w>": 6788,
  "appreciated</w>": 6789,
  "Good</w>": 6790,
  "elderly</w>": 6791,
  "Brussels</w>": 6792,
  "lishments</w>": 6793,
  "Tob": 6794,
  "preservation</w>": 6795,
  "vary</w>": 6796,
  "Governor</w>": 6797,
  "sch": 6798,
  "hundreds</w>": 6799,
  "Workers</w>": 6800,
  "ious</w>": 6801,
  "exam": 6802,
  "Jews</w>": 6803,
  "lished</w>": 6804,
  "recei": 6805,
  "shape</w>": 6806,
  "Tre": 6807,
  "ades</w>": 6808,
  "AK": 6809,
  "retained</w>": 6810,
  "ist</w>": 6811,
  "119</w>": 6812,
  "reinforce</w>": 6813,
  "versions</w>": 6814,
  "mit": 6815,
  "Market</w>": 6816,
  "ise</w>": 6817,
  "extensions</w>": 6818,
  "Pow": 6819,
  "viol": 6820,
  "comparable</w>": 6821,
  "Bri": 6822,
  "tionally</w>": 6823,
  "bottom</w>": 6824,
  "sizes</w>": 6825,
  "Hu": 6826,
  "difficulty</w>": 6827,
  "suggests</w>": 6828,
  "Reli": 6829,
  "talk</w>": 6830,
  "whatever</w>": 6831,
  "tically</w>": 6832,
  "SI": 6833,
  "politics</w>": 6834,
  "hel": 6835,
  "assurances</w>": 6836,
  "Canadian</w>": 6837,
  "fea": 6838,
  "exchanges</w>": 6839,
  "e.com</w>": 6840,
  "Maur": 6841,
  "ca</w>": 6842,
  "Imp": 6843,
  "shelter</w>": 6844,
  "fare</w>": 6845,
  "PI</w>": 6846,
  "contracting</w>": 6847,
  "Ph": 6848,
  "complexity</w>": 6849,
  "affordable</w>": 6850,
  "residential</w>": 6851,
  "valence</w>": 6852,
  "dition</w>": 6853,
  "crossing</w>": 6854,
  "Super": 6855,
  "arm</w>": 6856,
  "rever": 6857,
  "radiation</w>": 6858,
  "guration</w>": 6859,
  "Without</w>": 6860,
  "retain</w>": 6861,
  "cycles</w>": 6862,
  "earing</w>": 6863,
  "kers</w>": 6864,
  "autom": 6865,
  "visiting</w>": 6866,
  "pro</w>": 6867,
  "eness</w>": 6868,
  "angle</w>": 6869,
  "refrain</w>": 6870,
  "ga": 6871,
  "hot": 6872,
  "feed</w>": 6873,
  "eing</w>": 6874,
  "fax</w>": 6875,
  "phrase</w>": 6876,
  "Media</w>": 6877,
  "kin</w>": 6878,
  "dium</w>": 6879,
  "reas": 6880,
  "Bahrain</w>": 6881,
  "Luk": 6882,
  "hoods</w>": 6883,
  "Paul</w>": 6884,
  "exemp": 6885,
  "pieces</w>": 6886,
  "ranging</w>": 6887,
  "disappearance</w>": 6888,
  "Cuban</w>": 6889,
  "Forty</w>": 6890,
  "conv": 6891,
  "spare</w>": 6892,
  "yana</w>": 6893,
  "married</w>": 6894,
  "Libya</w>": 6895,
  "jo": 6896,
  "let": 6897,
  "nevertheless</w>": 6898,
  "25.": 6899,
  "tonnes</w>": 6900,
  "foundations</w>": 6901,
  "tourist</w>": 6902,
  "lateral</w>": 6903,
  "inhe": 6904,
  "tices</w>": 6905,
  "ре": 6906,
  "executed</w>": 6907,
  "blue</w>": 6908,
  "ovi": 6909,
  "onom": 6910,
  "capit": 6911,
  "conditioning</w>": 6912,
  "Dar": 6913,
  "nomin": 6914,
  "a.com</w>": 6915,
  "ona</w>": 6916,
  "origin": 6917,
  "uniform</w>": 6918,
  "corporations</w>": 6919,
  "prosecutor</w>": 6920,
  "99": 6921,
  "Hai": 6922,
  "quiry</w>": 6923,
  "Boo": 6924,
  "bathroom</w>": 6925,
  "interview</w>": 6926,
  "ising</w>": 6927,
  "Against</w>": 6928,
  "NAT": 6929,
  "obvious</w>": 6930,
  "alists</w>": 6931,
  "Petro": 6932,
  "extraordinary</w>": 6933,
  "Conduct</w>": 6934,
  "consumers</w>": 6935,
  "inspections</w>": 6936,
  "verify</w>": 6937,
  "injuries</w>": 6938,
  "ek</w>": 6939,
  "parent</w>": 6940,
  "declined</w>": 6941,
  "anda</w>": 6942,
  "cataly": 6943,
  "generating</w>": 6944,
  "alt</w>": 6945,
  "merits</w>": 6946,
  "uri": 6947,
  "Account</w>": 6948,
  "prosperity</w>": 6949,
  "appearances</w>": 6950,
  "1,0": 6951,
  "100": 6952,
  "publicly</w>": 6953,
  "cat": 6954,
  "biting</w>": 6955,
  "zz": 6956,
  "tangible</w>": 6957,
  "massive</w>": 6958,
  "appreciate</w>": 6959,
  "ffor": 6960,
  "observe</w>": 6961,
  "gradually</w>": 6962,
  "Cup</w>": 6963,
  "beneficial</w>": 6964,
  "substan": 6965,
  "vals</w>": 6966,
  "towns</w>": 6967,
  "putting</w>": 6968,
  "apparent</w>": 6969,
  "refusal</w>": 6970,
  "hon": 6971,
  "initially</w>": 6972,
  "Housing</w>": 6973,
  "falling</w>": 6974,
  "employer</w>": 6975,
  "Hong</w>": 6976,
  "altern": 6977,
  "Hi": 6978,
  "liable</w>": 6979,
  "library</w>": 6980,
  "listing</w>": 6981,
  "Madrid</w>": 6982,
  "Presidents</w>": 6983,
  "repeatedly</w>": 6984,
  "Polish</w>": 6985,
  "tour</w>": 6986,
  "feasible</w>": 6987,
  "DO": 6988,
  "employee</w>": 6989,
  "thorough</w>": 6990,
  "counselling</w>": 6991,
  "ought</w>": 6992,
  "collecting</w>": 6993,
  "motor</w>": 6994,
  "yourself</w>": 6995,
  "formally</w>": 6996,
  "arious</w>": 6997,
  "5.1</w>": 6998,
  "Check</w>": 6999,
  "retari": 7000,
  "76": 7001,
  "block</w>": 7002,
  "gathering</w>": 7003,
  "prosecute</w>": 7004,
  "ageing</w>": 7005,
  "labor</w>": 7006,
  "awards</w>": 7007,
  "Ol": 7008,
  "ography</w>": 7009,
  "happened</w>": 7010,
  "NS": 7011,
  "IB": 7012,
  "prevailing</w>": 7013,
  "upper</w>": 7014,
  "DI": 7015,
  "spring</w>": 7016,
  "4.3</w>": 7017,
  "nish</w>": 7018,
  "Kong</w>": 7019,
  "rely</w>": 7020,
  "sin</w>": 7021,
  "recruited</w>": 7022,
  "width</w>": 7023,
  "vit": 7024,
  "imperative</w>": 7025,
  "Ban": 7026,
  "Auth": 7027,
  "1973</w>": 7028,
  "cere": 7029,
  "signal</w>": 7030,
  "Archi": 7031,
  "revolution</w>": 7032,
  "King</w>": 7033,
  "glass</w>": 7034,
  "ign": 7035,
  "handed</w>": 7036,
  "sten": 7037,
  "Oil</w>": 7038,
  "story</w>": 7039,
  "Program": 7040,
  "plays</w>": 7041,
  "borne</w>": 7042,
  "opposed</w>": 7043,
  "decent</w>": 7044,
  "cells</w>": 7045,
  "Bill</w>": 7046,
  "han": 7047,
  "iles</w>": 7048,
  "pace</w>": 7049,
  "bes</w>": 7050,
  "constructed</w>": 7051,
  "whenever</w>": 7052,
  "ratings</w>": 7053,
  "viewed</w>": 7054,
  "soli": 7055,
  "128</w>": 7056,
  "ourselves</w>": 7057,
  "Directors</w>": 7058,
  "confid": 7059,
  "Person": 7060,
  "negotiated</w>": 7061,
  "easier</w>": 7062,
  "viable</w>": 7063,
  "eff": 7064,
  "gin": 7065,
  "bridge</w>": 7066,
  "divisions</w>": 7067,
  "Rw": 7068,
  "calculation</w>": 7069,
  "fitted</w>": 7070,
  "stly</w>": 7071,
  "Relief</w>": 7072,
  "GS</w>": 7073,
  "firmly</w>": 7074,
  "mixed</w>": 7075,
  "н</w>": 7076,
  "declare</w>": 7077,
  "gement</w>": 7078,
  "orities</w>": 7079,
  "dam": 7080,
  "FA</w>": 7081,
  "explan": 7082,
  "presidency</w>": 7083,
  "emerged</w>": 7084,
  "AV": 7085,
  "sition</w>": 7086,
  "finished</w>": 7087,
  "Ba": 7088,
  "ais</w>": 7089,
  "Atlantic</w>": 7090,
  "Officers</w>": 7091,
  "ris": 7092,
  "assurance</w>": 7093,
  "ose</w>": 7094,
  "Inst": 7095,
  "cia</w>": 7096,
  "faces</w>": 7097,
  "Rac": 7098,
  "immigrants</w>": 7099,
  "investigated</w>": 7100,
  "beam</w>": 7101,
  "Reform</w>": 7102,
  "Unfortunately</w>": 7103,
  "stream</w>": 7104,
  "ari</w>": 7105,
  "revenues</w>": 7106,
  "voy</w>": 7107,
  "ped</w>": 7108,
  "LI": 7109,
  "Survey</w>": 7110,
  "Professor</w>": 7111,
  "vers": 7112,
  "spite</w>": 7113,
  "HO": 7114,
  "check": 7115,
  "sel</w>": 7116,
  "Major</w>": 7117,
  "relatives</w>": 7118,
  "bian</w>": 7119,
  "Monetary</w>": 7120,
  "wishing</w>": 7121,
  "Peter</w>": 7122,
  "ises</w>": 7123,
  "maintains</w>": 7124,
  "murder</w>": 7125,
  "Boli": 7126,
  "Cher": 7127,
  "describe</w>": 7128,
  "tis</w>": 7129,
  "69": 7130,
  "shops</w>": 7131,
  "songs</w>": 7132,
  "someone</w>": 7133,
  "aka</w>": 7134,
  "reception</w>": 7135,
  "Study</w>": 7136,
  "welcoming</w>": 7137,
  "ys": 7138,
  "know": 7139,
  "resses</w>": 7140,
  "Bl": 7141,
  "liance</w>": 7142,
  "paying</w>": 7143,
  "Corporation</w>": 7144,
  "dom": 7145,
  "fulness</w>": 7146,
  "Fr": 7147,
  "economically</w>": 7148,
  "evolution</w>": 7149,
  "alist</w>": 7150,
  "tensions</w>": 7151,
  "accident</w>": 7152,
  "tan</w>": 7153,
  "ow</w>": 7154,
  "realistic</w>": 7155,
  "Cop": 7156,
  "contributes</w>": 7157,
  "ilian</w>": 7158,
  "CO2</w>": 7159,
  "cri": 7160,
  "drought</w>": 7161,
  "impl": 7162,
  "expressing</w>": 7163,
  "commerce</w>": 7164,
  "winter</w>": 7165,
  "delayed</w>": 7166,
  "leum</w>": 7167,
  "Be</w>": 7168,
  "teacher</w>": 7169,
  "rey</w>": 7170,
  "ject</w>": 7171,
  "punished</w>": 7172,
  "curricul": 7173,
  "pality</w>": 7174,
  "Bur": 7175,
  "tra": 7176,
  "discriminate</w>": 7177,
  "ams</w>": 7178,
  "Agricul": 7179,
  "ultimate</w>": 7180,
  "governed</w>": 7181,
  "ener": 7182,
  "determin": 7183,
  "construc": 7184,
  "suring</w>": 7185,
  "CF": 7186,
  "ondly</w>": 7187,
  "particul": 7188,
  "vis": 7189,
  "credible</w>": 7190,
  "religi": 7191,
  "prep": 7192,
  "rendered</w>": 7193,
  "Hot": 7194,
  "illustr": 7195,
  "Rom": 7196,
  "tab": 7197,
  "ceasefire</w>": 7198,
  "stric": 7199,
  "suspension</w>": 7200,
  "ners</w>": 7201,
  "guilty</w>": 7202,
  "DR": 7203,
  "interpreted</w>": 7204,
  "malaria</w>": 7205,
  "hosti": 7206,
  "grown</w>": 7207,
  "fail</w>": 7208,
  "1979</w>": 7209,
  "Mem": 7210,
  "tionary</w>": 7211,
  "68": 7212,
  "Les": 7213,
  "law": 7214,
  "withdraw</w>": 7215,
  "aviation</w>": 7216,
  "fiable</w>": 7217,
  "safeguard</w>": 7218,
  "launching</w>": 7219,
  "ae</w>": 7220,
  "parliament</w>": 7221,
  "song</w>": 7222,
  "fol": 7223,
  "proving</w>": 7224,
  "swan": 7225,
  "zer</w>": 7226,
  "releases</w>": 7227,
  "recording</w>": 7228,
  "aba</w>": 7229,
  "blog</w>": 7230,
  "ette</w>": 7231,
  "evident</w>": 7232,
  "jurisdic": 7233,
  "26.": 7234,
  "urgently</w>": 7235,
  "Pay": 7236,
  "1970</w>": 7237,
  "ox": 7238,
  "else</w>": 7239,
  "Forest</w>": 7240,
  "damages</w>": 7241,
  "ancient</w>": 7242,
  "1983</w>": 7243,
  "shot</w>": 7244,
  "yn": 7245,
  "Kam": 7246,
  "Product</w>": 7247,
  "Islam</w>": 7248,
  "enables</w>": 7249,
  "Gener": 7250,
  "sof": 7251,
  "emp": 7252,
  "urgency</w>": 7253,
  "email</w>": 7254,
  "omin": 7255,
  "Land": 7256,
  "accum": 7257,
  "propri": 7258,
  "--": 7259,
  "р</w>": 7260,
  "pill": 7261,
  "fulfilling</w>": 7262,
  "accuracy</w>": 7263,
  "uniqu": 7264,
  "Peri": 7265,
  "false</w>": 7266,
  "Master</w>": 7267,
  "ultimately</w>": 7268,
  "berg</w>": 7269,
  "Tat": 7270,
  "Olympics</w>": 7271,
  "default</w>": 7272,
  "certified</w>": 7273,
  "partly</w>": 7274,
  "printing</w>": 7275,
  "ys</w>": 7276,
  "extending</w>": 7277,
  "mainstream</w>": 7278,
  "dam</w>": 7279,
  "Key</w>": 7280,
  "differenti": 7281,
  "operator</w>": 7282,
  "divi": 7283,
  "stimul": 7284,
  "well": 7285,
  "AW": 7286,
  "Roman</w>": 7287,
  "Up</w>": 7288,
  "suggestion</w>": 7289,
  "Read</w>": 7290,
  "carrier</w>": 7291,
  "span</w>": 7292,
  "phen": 7293,
  "deep": 7294,
  "slightly</w>": 7295,
  "ward</w>": 7296,
  "tel": 7297,
  "cel": 7298,
  "Royal</w>": 7299,
  "5.2</w>": 7300,
  "Defense</w>": 7301,
  "cited</w>": 7302,
  "enjoyed</w>": 7303,
  "engaging</w>": 7304,
  "Goal</w>": 7305,
  "beds</w>": 7306,
  "colleagues</w>": 7307,
  "fel": 7308,
  "net": 7309,
  "adding</w>": 7310,
  "gone</w>": 7311,
  "separated</w>": 7312,
  "booking</w>": 7313,
  "currencies</w>": 7314,
  "Rot": 7315,
  "Economy</w>": 7316,
  "remember</w>": 7317,
  "desired</w>": 7318,
  "ilities</w>": 7319,
  "Target</w>": 7320,
  "agent</w>": 7321,
  "Os": 7322,
  "restaurants</w>": 7323,
  "Att": 7324,
  "tub": 7325,
  "deteri": 7326,
  "proven</w>": 7327,
  "ы": 7328,
  "worthy</w>": 7329,
  "islands</w>": 7330,
  "ots</w>": 7331,
  "Compu": 7332,
  "settled</w>": 7333,
  "onia</w>": 7334,
  "78": 7335,
  "animals</w>": 7336,
  "commun": 7337,
  "versity</w>": 7338,
  "dig": 7339,
  "privacy</w>": 7340,
  "170</w>": 7341,
  "game": 7342,
  "partment</w>": 7343,
  "appointments</w>": 7344,
  "Fiji</w>": 7345,
  "computers</w>": 7346,
  "lic</w>": 7347,
  "loads</w>": 7348,
  "shipping</w>": 7349,
  "Stock</w>": 7350,
  "contrast</w>": 7351,
  "perio": 7352,
  "3,000</w>": 7353,
  "Istanbul</w>": 7354,
  "My": 7355,
  "Tok": 7356,
  "oked</w>": 7357,
  "Investig": 7358,
  "gor": 7359,
  "privati": 7360,
  "coffee</w>": 7361,
  "store</w>": 7362,
  "hi</w>": 7363,
  "medicine</w>": 7364,
  "FE": 7365,
  "defend</w>": 7366,
  "lad": 7367,
  "breakfast</w>": 7368,
  "centers</w>": 7369,
  "securing</w>": 7370,
  "sni": 7371,
  "fic</w>": 7372,
  "Future</w>": 7373,
  "promotes</w>": 7374,
  "distinct</w>": 7375,
  "menu</w>": 7376,
  "survival</w>": 7377,
  "regrets</w>": 7378,
  "compromise</w>": 7379,
  "ster": 7380,
  "Presidential</w>": 7381,
  "tackle</w>": 7382,
  "eventually</w>": 7383,
  "Can</w>": 7384,
  "Up": 7385,
  "1975</w>": 7386,
  "8th</w>": 7387,
  "Summer</w>": 7388,
  "telecommunications</w>": 7389,
  "Net</w>": 7390,
  "kets</w>": 7391,
  "Father</w>": 7392,
  "routes</w>": 7393,
  "ocean</w>": 7394,
  "CR</w>": 7395,
  "dil": 7396,
  "adapt</w>": 7397,
  "Gran": 7398,
  "ature</w>": 7399,
  "guar": 7400,
  "4.5</w>": 7401,
  "enary</w>": 7402,
  "enforce</w>": 7403,
  "offenders</w>": 7404,
  "ock</w>": 7405,
  "addi": 7406,
  "ell</w>": 7407,
  "doctor</w>": 7408,
  "resume</w>": 7409,
  "urs": 7410,
  "Putin</w>": 7411,
  "Gaz": 7412,
  "strike</w>": 7413,
  "Prosecution</w>": 7414,
  "graphic</w>": 7415,
  "momentum</w>": 7416,
  "die</w>": 7417,
  "participant</w>": 7418,
  "Kor": 7419,
  "Sports</w>": 7420,
  "retirement</w>": 7421,
  "gs</w>": 7422,
  "ction</w>": 7423,
  "ublic": 7424,
  "brand</w>": 7425,
  "shareholders</w>": 7426,
  "š": 7427,
  "Products</w>": 7428,
  "tage</w>": 7429,
  "Long</w>": 7430,
  "Australian</w>": 7431,
  "Associ": 7432,
  "waiting</w>": 7433,
  "evening</w>": 7434,
  "engines</w>": 7435,
  "Bor": 7436,
  "design": 7437,
  "gues</w>": 7438,
  "Personal</w>": 7439,
  "elaborate</w>": 7440,
  "ment": 7441,
  "ab</w>": 7442,
  "J.</w>": 7443,
  "bo</w>": 7444,
  "ac</w>": 7445,
  "frequent</w>": 7446,
  "confidential</w>": 7447,
  "evil</w>": 7448,
  "samples</w>": 7449,
  "Radio</w>": 7450,
  "lec": 7451,
  "Ten": 7452,
  "immunity</w>": 7453,
  "pon</w>": 7454,
  "pursuing</w>": 7455,
  "severely</w>": 7456,
  "Lake</w>": 7457,
  "sons</w>": 7458,
  "real": 7459,
  "therapy</w>": 7460,
  "retro": 7461,
  "adap": 7462,
  "eth": 7463,
  "portfolio</w>": 7464,
  "tus</w>": 7465,
  "Mul": 7466,
  "gam": 7467,
  "ingly</w>": 7468,
  "innov": 7469,
  "anced</w>": 7470,
  "ainment</w>": 7471,
  "Alb": 7472,
  "gy</w>": 7473,
  "ни": 7474,
  "imag": 7475,
  "benefited</w>": 7476,
  "petro": 7477,
  "ONS</w>": 7478,
  "logical</w>": 7479,
  "workplace</w>": 7480,
  "Traffic</w>": 7481,
  "Journal</w>": 7482,
  "ola</w>": 7483,
  "echn": 7484,
  "aches</w>": 7485,
  "chair</w>": 7486,
  "illa</w>": 7487,
  "domain</w>": 7488,
  "Pu": 7489,
  "Sim": 7490,
  "cali": 7491,
  "manufacturers</w>": 7492,
  "Club</w>": 7493,
  "executions</w>": 7494,
  "Cabinet</w>": 7495,
  "advisers</w>": 7496,
  "examining</w>": 7497,
  "SO</w>": 7498,
  "jects</w>": 7499,
  "processed</w>": 7500,
  "MA</w>": 7501,
  "Overall</w>": 7502,
  "container</w>": 7503,
  "Monaco</w>": 7504,
  "anese</w>": 7505,
  "estic</w>": 7506,
  "deposits</w>": 7507,
  "Bar</w>": 7508,
  "ails</w>": 7509,
  "contradic": 7510,
  "Kh": 7511,
  "08": 7512,
  "presu": 7513,
  "reminded</w>": 7514,
  "continuity</w>": 7515,
  "theory</w>": 7516,
  "func": 7517,
  "enacted</w>": 7518,
  "155</w>": 7519,
  "Grou": 7520,
  "arians</w>": 7521,
  "manager</w>": 7522,
  "Online</w>": 7523,
  "NC": 7524,
  "Chi": 7525,
  "Swedish</w>": 7526,
  "Beli": 7527,
  "Sciences</w>": 7528,
  "delete</w>": 7529,
  "Results</w>": 7530,
  "station": 7531,
  "rements</w>": 7532,
  "racist</w>": 7533,
  "nutri": 7534,
  "spend</w>": 7535,
  "unified</w>": 7536,
  "fir": 7537,
  "enormous</w>": 7538,
  "condemned</w>": 7539,
  "attendance</w>": 7540,
  "panels</w>": 7541,
  "Well</w>": 7542,
  "ested</w>": 7543,
  "vertical</w>": 7544,
  "Mess": 7545,
  "arre": 7546,
  "White</w>": 7547,
  "victory</w>": 7548,
  "1000</w>": 7549,
  "match</w>": 7550,
  "happen</w>": 7551,
  "sending</w>": 7552,
  "Trin": 7553,
  "3.4</w>": 7554,
  "edition</w>": 7555,
  "ax</w>": 7556,
  "presenting</w>": 7557,
  "Ra": 7558,
  "HR</w>": 7559,
  "bases</w>": 7560,
  "onian</w>": 7561,
  "tered</w>": 7562,
  "tak": 7563,
  "tec": 7564,
  "simultaneously</w>": 7565,
  "29.": 7566,
  "ri</w>": 7567,
  "thly</w>": 7568,
  "thesis</w>": 7569,
  "da": 7570,
  "hit</w>": 7571,
  "admitted</w>": 7572,
  "Part": 7573,
  "adju": 7574,
  "oul": 7575,
  "Discus": 7576,
  "constitution</w>": 7577,
  "MP": 7578,
  "Art</w>": 7579,
  "Trial</w>": 7580,
  "concentr": 7581,
  "28.": 7582,
  "satisfy</w>": 7583,
  "Aff": 7584,
  "demonstration</w>": 7585,
  "ат": 7586,
  "ath</w>": 7587,
  "Pav": 7588,
  "guarante": 7589,
  "depend": 7590,
  "135</w>": 7591,
  "Book</w>": 7592,
  "220</w>": 7593,
  "tle</w>": 7594,
  "Sen": 7595,
  "FT": 7596,
  "add": 7597,
  "prosec": 7598,
  "invest</w>": 7599,
  "justification</w>": 7600,
  "Dur": 7601,
  "timetable</w>": 7602,
  "fun": 7603,
  "originally</w>": 7604,
  "excess</w>": 7605,
  "utmost</w>": 7606,
  "21.": 7607,
  "TE</w>": 7608,
  "lie</w>": 7609,
  "Arab": 7610,
  "mea": 7611,
  "Copenhagen</w>": 7612,
  "doctors</w>": 7613,
  "sequ": 7614,
  "ung</w>": 7615,
  "tend</w>": 7616,
  "acces": 7617,
  "erals</w>": 7618,
  "expres": 7619,
  "ution</w>": 7620,
  "Appeal</w>": 7621,
  "biggest</w>": 7622,
  "amp": 7623,
  "stake": 7624,
  "May": 7625,
  "27.": 7626,
  "LA": 7627,
  "bench": 7628,
  "iciary</w>": 7629,
  "reserved</w>": 7630,
  "heal": 7631,
  "Ca": 7632,
  "bered</w>": 7633,
  "cies</w>": 7634,
  "FO": 7635,
  "Gren": 7636,
  "Sometimes</w>": 7637,
  "investigating</w>": 7638,
  "sha</w>": 7639,
  "OB": 7640,
  "competitions</w>": 7641,
  "assured</w>": 7642,
  "tial</w>": 7643,
  "Inspec": 7644,
  "deterior": 7645,
  "hall</w>": 7646,
  "circum": 7647,
  "Embassy</w>": 7648,
  "infected</w>": 7649,
  "favorite</w>": 7650,
  "mineral</w>": 7651,
  "assignment</w>": 7652,
  "warm</w>": 7653,
  "10,000</w>": 7654,
  "garden</w>": 7655,
  "Should</w>": 7656,
  "assure</w>": 7657,
  "stu": 7658,
  "nu": 7659,
  "recipient</w>": 7660,
  "orium</w>": 7661,
  "inity</w>": 7662,
  "CT</w>": 7663,
  "brother</w>": 7664,
  "ethics</w>": 7665,
  "metals</w>": 7666,
  "yah</w>": 7667,
  "studied</w>": 7668,
  "reads</w>": 7669,
  "https</w>": 7670,
  "open": 7671,
  "iness</w>": 7672,
  "kh": 7673,
  "updates</w>": 7674,
  "maternity</w>": 7675,
  "brings</w>": 7676,
  "semi</w>": 7677,
  "deputy</w>": 7678,
  "opens</w>": 7679,
  "Sil": 7680,
  "returning</w>": 7681,
  "pornography</w>": 7682,
  "23.": 7683,
  "sheet</w>": 7684,
  "ine": 7685,
  "ker": 7686,
  "ast</w>": 7687,
  "curriculum</w>": 7688,
  "exerc": 7689,
  "rear</w>": 7690,
  "classi": 7691,
  "100,000</w>": 7692,
  "introduc": 7693,
  "Green</w>": 7694,
  "nominated</w>": 7695,
  "advise</w>": 7696,
  "Top</w>": 7697,
  "tru": 7698,
  "flag</w>": 7699,
  "ч": 7700,
  "cancer</w>": 7701,
  "sym": 7702,
  "continuously</w>": 7703,
  "formula</w>": 7704,
  "fashion</w>": 7705,
  "usual</w>": 7706,
  "cing</w>": 7707,
  "autonomy</w>": 7708,
  "cleaning</w>": 7709,
  "threshold</w>": 7710,
  "alien</w>": 7711,
  "Som": 7712,
  "Mic": 7713,
  "ska</w>": 7714,
  "respon": 7715,
  "circulation</w>": 7716,
  "Men</w>": 7717,
  "ede</w>": 7718,
  "eve</w>": 7719,
  "unknown</w>": 7720,
  "si</w>": 7721,
  "Who</w>": 7722,
  "Port</w>": 7723,
  "laboratory</w>": 7724,
  "Manager</w>": 7725,
  "school": 7726,
  "expensive</w>": 7727,
  "compens": 7728,
  "sell</w>": 7729,
  "efficiently</w>": 7730,
  "motivated</w>": 7731,
  "Victims</w>": 7732,
  "filling</w>": 7733,
  "210</w>": 7734,
  "prise</w>": 7735,
  "boards</w>": 7736,
  "radioactive</w>": 7737,
  "regulate</w>": 7738,
  "confirmation</w>": 7739,
  "pain</w>": 7740,
  "Street</w>": 7741,
  "cope</w>": 7742,
  "opted</w>": 7743,
  "manship</w>": 7744,
  "upcoming</w>": 7745,
  "withdrawn</w>": 7746,
  "ential</w>": 7747,
  "Andre": 7748,
  "flash</w>": 7749,
  "Soci": 7750,
  "Florida</w>": 7751,
  "legitimacy</w>": 7752,
  "museum</w>": 7753,
  "9th</w>": 7754,
  "apo": 7755,
  "Transfer</w>": 7756,
  "tile</w>": 7757,
  "guiding</w>": 7758,
  "partments</w>": 7759,
  "audience</w>": 7760,
  "reali": 7761,
  "tization</w>": 7762,
  "hair</w>": 7763,
  "aspirations</w>": 7764,
  "hosting</w>": 7765,
  "coast</w>": 7766,
  "affects</w>": 7767,
  "Province</w>": 7768,
  "lights</w>": 7769,
  "predictable</w>": 7770,
  "Bangkok</w>": 7771,
  "answered</w>": 7772,
  "measurements</w>": 7773,
  "skilled</w>": 7774,
  "ept": 7775,
  "instability</w>": 7776,
  "powered</w>": 7777,
  "Niger</w>": 7778,
  "Fri": 7779,
  "reliability</w>": 7780,
  "alig": 7781,
  "Lat": 7782,
  "count</w>": 7783,
  "PD</w>": 7784,
  "perceived</w>": 7785,
  "eas": 7786,
  "Enterprise</w>": 7787,
  "vegetables</w>": 7788,
  "veri": 7789,
  "aching</w>": 7790,
  "pleasure</w>": 7791,
  "Cro": 7792,
  "pir": 7793,
  "piece</w>": 7794,
  "amoun": 7795,
  "careful</w>": 7796,
  "Head": 7797,
  "sun</w>": 7798,
  "fired</w>": 7799,
  "Medi": 7800,
  "advertising</w>": 7801,
  "dges</w>": 7802,
  "ecti": 7803,
  "lowest</w>": 7804,
  "statutory</w>": 7805,
  "cum": 7806,
  "unacceptable</w>": 7807,
  "ians</w>": 7808,
  "AI</w>": 7809,
  "orian</w>": 7810,
  "essentially</w>": 7811,
  "planet</w>": 7812,
  "containers</w>": 7813,
  "eye</w>": 7814,
  "neg": 7815,
  "assumption</w>": 7816,
  "mir": 7817,
  "ands</w>": 7818,
  "22.": 7819,
  "Berlin</w>": 7820,
  "esses</w>": 7821,
  "placing</w>": 7822,
  "scored</w>": 7823,
  "etion</w>": 7824,
  "Barbados</w>": 7825,
  "contractor</w>": 7826,
  "ities</w>": 7827,
  "Sex": 7828,
  "tioned</w>": 7829,
  "doctr": 7830,
  "ext</w>": 7831,
  "Mil": 7832,
  "Amendment</w>": 7833,
  "entrepreneurs</w>": 7834,
  "Fi</w>": 7835,
  "ptions</w>": 7836,
  "DE</w>": 7837,
  "ç": 7838,
  "Somali</w>": 7839,
  "1.6</w>": 7840,
  "Rig": 7841,
  "pursuit</w>": 7842,
  "atics</w>": 7843,
  "Prague</w>": 7844,
  "debates</w>": 7845,
  "thermal</w>": 7846,
  "justify</w>": 7847,
  "wear</w>": 7848,
  "Additionally</w>": 7849,
  "returns</w>": 7850,
  "Judge</w>": 7851,
  "four": 7852,
  "farm</w>": 7853,
  "BT</w>": 7854,
  "240</w>": 7855,
  "Have</w>": 7856,
  "usage</w>": 7857,
  "reaction</w>": 7858,
  "farm": 7859,
  "slavery</w>": 7860,
  "Altern": 7861,
  "ila</w>": 7862,
  "Hon": 7863,
  "unemployed</w>": 7864,
  "festival</w>": 7865,
  "occurs</w>": 7866,
  "ees</w>": 7867,
  "sensi": 7868,
  "trol": 7869,
  "bon": 7870,
  "GA</w>": 7871,
  "enrich": 7872,
  "adapted</w>": 7873,
  "Festival</w>": 7874,
  "ament</w>": 7875,
  "GC</w>": 7876,
  "Design</w>": 7877,
  "realities</w>": 7878,
  "fitness</w>": 7879,
  "ound": 7880,
  "interpret": 7881,
  "blo": 7882,
  "á</w>": 7883,
  "wrestling</w>": 7884,
  "ateral</w>": 7885,
  "ori</w>": 7886,
  "Cu": 7887,
  "Commerce</w>": 7888,
  "Four</w>": 7889,
  "damaged</w>": 7890,
  "stored</w>": 7891,
  "ry": 7892,
  "refriger": 7893,
  "denial</w>": 7894,
  "Exp": 7895,
  "Coo": 7896,
  "firearms</w>": 7897,
  "obstacle</w>": 7898,
  "Cairo</w>": 7899,
  "unprecedented</w>": 7900,
  "09": 7901,
  "And": 7902,
  "argument</w>": 7903,
  "use": 7904,
  "fer</w>": 7905,
  "ere</w>": 7906,
  "tt": 7907,
  "distribu": 7908,
  "ert</w>": 7909,
  "che": 7910,
  "excluding</w>": 7911,
  "Works</w>": 7912,
  "eds</w>": 7913,
  "hidden</w>": 7914,
  "Tax</w>": 7915,
  "audio</w>": 7916,
  "advancing</w>": 7917,
  "poli": 7918,
  "deri": 7919,
  "fic": 7920,
  "Experi": 7921,
  "Commercial</w>": 7922,
  "Buil": 7923,
  "ethn": 7924,
  "congratulate</w>": 7925,
  "ora</w>": 7926,
  "receives</w>": 7927,
  "aling</w>": 7928,
  "Add": 7929,
  "145</w>": 7930,
  "proposes</w>": 7931,
  "environments</w>": 7932,
  "mid": 7933,
  "350</w>": 7934,
  "oph": 7935,
  "publish</w>": 7936,
  "elect</w>": 7937,
  "Cent": 7938,
  "poorest</w>": 7939,
  "lan": 7940,
  "aqu": 7941,
  "creates</w>": 7942,
  "Ali</w>": 7943,
  "akh": 7944,
  "Est": 7945,
  "council</w>": 7946,
  "utes</w>": 7947,
  "swimming</w>": 7948,
  "stating</w>": 7949,
  "tribute</w>": 7950,
  "doors</w>": 7951,
  "qualifications</w>": 7952,
  "admission</w>": 7953,
  "helpful</w>": 7954,
  "GH": 7955,
  "organisation</w>": 7956,
  "conditional</w>": 7957,
  "discover</w>": 7958,
  "Catholic</w>": 7959,
  "aliens</w>": 7960,
  "ри": 7961,
  "thirds</w>": 7962,
  "2.6</w>": 7963,
  "Zone</w>": 7964,
  "refin": 7965,
  "tively</w>": 7966,
  "SN": 7967,
  "highlights</w>": 7968,
  "refuse</w>": 7969,
  "testimony</w>": 7970,
  "Vit": 7971,
  "ã": 7972,
  "conf": 7973,
  "wants</w>": 7974,
  "diagno": 7975,
  "ern": 7976,
  "Tourism</w>": 7977,
  "sil": 7978,
  "meat</w>": 7979,
  "traff": 7980,
  "hum": 7981,
  "tracking</w>": 7982,
  "Orthodox</w>": 7983,
  "H.</w>": 7984,
  "clam": 7985,
  "Pennsylvania</w>": 7986,
  "Thir": 7987,
  "Opening</w>": 7988,
  "exceeded</w>": 7989,
  "0.5</w>": 7990,
  "accommodate</w>": 7991,
  "BA</w>": 7992,
  "lawful</w>": 7993,
  "scar": 7994,
  "rogen</w>": 7995,
  "Rap": 7996,
  "Find</w>": 7997,
  "ham": 7998,
  "amm": 7999,
  "1974</w>": 8000,
  "к</w>": 8001,
  "crops</w>": 8002,
  "eat</w>": 8003,
  "hn": 8004,
  "buyer</w>": 8005,
  "judg": 8006,
  "connec": 8007,
  "grew</w>": 8008,
  "draw": 8009,
  "advised</w>": 8010,
  "inj": 8011,
  "provider</w>": 8012,
  "infection</w>": 8013,
  "one": 8014,
  "advers": 8015,
  "D.": 8016,
  "sitting</w>": 8017,
  "invent": 8018,
  "restraint</w>": 8019,
  "upgrade</w>": 8020,
  "Category</w>": 8021,
  "discour": 8022,
  "contest</w>": 8023,
  "int</w>": 8024,
  "radic": 8025,
  "ey</w>": 8026,
  "describes</w>": 8027,
  "networking</w>": 8028,
  "Gulf</w>": 8029,
  "answers</w>": 8030,
  "appealed</w>": 8031,
  "exacerb": 8032,
  "ро": 8033,
  "Rail": 8034,
  "Stand": 8035,
  "Ltd</w>": 8036,
  "liquid</w>": 8037,
  "heavily</w>": 8038,
  "attributed</w>": 8039,
  "descent</w>": 8040,
  "lighting</w>": 8041,
  "в</w>": 8042,
  "wine</w>": 8043,
  "bly</w>": 8044,
  "Chem": 8045,
  "attending</w>": 8046,
  "exceptions</w>": 8047,
  "degrees</w>": 8048,
  "broken</w>": 8049,
  "age": 8050,
  "aver": 8051,
  "xed</w>": 8052,
  "Young</w>": 8053,
  "vers</w>": 8054,
  "confident</w>": 8055,
  "aku</w>": 8056,
  "supportive</w>": 8057,
  "packaging</w>": 8058,
  "read": 8059,
  "Med": 8060,
  "enfor": 8061,
  "fuels</w>": 8062,
  "protective</w>": 8063,
  "obj": 8064,
  "outset</w>": 8065,
  "Know": 8066,
  "uring</w>": 8067,
  "wrong": 8068,
  "interviews</w>": 8069,
  "lift</w>": 8070,
  "ank</w>": 8071,
  "perc": 8072,
  "concep": 8073,
  "Vie": 8074,
  "ome": 8075,
  "Box</w>": 8076,
  "Nik": 8077,
  "nine": 8078,
  "medicines</w>": 8079,
  "acknowledge</w>": 8080,
  "spaces</w>": 8081,
  "overn": 8082,
  "Tit": 8083,
  "Cape</w>": 8084,
  "Glob": 8085,
  "Iron</w>": 8086,
  "1977</w>": 8087,
  "discre": 8088,
  "resu": 8089,
  "ski": 8090,
  "expense</w>": 8091,
  "doc": 8092,
  "abortion</w>": 8093,
  "treat</w>": 8094,
  "compati": 8095,
  "ced</w>": 8096,
  "Mine</w>": 8097,
  "Case</w>": 8098,
  "Taji": 8099,
  "BC</w>": 8100,
  "php</w>": 8101,
  "supplement</w>": 8102,
  "54": 8103,
  "Aviation</w>": 8104,
  "6.2</w>": 8105,
  "knew</w>": 8106,
  "compli": 8107,
  "turing</w>": 8108,
  "Eli": 8109,
  "edge</w>": 8110,
  "animal</w>": 8111,
  "Bre": 8112,
  "sustain</w>": 8113,
  "brake</w>": 8114,
  "concentrated</w>": 8115,
  "soul</w>": 8116,
  "Bhut": 8117,
  "filing</w>": 8118,
  "preferred</w>": 8119,
  "ground": 8120,
  "announcement</w>": 8121,
  "edy</w>": 8122,
  "fewer</w>": 8123,
  "titu": 8124,
  "TS": 8125,
  "individually</w>": 8126,
  "losing</w>": 8127,
  "struction</w>": 8128,
  "190</w>": 8129,
  "isation</w>": 8130,
  "Ha": 8131,
  "argued</w>": 8132,
  "visual</w>": 8133,
  "Hand": 8134,
  "newspaper</w>": 8135,
  "Rus": 8136,
  "baseline</w>": 8137,
  "sly</w>": 8138,
  "ut</w>": 8139,
  "smuggling</w>": 8140,
  "printed</w>": 8141,
  "delivering</w>": 8142,
  "Insurance</w>": 8143,
  "entials</w>": 8144,
  "War": 8145,
  "sen</w>": 8146,
  "Bak": 8147,
  "roll</w>": 8148,
  "ector</w>": 8149,
  "Thanks</w>": 8150,
  "fan</w>": 8151,
  "loaded</w>": 8152,
  "SH": 8153,
  "Amend": 8154,
  "ы</w>": 8155,
  "killings</w>": 8156,
  "Sport</w>": 8157,
  "extra": 8158,
  "History</w>": 8159,
  "Station</w>": 8160,
  "subsidi": 8161,
  "hea": 8162,
  "quantities</w>": 8163,
  "yer</w>": 8164,
  "Cont": 8165,
  "pledges</w>": 8166,
  "diary</w>": 8167,
  "native</w>": 8168,
  "acies</w>": 8169,
  "accru": 8170,
  "spon": 8171,
  "ff</w>": 8172,
  "worker</w>": 8173,
  "plates</w>": 8174,
  "rep": 8175,
  "Illinois</w>": 8176,
  "tent</w>": 8177,
  "destroy</w>": 8178,
  "holi": 8179,
  "ales</w>": 8180,
  "ballot</w>": 8181,
  "tware</w>": 8182,
  "websites</w>": 8183,
  "emi": 8184,
  "High": 8185,
  "inner</w>": 8186,
  "streets</w>": 8187,
  "College</w>": 8188,
  "Care</w>": 8189,
  "Innov": 8190,
  "friend</w>": 8191,
  "respondents</w>": 8192,
  "Е": 8193,
  "num": 8194,
  "runs</w>": 8195,
  "tickets</w>": 8196,
  "notified</w>": 8197,
  "comfort</w>": 8198,
  "ave</w>": 8199,
  "Manufac": 8200,
  "pret": 8201,
  "desig": 8202,
  "earn</w>": 8203,
  "courage</w>": 8204,
  "pal": 8205,
  "spe": 8206,
  "dies</w>": 8207,
  "smooth</w>": 8208,
  "discussing</w>": 8209,
  "bal": 8210,
  "ported</w>": 8211,
  "Cur": 8212,
  "1971</w>": 8213,
  "Danish</w>": 8214,
  "warran": 8215,
  "ool</w>": 8216,
  "resp": 8217,
  "ran": 8218,
  "uncertainty</w>": 8219,
  "intimidation</w>": 8220,
  "vity</w>": 8221,
  "operates</w>": 8222,
  "tariff</w>": 8223,
  "fate</w>": 8224,
  "Asp": 8225,
  "weekly</w>": 8226,
  "Five</w>": 8227,
  "issuing</w>": 8228,
  "negotiate</w>": 8229,
  "actor</w>": 8230,
  "supplier</w>": 8231,
  "nationally</w>": 8232,
  "retur": 8233,
  "dy": 8234,
  "fire": 8235,
  "Reporting</w>": 8236,
  "bedroom</w>": 8237,
  "prefer": 8238,
  "Organ": 8239,
  "ush": 8240,
  "roots</w>": 8241,
  "judgment</w>": 8242,
  "Produc": 8243,
  "infra": 8244,
  "actu": 8245,
  "Baltic</w>": 8246,
  "·</w>": 8247,
  "defines</w>": 8248,
  "tree</w>": 8249,
  "locally</w>": 8250,
  "entrance</w>": 8251,
  "discipline</w>": 8252,
  "specialist</w>": 8253,
  "Croatian</w>": 8254,
  "challenging</w>": 8255,
  "sation</w>": 8256,
  "evelop</w>": 8257,
  "totally</w>": 8258,
  "Phys": 8259,
  "tability</w>": 8260,
  "psych": 8261,
  "Samoa</w>": 8262,
  "gets</w>": 8263,
  "steady</w>": 8264,
  "GM</w>": 8265,
  "Urban</w>": 8266,
  "rolling</w>": 8267,
  "invo": 8268,
  "rers</w>": 8269,
  "attempted</w>": 8270,
  "tun": 8271,
  "prof": 8272,
  "evolving</w>": 8273,
  "5.3</w>": 8274,
  "R.</w>": 8275,
  "Loc": 8276,
  "ball</w>": 8277,
  "clause</w>": 8278,
  "any": 8279,
  "mel": 8280,
  "bour": 8281,
  "joy</w>": 8282,
  "Aid</w>": 8283,
  "79": 8284,
  "monitors</w>": 8285,
  "mere</w>": 8286,
  "orph": 8287,
  "scenario</w>": 8288,
  "robust</w>": 8289,
  "discovered</w>": 8290,
  "globally</w>": 8291,
  "On": 8292,
  "literature</w>": 8293,
  "succession</w>": 8294,
  "ï": 8295,
  "aints</w>": 8296,
  "violate</w>": 8297,
  "Post": 8298,
  "graph": 8299,
  "1976</w>": 8300,
  "discretion</w>": 8301,
  "advoc": 8302,
  "fruits</w>": 8303,
  "responsive</w>": 8304,
  "hearings</w>": 8305,
  "absolutely</w>": 8306,
  "sight</w>": 8307,
  "nice</w>": 8308,
  "Lab": 8309,
  "appreci": 8310,
  "holidays</w>": 8311,
  "plan": 8312,
  "PM": 8313,
  "BB": 8314,
  "independently</w>": 8315,
  "reconc": 8316,
  "stopped</w>": 8317,
  "4,000</w>": 8318,
  "Point</w>": 8319,
  "prosecuted</w>": 8320,
  "ide</w>": 8321,
  "graphy</w>": 8322,
  "structured</w>": 8323,
  "Presid": 8324,
  "reci": 8325,
  "aligned</w>": 8326,
  "cy</w>": 8327,
  "buff": 8328,
  "materi": 8329,
  "Premi": 8330,
  "voters</w>": 8331,
  "interior</w>": 8332,
  "Attorney</w>": 8333,
  "Assi": 8334,
  "chairs</w>": 8335,
  "faster</w>": 8336,
  "punish</w>": 8337,
  "Air": 8338,
  "trees</w>": 8339,
  "Dan": 8340,
  "band</w>": 8341,
  "exact</w>": 8342,
  "payable</w>": 8343,
  "bn</w>": 8344,
  "PE": 8345,
  "л</w>": 8346,
  "Green": 8347,
  "safe": 8348,
  "ì": 8349,
  "belong</w>": 8350,
  "distinguished</w>": 8351,
  "aur": 8352,
  "ben": 8353,
  "defense</w>": 8354,
  "draws</w>": 8355,
  "walls</w>": 8356,
  "decisive</w>": 8357,
  "seller</w>": 8358,
  "preser": 8359,
  "precisely</w>": 8360,
  "xim": 8361,
  "oceans</w>": 8362,
  "notion</w>": 8363,
  "cir": 8364,
  "flat</w>": 8365,
  "Full</w>": 8366,
  "exercising</w>": 8367,
  "Abu</w>": 8368,
  "7th</w>": 8369,
  "designing</w>": 8370,
  "explicit</w>": 8371,
  "M.": 8372,
  "corpor": 8373,
  "sa": 8374,
  "aniz": 8375,
  "pt</w>": 8376,
  "deficit</w>": 8377,
  "scan": 8378,
  "P.</w>": 8379,
  "wai": 8380,
  "aux</w>": 8381,
  "emic</w>": 8382,
  "Instead</w>": 8383,
  "missile</w>": 8384,
  "ERS</w>": 8385,
  "appropriately</w>": 8386,
  "eph": 8387,
  "elec": 8388,
  "230</w>": 8389,
  "Deli": 8390,
  "ffs</w>": 8391,
  "remind</w>": 8392,
  "feet</w>": 8393,
  "vigor": 8394,
  "Kon": 8395,
  "Democracy</w>": 8396,
  "xi": 8397,
  "attractive</w>": 8398,
  "privileg": 8399,
  "umin": 8400,
  "eeds</w>": 8401,
  "vable</w>": 8402,
  "OR</w>": 8403,
  "cylin": 8404,
  "aint</w>": 8405,
  "stitution</w>": 8406,
  "ò": 8407,
  "aps</w>": 8408,
  "contribu": 8409,
  "pressed</w>": 8410,
  "checks</w>": 8411,
  "prize</w>": 8412,
  "Vis": 8413,
  "Veri": 8414,
  "Commander</w>": 8415,
  "publishing</w>": 8416,
  "Gor": 8417,
  "visibility</w>": 8418,
  "amic</w>": 8419,
  "ever": 8420,
  "condem": 8421,
  "Meanwhile</w>": 8422,
  "innocent</w>": 8423,
  "cas": 8424,
  "Organisation</w>": 8425,
  "tenance</w>": 8426,
  "aly": 8427,
  "50,000</w>": 8428,
  "license</w>": 8429,
  "Dest": 8430,
  "socially</w>": 8431,
  "acute</w>": 8432,
  "sort</w>": 8433,
  "arrive</w>": 8434,
  "craft</w>": 8435,
  "Laun": 8436,
  "terrace</w>": 8437,
  "avoiding</w>": 8438,
  "dead": 8439,
  "ethical</w>": 8440,
  "complicated</w>": 8441,
  "control": 8442,
  "sual</w>": 8443,
  "handle</w>": 8444,
  "accomplished</w>": 8445,
  "dri": 8446,
  "filter</w>": 8447,
  "train": 8448,
  "allowances</w>": 8449,
  "Don</w>": 8450,
  "matic</w>": 8451,
  "segments</w>": 8452,
  "off": 8453,
  "lers</w>": 8454,
  "bet</w>": 8455,
  "policymakers</w>": 8456,
  "witnessed</w>": 8457,
  "regret</w>": 8458,
  "migr": 8459,
  "commonly</w>": 8460,
  "lem</w>": 8461,
  "arranged</w>": 8462,
  "prin": 8463,
  "shortly</w>": 8464,
  "tract</w>": 8465,
  "associate</w>": 8466,
  "Recomm": 8467,
  "compreh": 8468,
  "breeze</w>": 8469,
  "oblig": 8470,
  "seeing</w>": 8471,
  "mg</w>": 8472,
  "Abu": 8473,
  "Senate</w>": 8474,
  "pledged</w>": 8475,
  "Expl": 8476,
  "clean": 8477,
  "timing</w>": 8478,
  "recalling</w>": 8479,
  "host": 8480,
  "Shar": 8481,
  "bit": 8482,
  "ked</w>": 8483,
  "solar</w>": 8484,
  "decreas": 8485,
  "eties</w>": 8486,
  "micro</w>": 8487,
  "tra</w>": 8488,
  "gregation</w>": 8489,
  "4.4</w>": 8490,
  "eu</w>": 8491,
  "directors</w>": 8492,
  "stereotypes</w>": 8493,
  "bel</w>": 8494,
  "uk</w>": 8495,
  "aside</w>": 8496,
  "disproportion": 8497,
  "feeling</w>": 8498,
  "Mont": 8499,
  "ourse</w>": 8500,
  "toxic</w>": 8501,
  "6.5</w>": 8502,
  "voted</w>": 8503,
  "scene</w>": 8504,
  "bing</w>": 8505,
  "Conc": 8506,
  "wherever</w>": 8507,
  "Yu": 8508,
  "Mur": 8509,
  "Performance</w>": 8510,
  "eng</w>": 8511,
  "Bio": 8512,
  "20th</w>": 8513,
  "guards</w>": 8514,
  "solved</w>": 8515,
  "selling</w>": 8516,
  "cheap</w>": 8517,
  "spr": 8518,
  "cable</w>": 8519,
  "qualification</w>": 8520,
  "foot</w>": 8521,
  "Maj": 8522,
  "hydr": 8523,
  "colonial</w>": 8524,
  "dark</w>": 8525,
  "virtually</w>": 8526,
  "oke</w>": 8527,
  "diet</w>": 8528,
  "mechanical</w>": 8529,
  "bi</w>": 8530,
  "solving</w>": 8531,
  "Real</w>": 8532,
  "possess</w>": 8533,
  "Color": 8534,
  "Bol": 8535,
  "credentials</w>": 8536,
  "ze": 8537,
  "ky</w>": 8538,
  "Hor": 8539,
  "Rat": 8540,
  "div": 8541,
  "gather</w>": 8542,
  "Autom": 8543,
  "tenure</w>": 8544,
  "Mir": 8545,
  "tations</w>": 8546,
  "Coll": 8547,
  "gin</w>": 8548,
  "Muslims</w>": 8549,
  "profound</w>": 8550,
  "5.5</w>": 8551,
  "Portuguese</w>": 8552,
  "ran</w>": 8553,
  "plastic</w>": 8554,
  "iron</w>": 8555,
  "Higher</w>": 8556,
  "manufactured</w>": 8557,
  "Saf": 8558,
  "Investigation</w>": 8559,
  "lishment</w>": 8560,
  "Old</w>": 8561,
  "aiming</w>": 8562,
  "conscience</w>": 8563,
  "utility</w>": 8564,
  "Fif": 8565,
  "ц": 8566,
  "educ": 8567,
  "spouse</w>": 8568,
  "exit</w>": 8569,
  "escape</w>": 8570,
  "Individu": 8571,
  "soft</w>": 8572,
  "iland</w>": 8573,
  "GE</w>": 8574,
  "cho": 8575,
  "Vo": 8576,
  "Marine</w>": 8577,
  "sou": 8578,
  "corrections</w>": 8579,
  "articul": 8580,
  "ogen": 8581,
  "arian</w>": 8582,
  "ger": 8583,
  "gnment</w>": 8584,
  "Immigration</w>": 8585,
  "rotation</w>": 8586,
  "Age</w>": 8587,
  "1972</w>": 8588,
  "yes</w>": 8589,
  "alls</w>": 8590,
  "projections</w>": 8591,
  "investigative</w>": 8592,
  "fix</w>": 8593,
  "dives</w>": 8594,
  "consulting</w>": 8595,
  "reflection</w>": 8596,
  "VER": 8597,
  "dropped</w>": 8598,
  "Johannesburg</w>": 8599,
  "traditionally</w>": 8600,
  "plom": 8601,
  "ira</w>": 8602,
  "typical</w>": 8603,
  "Pun": 8604,
  "Taliban</w>": 8605,
  "sy</w>": 8606,
  "consulted</w>": 8607,
  "breakdown</w>": 8608,
  "bedrooms</w>": 8609,
  "It": 8610,
  "hour": 8611,
  "comings</w>": 8612,
  "managerial</w>": 8613,
  "cop": 8614,
  "Cen": 8615,
  "GB</w>": 8616,
  "administr": 8617,
  "assault</w>": 8618,
  "oma</w>": 8619,
  "platforms</w>": 8620,
  "cise</w>": 8621,
  "icals</w>": 8622,
  "conduc": 8623,
  "Fo": 8624,
  "ides</w>": 8625,
  "parental</w>": 8626,
  "Slov": 8627,
  "capture</w>": 8628,
  "Vil": 8629,
  ",000</w>": 8630,
  "intensity</w>": 8631,
  "DR</w>": 8632,
  "intend</w>": 8633,
  "perfectly</w>": 8634,
  "owed</w>": 8635,
  "MB": 8636,
  "strive</w>": 8637,
  "nic</w>": 8638,
  "Flo": 8639,
  "ech</w>": 8640,
  "Blue</w>": 8641,
  "settle</w>": 8642,
  "taught</w>": 8643,
  "Telec": 8644,
  "Starting</w>": 8645,
  "tier</w>": 8646,
  "football</w>": 8647,
  "Woods</w>": 8648,
  "Sud": 8649,
  "lim": 8650,
  "Palace</w>": 8651,
  "Engineering</w>": 8652,
  "Techn": 8653,
  "touch</w>": 8654,
  "wondered</w>": 8655,
  "Brun": 8656,
  "®</w>": 8657,
  "sat</w>": 8658,
  "elles</w>": 8659,
  "Ale": 8660,
  "20,000</w>": 8661,
  "ICC</w>": 8662,
  "genital</w>": 8663,
  "intent</w>": 8664,
  "connect</w>": 8665,
  "nights</w>": 8666,
  "shower</w>": 8667,
  "TH</w>": 8668,
  "beliefs</w>": 8669,
  "í</w>": 8670,
  "rest": 8671,
  "spheric</w>": 8672,
  "K.</w>": 8673,
  "convenient</w>": 8674,
  "reinforced</w>": 8675,
  "factory</w>": 8676,
  "acious</w>": 8677,
  "narrow</w>": 8678,
  "translate</w>": 8679,
  "boat</w>": 8680,
  "van</w>": 8681,
  "diplomacy</w>": 8682,
  "Egyptian</w>": 8683,
  "ko": 8684,
  "gres": 8685,
  "afford</w>": 8686,
  "starts</w>": 8687,
  "proph": 8688,
  "ther</w>": 8689,
  "bulk</w>": 8690,
  "prioriti": 8691,
  "shopping</w>": 8692,
  "hardware</w>": 8693,
  "proj": 8694,
  "Tun": 8695,
  "prominent</w>": 8696,
  "pping</w>": 8697,
  "je": 8698,
  "blocks</w>": 8699,
  "ym": 8700,
  "Far": 8701,
  "ag</w>": 8702,
  "purchased</w>": 8703,
  "passage</w>": 8704,
  "prescri": 8705,
  "autonomous</w>": 8706,
  "Eng": 8707,
  "rs</w>": 8708,
  "winner</w>": 8709,
  "Jean</w>": 8710,
  "wait</w>": 8711,
  "steering</w>": 8712,
  "lows</w>": 8713,
  "eld</w>": 8714,
  "afternoon</w>": 8715,
  "й": 8716,
  "worst</w>": 8717,
  "pic</w>": 8718,
  "nam": 8719,
  "oni</w>": 8720,
  "dismissed</w>": 8721,
  "epidemic</w>": 8722,
  "tar": 8723,
  "rad</w>": 8724,
  "Kit": 8725,
  "stem": 8726,
  "opposite</w>": 8727,
  "transl": 8728,
  "apart</w>": 8729,
  "predic": 8730,
  "isolation</w>": 8731,
  "Norwegian</w>": 8732,
  "surplus</w>": 8733,
  "ress</w>": 8734,
  "Make</w>": 8735,
  "councils</w>": 8736,
  "wid": 8737,
  "Exc": 8738,
  "Prison</w>": 8739,
  "contrac": 8740,
  "boundaries</w>": 8741,
  "limiting</w>": 8742,
  "isa</w>": 8743,
  "correctly</w>": 8744,
  "evi": 8745,
  "ton": 8746,
  "estici": 8747,
  "practic": 8748,
  "book": 8749,
  "ram": 8750,
  "sident</w>": 8751,
  "anger</w>": 8752,
  "researchers</w>": 8753,
  "desk</w>": 8754,
  "progres": 8755,
  "personally</w>": 8756,
  "layer</w>": 8757,
  "lets</w>": 8758,
  "CS</w>": 8759,
  "sincere</w>": 8760,
  "Sul": 8761,
  "270</w>": 8762,
  "promise</w>": 8763,
  "applicants</w>": 8764,
  "eted</w>": 8765,
  "knows</w>": 8766,
  "entional</w>": 8767,
  "modelling</w>": 8768,
  "cent": 8769,
  "infant</w>": 8770,
  "subscri": 8771,
  "audits</w>": 8772,
  "reverse</w>": 8773,
  "virtue</w>": 8774,
  "windows</w>": 8775,
  "cher</w>": 8776,
  "ulative</w>": 8777,
  "holy</w>": 8778,
  "ini</w>": 8779,
  "bel": 8780,
  "childhood</w>": 8781,
  "med": 8782,
  "ship": 8783,
  "dimen": 8784,
  "comprised</w>": 8785,
  "nets</w>": 8786,
  "exhaus": 8787,
  "tyre</w>": 8788,
  "2.7</w>": 8789,
  "fle": 8790,
  "chairman</w>": 8791,
  "evic": 8792,
  "Citizens</w>": 8793,
  "edi": 8794,
  "Sir</w>": 8795,
  "ck</w>": 8796,
  "pensions</w>": 8797,
  "activists</w>": 8798,
  "red": 8799,
  "cancellation</w>": 8800,
  "gro": 8801,
  "iPhone</w>": 8802,
  "warrant</w>": 8803,
  "crit": 8804,
  "The": 8805,
  "Using</w>": 8806,
  "score</w>": 8807,
  "propor": 8808,
  "helicopter</w>": 8809,
  "detri": 8810,
  "volumes</w>": 8811,
  "ny": 8812,
  "analysed</w>": 8813,
  "studying</w>": 8814,
  "Beach</w>": 8815,
  "rou": 8816,
  "Vir": 8817,
  "Pos": 8818,
  "ols</w>": 8819,
  "Pot": 8820,
  "mentation</w>": 8821,
  "ula</w>": 8822,
  "Reser": 8823,
  "verse</w>": 8824,
  "compe": 8825,
  "ome</w>": 8826,
  "Sea": 8827,
  "renewal</w>": 8828,
  "adjust</w>": 8829,
  "ss</w>": 8830,
  "suspects</w>": 8831,
  "occur": 8832,
  "deploy</w>": 8833,
  "Az": 8834,
  "aste</w>": 8835,
  "ф": 8836,
  "New": 8837,
  "she": 8838,
  "distor": 8839,
  "squ": 8840,
  "ek": 8841,
  "choices</w>": 8842,
  "li</w>": 8843,
  "unanimously</w>": 8844,
  "myself</w>": 8845,
  "exclude</w>": 8846,
  "insul": 8847,
  "discount</w>": 8848,
  "couple</w>": 8849,
  "opi": 8850,
  "varied</w>": 8851,
  "spoken</w>": 8852,
  "1960</w>": 8853,
  "typically</w>": 8854,
  "checked</w>": 8855,
  "quiet</w>": 8856,
  "telec": 8857,
  "iling</w>": 8858,
  "HS</w>": 8859,
  "N.</w>": 8860,
  "unlikely</w>": 8861,
  "neutral</w>": 8862,
  "persist": 8863,
  "workforce</w>": 8864,
  "Families</w>": 8865,
  "Border</w>": 8866,
  "Hamas</w>": 8867,
  "hence</w>": 8868,
  "accelerated</w>": 8869,
  "lifting</w>": 8870,
  "Puerto</w>": 8871,
  "arr": 8872,
  "imported</w>": 8873,
  "Video</w>": 8874,
  "L.</w>": 8875,
  "births</w>": 8876,
  "politicians</w>": 8877,
  "hol": 8878,
  "Bab": 8879,
  "commentary</w>": 8880,
  "Set</w>": 8881,
  "Arctic</w>": 8882,
  "crop</w>": 8883,
  "artists</w>": 8884,
  "De</w>": 8885,
  "Prof": 8886,
  "clothing</w>": 8887,
  "č": 8888,
  "aissance</w>": 8889,
  "intensified</w>": 8890,
  "commemor": 8891,
  "peer</w>": 8892,
  "joining</w>": 8893,
  "Pha": 8894,
  "federation</w>": 8895,
  "aw</w>": 8896,
  "Hence</w>": 8897,
  "controlling</w>": 8898,
  "chronic</w>": 8899,
  "omm": 8900,
  "guard</w>": 8901,
  "keepers</w>": 8902,
  "ж": 8903,
  "concludes</w>": 8904,
  "battle</w>": 8905,
  "politically</w>": 8906,
  "Men": 8907,
  "emergence</w>": 8908,
  "6,000</w>": 8909,
  "briefed</w>": 8910,
  "new": 8911,
  "Dev": 8912,
  "gran": 8913,
  "linking</w>": 8914,
  "rer</w>": 8915,
  "gal": 8916,
  "Bou": 8917,
  "Prince</w>": 8918,
  "ailing</w>": 8919,
  "licensing</w>": 8920,
  "restored</w>": 8921,
  "reliance</w>": 8922,
  "alcohol</w>": 8923,
  "dynamics</w>": 8924,
  "onc": 8925,
  "Bil": 8926,
  "und": 8927,
  "Water": 8928,
  "Pa": 8929,
  "Ms</w>": 8930,
  "threaten</w>": 8931,
  "sponsor</w>": 8932,
  "1958</w>": 8933,
  "licence</w>": 8934,
  "recover</w>": 8935,
  "dilig": 8936,
  "Kha": 8937,
  "struc": 8938,
  "peri": 8939,
  "ministry</w>": 8940,
  "profits</w>": 8941,
  "justi": 8942,
  "TY</w>": 8943,
  "omet": 8944,
  "Search</w>": 8945,
  "turning</w>": 8946,
  "preference</w>": 8947,
  "hood</w>": 8948,
  "theore": 8949,
  "Will</w>": 8950,
  "text": 8951,
  "rad": 8952,
  "embo": 8953,
  "restrict</w>": 8954,
  "star": 8955,
  "siveness</w>": 8956,
  "journ": 8957,
  "spectrum</w>": 8958,
  "yours</w>": 8959,
  "ord": 8960,
  "asses</w>": 8961,
  "dures</w>": 8962,
  "1.7</w>": 8963,
  "dial</w>": 8964,
  "uplo": 8965,
  "gating</w>": 8966,
  "hate</w>": 8967,
  "stered</w>": 8968,
  "concert</w>": 8969,
  "diver": 8970,
  "2018</w>": 8971,
  "Mr</w>": 8972,
  "ero</w>": 8973,
  "develop": 8974,
  "missiles</w>": 8975,
  "constr": 8976,
  "euro</w>": 8977,
  "devi": 8978,
  "Ay": 8979,
  "mo</w>": 8980,
  "familiar</w>": 8981,
  "Strategi": 8982,
  "convey</w>": 8983,
  "Competition</w>": 8984,
  "asting</w>": 8985,
  "attacked</w>": 8986,
  "Guar": 8987,
  "AB</w>": 8988,
  "fun</w>": 8989,
  "Car</w>": 8990,
  "enty</w>": 8991,
  "yield</w>": 8992,
  "differ</w>": 8993,
  "genetic</w>": 8994,
  "correspon": 8995,
  "Om": 8996,
  "athletes</w>": 8997,
  "broadly</w>": 8998,
  "ea</w>": 8999,
  "Serbian</w>": 9000,
  "quanti": 9001,
  "flying</w>": 9002,
  "Ed": 9003,
  "175</w>": 9004,
  "NI</w>": 9005,
  "Budapest</w>": 9006,
  "ope</w>": 9007,
  "slo": 9008,
  "Direct</w>": 9009,
  "earnings</w>": 9010,
  "mathem": 9011,
  "bath</w>": 9012,
  "tea</w>": 9013,
  "Dim": 9014,
  "MAR": 9015,
  "Like</w>": 9016,
  "7.5</w>": 9017,
  "tox": 9018,
  "Recent</w>": 9019,
  "cli": 9020,
  "screening</w>": 9021,
  "gravity</w>": 9022,
  "Accor": 9023,
  "rare</w>": 9024,
  "Fir": 9025,
  "Stor": 9026,
  "personality</w>": 9027,
  "libr": 9028,
  "Mus": 9029,
  "dist": 9030,
  "fa</w>": 9031,
  "prolonged</w>": 9032,
  "corrected</w>": 9033,
  "FT</w>": 9034,
  "ovo</w>": 9035,
  "clubs</w>": 9036,
  "Van": 9037,
  "temporarily</w>": 9038,
  "consultant</w>": 9039,
  "broadcast</w>": 9040,
  "1968</w>": 9041,
  "stimulate</w>": 9042,
  "journey</w>": 9043,
  "Dutch</w>": 9044,
  "unpaid</w>": 9045,
  "completing</w>": 9046,
  "protest</w>": 9047,
  "ulations</w>": 9048,
  "continental</w>": 9049,
  "DVD</w>": 9050,
  "gift</w>": 9051,
  "walking</w>": 9052,
  "centuries</w>": 9053,
  "worship</w>": 9054,
  "Mold": 9055,
  "ð": 9056,
  "advocate</w>": 9057,
  "occurring</w>": 9058,
  "AU": 9059,
  "Ò": 9060,
  "extrad": 9061,
  "gradual</w>": 9062,
  "wards</w>": 9063,
  "Economics</w>": 9064,
  "eptions</w>": 9065,
  "goti": 9066,
  "SC": 9067,
  "begins</w>": 9068,
  "ю": 9069,
  "fragile</w>": 9070,
  "Us</w>": 9071,
  "committing</w>": 9072,
  "crew</w>": 9073,
  "clarity</w>": 9074,
  "ATED</w>": 9075,
  "conn": 9076,
  "gri": 9077,
  "Continu": 9078,
  "Income</w>": 9079,
  "dé": 9080,
  "specially</w>": 9081,
  "lending</w>": 9082,
  "daughter</w>": 9083,
  "urb": 9084,
  "pillar</w>": 9085,
  "hygi": 9086,
  "Carolina</w>": 9087,
  "somewhat</w>": 9088,
  "saved</w>": 9089,
  "objections</w>": 9090,
  "s.com</w>": 9091,
  "removing</w>": 9092,
  "№</w>": 9093,
  "ace</w>": 9094,
  "path": 9095,
  "lav": 9096,
  "clearing</w>": 9097,
  "fertility</w>": 9098,
  "united</w>": 9099,
  "profession</w>": 9100,
  "fairly</w>": 9101,
  "cross": 9102,
  "Together</w>": 9103,
  "ull</w>": 9104,
  "uph": 9105,
  "Man</w>": 9106,
  "penetr": 9107,
  "Dang": 9108,
  "arrange</w>": 9109,
  "wounded</w>": 9110,
  "remedi": 9111,
  "AW</w>": 9112,
  "guarding</w>": 9113,
  "â": 9114,
  "LY</w>": 9115,
  "nomination</w>": 9116,
  "separ": 9117,
  "mate</w>": 9118,
  "nik</w>": 9119,
  "author": 9120,
  "letin</w>": 9121,
  "quantitative</w>": 9122,
  "inconsistent</w>": 9123,
  "Son</w>": 9124,
  "virtual</w>": 9125,
  "noise</w>": 9126,
  "earning</w>": 9127,
  "mov": 9128,
  "Ger": 9129,
  "symbols</w>": 9130,
  "trainers</w>": 9131,
  "credits</w>": 9132,
  "illness</w>": 9133,
  "tens</w>": 9134,
  "detec": 9135,
  "consu": 9136,
  "Wi</w>": 9137,
  "perception</w>": 9138,
  "bea": 9139,
  "tioning</w>": 9140,
  "Tokyo</w>": 9141,
  "Deb": 9142,
  "scenarios</w>": 9143,
  "legi": 9144,
  "gen</w>": 9145,
  "Sales</w>": 9146,
  "prayer</w>": 9147,
  "ken</w>": 9148,
  "promising</w>": 9149,
  "Square</w>": 9150,
  "princi": 9151,
  "3.6</w>": 9152,
  "reli": 9153,
  "Cr": 9154,
  "resilience</w>": 9155,
  "View</w>": 9156,
  "Taiwan</w>": 9157,
  "pes</w>": 9158,
  "ez": 9159,
  "Virgin</w>": 9160,
  "Risk</w>": 9161,
  "assumptions</w>": 9162,
  "replied</w>": 9163,
  "fini": 9164,
  "ched</w>": 9165,
  "prime</w>": 9166,
  "1.8</w>": 9167,
  "ony</w>": 9168,
  "nov": 9169,
  "Ass": 9170,
  "institute</w>": 9171,
  "worse</w>": 9172,
  "az</w>": 9173,
  "Series</w>": 9174,
  "ella</w>": 9175,
  "mix</w>": 9176,
  "carries</w>": 9177,
  "graduate</w>": 9178,
  "aceful</w>": 9179,
  "stories</w>": 9180,
  "reg": 9181,
  "questioned</w>": 9182,
  "2.0</w>": 9183,
  "Whether</w>": 9184,
  "Dmit": 9185,
  "refer": 9186,
  "Mak": 9187,
  "centred</w>": 9188,
  "adequ": 9189,
  "guid": 9190,
  "0.1</w>": 9191,
  "cled</w>": 9192,
  "counterparts</w>": 9193,
  "exemption</w>": 9194,
  "dings</w>": 9195,
  "Austrian</w>": 9196,
  "Ke": 9197,
  "verified</w>": 9198,
  "SE</w>": 9199,
  "cuts</w>": 9200,
  "Tow": 9201,
  "itate</w>": 9202,
  "militia</w>": 9203,
  "identical</w>": 9204,
  "zards</w>": 9205,
  "neighbours</w>": 9206,
  "ury</w>": 9207,
  "tili": 9208,
  "aggregate</w>": 9209,
  "taxation</w>": 9210,
  "vement</w>": 9211,
  "alled</w>": 9212,
  "rot": 9213,
  "Kom": 9214,
  "sand": 9215,
  "10,": 9216,
  "Priv": 9217,
  "set": 9218,
  "1961</w>": 9219,
  "oured</w>": 9220,
  "rees</w>": 9221,
  "shortage</w>": 9222,
  "comman": 9223,
  "ras</w>": 9224,
  "sees</w>": 9225,
  "earned</w>": 9226,
  "ambitious</w>": 9227,
  "films</w>": 9228,
  "aties</w>": 9229,
  "leaves</w>": 9230,
  "demonstrations</w>": 9231,
  "jeopardi": 9232,
  "habit": 9233,
  "creditors</w>": 9234,
  "England</w>": 9235,
  "ji</w>": 9236,
  "uranium</w>": 9237,
  "450</w>": 9238,
  "wars</w>": 9239,
  "Cir": 9240,
  "forget</w>": 9241,
  "fallen</w>": 9242,
  "centage</w>": 9243,
  "passport</w>": 9244,
  "repres": 9245,
  "succeed</w>": 9246,
  "camera</w>": 9247,
  "gence</w>": 9248,
  "BM": 9249,
  "asking</w>": 9250,
  "ef</w>": 9251,
  "aut</w>": 9252,
  "ledge</w>": 9253,
  "х": 9254,
  "dia</w>": 9255,
  "wells</w>": 9256,
  "timel": 9257,
  "Credit</w>": 9258,
  "Star": 9259,
  "Tal": 9260,
  "lear": 9261,
  "dom</w>": 9262,
  "volunteers</w>": 9263,
  "Execu": 9264,
  "ranking</w>": 9265,
  "drink</w>": 9266,
  "Spe": 9267,
  "mut": 9268,
  "gious</w>": 9269,
  "Spo": 9270,
  "sm</w>": 9271,
  "bat": 9272,
  "Zi": 9273,
  "sé</w>": 9274,
  "clothes</w>": 9275,
  "proud</w>": 9276,
  "Bed": 9277,
  "Michigan</w>": 9278,
  "otted</w>": 9279,
  "milk</w>": 9280,
  "seed</w>": 9281,
  "Fal": 9282,
  "Virginia</w>": 9283,
  "deportation</w>": 9284,
  "password</w>": 9285,
  "academ": 9286,
  "categ": 9287,
  "sem": 9288,
  "ests</w>": 9289,
  "Others</w>": 9290,
  "arsen": 9291,
  "accord</w>": 9292,
  "Technologies</w>": 9293,
  "persecution</w>": 9294,
  "Radi": 9295,
  "mountains</w>": 9296,
  "poin": 9297,
  "mated</w>": 9298,
  "Prior</w>": 9299,
  "organis": 9300,
  "Obama</w>": 9301,
  "George</w>": 9302,
  "elled</w>": 9303,
  "lan</w>": 9304,
  "Eigh": 9305,
  "clock</w>": 9306,
  "Consider</w>": 9307,
  "tious</w>": 9308,
  "respects</w>": 9309,
  "govern": 9310,
  "fluctu": 9311,
  "grati": 9312,
  "Gro": 9313,
  "Hol": 9314,
  "diam": 9315,
  "~</w>": 9316,
  "permanently</w>": 9317,
  "ral</w>": 9318,
  "Back</w>": 9319,
  "mati": 9320,
  "itable</w>": 9321,
  "casualties</w>": 9322,
  "freezing</w>": 9323,
  "earliest</w>": 9324,
  "ribu": 9325,
  "ags</w>": 9326,
  "promises</w>": 9327,
  "disappeared</w>": 9328,
  "lav</w>": 9329,
  "ê": 9330,
  "wheel</w>": 9331,
  "concentrate</w>": 9332,
  "Nature</w>": 9333,
  "halt</w>": 9334,
  "substitute</w>": 9335,
  "produces</w>": 9336,
  "ING": 9337,
  "prob": 9338,
  "10th</w>": 9339,
  "Rest": 9340,
  "compiled</w>": 9341,
  "Stru": 9342,
  "magnitude</w>": 9343,
  "ь": 9344,
  "sick</w>": 9345,
  "vil": 9346,
  "nished</w>": 9347,
  "weaknesses</w>": 9348,
  "tal": 9349,
  "James</w>": 9350,
  "block": 9351,
  "ttable</w>": 9352,
  "purchasing</w>": 9353,
  "reasonably</w>": 9354,
  "corro": 9355,
  "invested</w>": 9356,
  "wise</w>": 9357,
  "Breakfast</w>": 9358,
  "famili": 9359,
  "readily</w>": 9360,
  "riding</w>": 9361,
  "incomes</w>": 9362,
  "pipeline</w>": 9363,
  "gy": 9364,
  "circle</w>": 9365,
  "ake</w>": 9366,
  "tin</w>": 9367,
  "Mel": 9368,
  "terminal</w>": 9369,
  "bol": 9370,
  "avoided</w>": 9371,
  "detected</w>": 9372,
  "Sto": 9373,
  "Pil": 9374,
  "policy": 9375,
  "consciousness</w>": 9376,
  "TB</w>": 9377,
  "valued</w>": 9378,
  "tourists</w>": 9379,
  "Single</w>": 9380,
  "retail</w>": 9381,
  "360</w>": 9382,
  "deny</w>": 9383,
  "postponed</w>": 9384,
  "pair</w>": 9385,
  "iring</w>": 9386,
  "je</w>": 9387,
  "Mas": 9388,
  "sharp</w>": 9389,
  "commented</w>": 9390,
  "1969</w>": 9391,
  "eased</w>": 9392,
  "demanded</w>": 9393,
  "rid": 9394,
  "electr": 9395,
  "settl": 9396,
  "pressures</w>": 9397,
  "Cat": 9398,
  "character": 9399,
  "kings</w>": 9400,
  "winners</w>": 9401,
  "wa</w>": 9402,
  "suspect</w>": 9403,
  "Solomon</w>": 9404,
  "fron": 9405,
  "Details</w>": 9406,
  "Max</w>": 9407,
  "amongst</w>": 9408,
  "Until</w>": 9409,
  "County</w>": 9410,
  "correspondence</w>": 9411,
  "boost</w>": 9412,
  "onto</w>": 9413,
  "incumbent</w>": 9414,
  "phones</w>": 9415,
  "distribute</w>": 9416,
  "clinics</w>": 9417,
  "servers</w>": 9418,
  "expects</w>": 9419,
  "PG</w>": 9420,
  "1980s</w>": 9421,
  "mill": 9422,
  "ists</w>": 9423,
  "dominant</w>": 9424,
  "Out</w>": 9425,
  "ater</w>": 9426,
  "neutr": 9427,
  "isolated</w>": 9428,
  "uphold</w>": 9429,
  "eliminated</w>": 9430,
  "WW": 9431,
  "tendency</w>": 9432,
  "proceeded</w>": 9433,
  "kindly</w>": 9434,
  "patrol</w>": 9435,
  "lacking</w>": 9436,
  "compounds</w>": 9437,
  "nearby</w>": 9438,
  "explored</w>": 9439,
  "debris</w>": 9440,
  "proposing</w>": 9441,
  "§</w>": 9442,
  "fathers</w>": 9443,
  "positively</w>": 9444,
  "smoking</w>": 9445,
  "bot": 9446,
  "Money</w>": 9447,
  "Bat": 9448,
  "propaganda</w>": 9449,
  "boy</w>": 9450,
  "venue</w>": 9451,
  "selecting</w>": 9452,
  "una</w>": 9453,
  "win": 9454,
  "exhi": 9455,
  "supposed</w>": 9456,
  "ged</w>": 9457,
  "euros</w>": 9458,
  "simul": 9459,
  "Photo</w>": 9460,
  "awaiting</w>": 9461,
  "destab": 9462,
  "activ": 9463,
  "rul": 9464,
  "techn": 9465,
  "deter": 9466,
  "WH": 9467,
  "visitor</w>": 9468,
  "mic": 9469,
  "sor</w>": 9470,
  "grav": 9471,
  "Average</w>": 9472,
  "Early</w>": 9473,
  "combine</w>": 9474,
  "quar": 9475,
  "you": 9476,
  "stones</w>": 9477,
  "fruit": 9478,
  "frames</w>": 9479,
  "oven</w>": 9480,
  "ruled</w>": 9481,
  "pack": 9482,
  "essence</w>": 9483,
  "underground</w>": 9484,
  "Ohio</w>": 9485,
  "remarkable</w>": 9486,
  "collectively</w>": 9487,
  "ni</w>": 9488,
  "ample</w>": 9489,
  "plas": 9490,
  "Friends</w>": 9491,
  "inability</w>": 9492,
  "row": 9493,
  "une</w>": 9494,
  "Pas": 9495,
  "ache</w>": 9496,
  "ond": 9497,
  "wonderful</w>": 9498,
  "republic</w>": 9499,
  "threatening</w>": 9500,
  "succeeded</w>": 9501,
  "activated</w>": 9502,
  "turnover</w>": 9503,
  "violating</w>": 9504,
  "profiles</w>": 9505,
  "multin": 9506,
  "rant</w>": 9507,
  "tly</w>": 9508,
  "Chambers</w>": 9509,
  "nific": 9510,
  "highlighting</w>": 9511,
  "convert</w>": 9512,
  "pol</w>": 9513,
  "poker</w>": 9514,
  "Socialist</w>": 9515,
  "farming</w>": 9516,
  "successor</w>": 9517,
  "renew</w>": 9518,
  "Var": 9519,
  "dangers</w>": 9520,
  "deliberate</w>": 9521,
  "19th</w>": 9522,
  "charging</w>": 9523,
  "Brazilian</w>": 9524,
  "tos</w>": 9525,
  "Ash": 9526,
  "warded</w>": 9527,
  "misconduct</w>": 9528,
  "gey</w>": 9529,
  "apparently</w>": 9530,
  "Michael</w>": 9531,
  "heaven</w>": 9532,
  "Shel": 9533,
  "wisdom</w>": 9534,
  "gn": 9535,
  "ity": 9536,
  "chains</w>": 9537,
  "don": 9538,
  "survivors</w>": 9539,
  "Start</w>": 9540,
  "signals</w>": 9541,
  "Coalition</w>": 9542,
  "newspapers</w>": 9543,
  "gear</w>": 9544,
  "ancing</w>": 9545,
  "coalition</w>": 9546,
  "discrimin": 9547,
  "thi": 9548,
  "evid": 9549,
  "Santa</w>": 9550,
  "norm</w>": 9551,
  "Link</w>": 9552,
  "mic</w>": 9553,
  "ick</w>": 9554,
  "farms</w>": 9555,
  "aces</w>": 9556,
  "bright</w>": 9557,
  "tou": 9558,
  "exhausted</w>": 9559,
  "sheets</w>": 9560,
  "reser": 9561,
  "arrests</w>": 9562,
  "Ini": 9563,
  "grass</w>": 9564,
  "AA</w>": 9565,
  "Conservation</w>": 9566,
  "ematic</w>": 9567,
  "Bahamas</w>": 9568,
  "ham</w>": 9569,
  "Enforcement</w>": 9570,
  "proclaimed</w>": 9571,
  "exploring</w>": 9572,
  "pel": 9573,
  "225</w>": 9574,
  "reveal</w>": 9575,
  "helicopters</w>": 9576,
  "ш": 9577,
  "max</w>": 9578,
  "agrees</w>": 9579,
  "ISS</w>": 9580,
  "Tom": 9581,
  "battery</w>": 9582,
  "eled</w>": 9583,
  "mixture</w>": 9584,
  "instantly</w>": 9585,
  "eship</w>": 9586,
  "leg</w>": 9587,
  "systemic</w>": 9588,
  "sun": 9589,
  "freeze</w>": 9590,
  "kit</w>": 9591,
  "peak</w>": 9592,
  "kill</w>": 9593,
  "lo</w>": 9594,
  "chamber</w>": 9595,
  "tery</w>": 9596,
  "economics</w>": 9597,
  "Max": 9598,
  "claiming</w>": 9599,
  "stances</w>": 9600,
  "deferred</w>": 9601,
  "gging</w>": 9602,
  "Refuge": 9603,
  "elihood</w>": 9604,
  "minimal</w>": 9605,
  "kil": 9606,
  "remov": 9607,
  "Ul": 9608,
  "inmates</w>": 9609,
  "AG</w>": 9610,
  "N.": 9611,
  "t.</w>": 9612,
  "ille</w>": 9613,
  "adjacent</w>": 9614,
  "NH": 9615,
  "wan": 9616,
  "magazine</w>": 9617,
  "cad": 9618,
  "pan</w>": 9619,
  "suit</w>": 9620,
  "ial</w>": 9621,
  "defendant</w>": 9622,
  "2.8</w>": 9623,
  "finite</w>": 9624,
  "dol": 9625,
  "switch</w>": 9626,
  "Pre</w>": 9627,
  "divorce</w>": 9628,
  "insp": 9629,
  "mann</w>": 9630,
  "ticket</w>": 9631,
  "Town</w>": 9632,
  "prefer</w>": 9633,
  "endorsement</w>": 9634,
  "temperatures</w>": 9635,
  "venture</w>": 9636,
  "eh</w>": 9637,
  "acknowledges</w>": 9638,
  "density</w>": 9639,
  "promised</w>": 9640,
  "advis": 9641,
  "custom</w>": 9642,
  "Very</w>": 9643,
  "empty</w>": 9644,
  "instruc": 9645,
  "tag": 9646,
  "Gibraltar</w>": 9647,
  "sue</w>": 9648,
  "yesterday</w>": 9649,
  "aled</w>": 9650,
  "catch</w>": 9651,
  "©</w>": 9652,
  "skill</w>": 9653,
  "Dam": 9654,
  "diamonds</w>": 9655,
  "tended</w>": 9656,
  "lease</w>": 9657,
  "ety</w>": 9658,
  "uel</w>": 9659,
  "Den": 9660,
  "bars</w>": 9661,
  "Maria</w>": 9662,
  "blank</w>": 9663,
  "MC</w>": 9664,
  "sake</w>": 9665,
  "ennium</w>": 9666,
  "demonstrates</w>": 9667,
  "shor": 9668,
  "hazard</w>": 9669,
  "0.7</w>": 9670,
  "moder": 9671,
  "deputies</w>": 9672,
  "miles</w>": 9673,
  "cup": 9674,
  "cement</w>": 9675,
  "Tam": 9676,
  "sexually</w>": 9677,
  "artistic</w>": 9678,
  "acks</w>": 9679,
  "absor": 9680,
  "anges</w>": 9681,
  "dressing</w>": 9682,
  "tragic</w>": 9683,
  "acle</w>": 9684,
  "declining</w>": 9685,
  "fleet</w>": 9686,
  "broadcasting</w>": 9687,
  "brothers</w>": 9688,
  "Armen": 9689,
  "stores</w>": 9690,
  "consecutive</w>": 9691,
  "Chall": 9692,
  "overseas</w>": 9693,
  "ologists</w>": 9694,
  "revolutionary</w>": 9695,
  "nuts</w>": 9696,
  "silver</w>": 9697,
  "lest</w>": 9698,
  "ho</w>": 9699,
  "Living</w>": 9700,
  "rai": 9701,
  "phot": 9702,
  "king": 9703,
  "petrol</w>": 9704,
  "na": 9705,
  "ith</w>": 9706,
  "CH</w>": 9707,
  "Fer": 9708,
  "surgery</w>": 9709,
  "renov": 9710,
  "Guard</w>": 9711,
  "civic</w>": 9712,
  "vendors</w>": 9713,
  "luxury</w>": 9714,
  "ulty</w>": 9715,
  "technique</w>": 9716,
  "organised</w>": 9717,
  "alid</w>": 9718,
  "Cam": 9719,
  "grades</w>": 9720,
  "fastest</w>": 9721,
  "ú": 9722,
  "opt</w>": 9723,
  "pand": 9724,
  "persi": 9725,
  "Joseph</w>": 9726,
  "baby</w>": 9727,
  "marriages</w>": 9728,
  "Apart</w>": 9729,
  "saun": 9730,
  "reputation</w>": 9731,
  "ew": 9732,
  "Mov": 9733,
  "thoroughly</w>": 9734,
  "inheritance</w>": 9735,
  "producer</w>": 9736,
  "Warsaw</w>": 9737,
  "breaches</w>": 9738,
  "bin</w>": 9739,
  "spot</w>": 9740,
  "sourcing</w>": 9741,
  "celebration</w>": 9742,
  "characters</w>": 9743,
  "divide</w>": 9744,
  "experiencing</w>": 9745,
  "gor</w>": 9746,
  "happens</w>": 9747,
  "priori": 9748,
  "GM": 9749,
  "prisoner</w>": 9750,
  "stre": 9751,
  "Which</w>": 9752,
  "acles</w>": 9753,
  "dar": 9754,
  "Americas</w>": 9755,
  "Sey": 9756,
  "arch": 9757,
  "achment</w>": 9758,
  "arly</w>": 9759,
  "Thirty</w>": 9760,
  "tes</w>": 9761,
  "Bul": 9762,
  "infections</w>": 9763,
  "accompanying</w>": 9764,
  "oth</w>": 9765,
[...]
