{
  ",</w>": 4,
  ".</w>": 5,
  "и</w>": 6,
  "в</w>": 7,
  "на</w>": 8,
  ")</w>": 9,
  ":</w>": 10,
  "по</w>": 11,
  "с</w>": 12,
  "/</w>": 13,
  "@-@</w>": 14,
  "(</w>": 15,
  "&quot;</w>": 16,
  "для</w>": 17,
  "что</w>": 18,
  "о</w>": 19,
  "не</w>": 20,
  "к</w>": 21,
  "В</w>": 22,
  "года</w>": 23,
  ";</w>": 24,
  "-</w>": 25,
  "или</w>": 26,
  "а</w>": 27,
  "также</w>": 28,
  "от</w>": 29,
  "за</w>": 30,
  "из</w>": 31,
  "*</w>": 32,
  "как</w>": 33,
  "1</w>": 34,
  "Наций</w>": 35,
  "Объединенных</w>": 36,
  "Организации</w>": 37,
  "&gt;</w>": 38,
  "том</w>": 39,
  "их</w>": 40,
  "&lt;</w>": 41,
  "2</w>": 42,
  "его</w>": 43,
  "которые</w>": 44,
  "не": 45,
  "3</w>": 46,
  "чтобы</w>": 47,
  "области</w>": 48,
  "того</w>": 49,
  "10</w>": 50,
  "ные</w>": 51,
  "ных</w>": 52,
  "при</w>": 53,
  "4</w>": 54,
  "развития</w>": 55,
  "человека</w>": 56,
  "то</w>": 57,
  "будет</w>": 58,
  "ной</w>": 59,
  "до</w>": 60,
  "но</w>": 61,
  "более</w>": 62,
  "5</w>": 63,
  "я</w>": 64,
  "году</w>": 65,
  "ного</w>": 66,
  "отношении</w>": 67,
  "этой</w>": 68,
  "связи</w>": 69,
  "ным</w>": 70,
  "#</w>": 71,
  "деятельности</w>": 72,
  "вопросам</w>": 73,
  "это</w>": 74,
  "ее</w>": 75,
  "12</w>": 76,
  "бы</w>": 77,
  "прав</w>": 78,
  "все</w>": 79,
  "всех</w>": 80,
  "является</w>": 81,
  "6</w>": 82,
  "было</w>": 83,
  "00</w>": 84,
  "во</w>": 85,
  "соответствии</w>": 86,
  "ли</w>": 87,
  "были</w>": 88,
  "об</w>": 89,
  "н</w>": 90,
  "11</w>": 91,
  "женщин</w>": 92,
  "время</w>": 93,
  "7</w>": 94,
  "между</w>": 95,
  "ный</w>": 96,
  "ное</w>": 97,
  "может</w>": 98,
  "рамках</w>": 99,
  "?</w>": 100,
  "15</w>": 101,
  "a</w>": 102,
  "быть</w>": 103,
  "тем</w>": 104,
  "т</w>": 105,
  "ными</w>": 106,
  "стран</w>": 107,
  "со</w>": 108,
  "мы</w>": 109,
  "8</w>": 110,
  "2": 111,
  "он</w>": 112,
  "у": 113,
  "целях</w>": 114,
  "9</w>": 115,
  "резолюции</w>": 116,
  "работы</w>": 117,
  "этого</w>": 118,
  "у</w>": 119,
  "Комитет</w>": 120,
  "A</w>": 121,
  "ном</w>": 122,
  "сессии</w>": 123,
  "20</w>": 124,
  "С": 125,
  "был</w>": 126,
  "14</w>": 127,
  "США</w>": 128,
  "3": 129,
  "системы</w>": 130,
  "они</w>": 131,
  "ная</w>": 132,
  "та</w>": 133,
  "других</w>": 134,
  "за": 135,
  "включая</w>": 136,
  "13</w>": 137,
  "&#93;</w>": 138,
  "безопасности</w>": 139,
  "С</w>": 140,
  "16</w>": 141,
  "м</w>": 142,
  "30</w>": 143,
  "А": 144,
  ".": 145,
  "У": 146,
  "права</w>": 147,
  "государств</w>": 148,
  "на": 149,
  "же</w>": 150,
  "ную</w>": 151,
  "обеспечения</w>": 152,
  "18</w>": 153,
  "помощи</w>": 154,
  "который</w>": 155,
  "должны</w>": 156,
  "Совета</w>": 157,
  "этом</w>": 158,
  "О": 159,
  "ты</w>": 160,
  "могут</w>": 161,
  "по": 162,
  "ла</w>": 163,
  "+</w>": 164,
  "информации</w>": 165,
  "&#91;</w>": 166,
  "этих</w>": 167,
  "дня</w>": 168,
  "е</w>": 169,
  "17</w>": 170,
  "те</w>": 171,
  "страны</w>": 172,
  "г</w>": 173,
  "государства</w>": 174,
  "25</w>": 175,
  "На</w>": 176,
  "которых</w>": 177,
  "меры</w>": 178,
  "период</w>": 179,
  "4": 180,
  "ному</w>": 181,
  "b</w>": 182,
  "качестве</w>": 183,
  "S": 184,
  "22</w>": 185,
  "Конвенции</w>": 186,
  "19</w>": 187,
  "21</w>": 188,
  "частности</w>": 189,
  "долл</w>": 190,
  "ка</w>": 191,
  "осуществления</w>": 192,
  "Генеральной</w>": 193,
  "л</w>": 194,
  "2009</w>": 195,
  "образом</w>": 196,
  "после</w>": 197,
  "год</w>": 198,
  "основе</w>": 199,
  "мира</w>": 200,
  "будут</w>": 201,
  "только</w>": 202,
  "%</w>": 203,
  "если</w>": 204,
  "лиц</w>": 205,
  "Генерального</w>": 206,
  "программы</w>": 207,
  "ть</w>": 208,
  "5": 209,
  "под</w>": 210,
  "так</w>": 211,
  "23</w>": 212,
  "секретаря</w>": 213,
  "до": 214,
  "P": 215,
  "детей</w>": 216,
  "своей</w>": 217,
  "следует</w>": 218,
  "И": 219,
  "2008</w>": 220,
  "И</w>": 221,
  "уровне</w>": 222,
  "средств</w>": 223,
  "ходе</w>": 224,
  "при": 225,
  "2010</w>": 226,
  "9": 227,
  "ться</w>": 228,
  "была</w>": 229,
  "ской</w>": 230,
  "вы": 231,
  "которая</w>": 232,
  "данных</w>": 233,
  "--</w>": 234,
  "В": 235,
  "C</w>": 236,
  "ло</w>": 237,
  "6": 238,
  "про": 239,
  "когда</w>": 240,
  "ли": 241,
  "мер</w>": 242,
  "группы</w>": 243,
  "действий</w>": 244,
  "24</w>": 245,
  "доклад</w>": 246,
  "со": 247,
  "решения</w>": 248,
  "организации</w>": 249,
  "http</w>": 250,
  "C": 251,
  "=</w>": 252,
  "с": 253,
  "лет</w>": 254,
  "T": 255,
  "2011</w>": 256,
  "7": 257,
  "ресурсов</w>": 258,
  "пере": 259,
  "on</w>": 260,
  "можно</w>": 261,
  "случае</w>": 262,
  "таких</w>": 263,
  "2012</w>": 264,
  "членов</w>": 265,
  "П": 266,
  "Кроме</w>": 267,
  "is</w>": 268,
  "числе</w>": 269,
  "ются</w>": 270,
  "ки</w>": 271,
  "а": 272,
  "да</w>": 273,
  "ского</w>": 274,
  "ны</w>": 275,
  "2006</w>": 276,
  "2007</w>": 277,
  "ти": 278,
  "Д": 279,
  "под": 280,
  "вы</w>": 281,
  "ка": 282,
  "ности</w>": 283,
  "26</w>": 284,
  "сотрудничества</w>": 285,
  "31</w>": 286,
  "либо</w>": 287,
  "д</w>": 288,
  "статьи</w>": 289,
  "о": 290,
  "2016</w>": 291,
  "своих</w>": 292,
  "Безопасности</w>": 293,
  "международного</w>": 294,
  "р</w>": 295,
  "27</w>": 296,
  "2005</w>": 297,
  "правам</w>": 298,
  "пункт</w>": 299,
  "она</w>": 300,
  "28</w>": 301,
  "К": 302,
  "внимание</w>": 303,
  "ва": 304,
  "стороны</w>": 305,
  "ю</w>": 306,
  "еще</w>": 307,
  "целью</w>": 308,
  "Республики</w>": 309,
  "населения</w>": 310,
  "декабря</w>": 311,
  "D": 312,
  "ющих</w>": 313,
  "положения</w>": 314,
  "вать</w>": 315,
  "но": 316,
  "в": 317,
  "управления</w>": 318,
  "Комитета</w>": 319,
  "Ассамблеи</w>": 320,
  "Т": 321,
  "2013</w>": 322,
  "m": 323,
  "та": 324,
  "от": 325,
  "М": 326,
  "ется</w>": 327,
  "свои</w>": 328,
  "8": 329,
  "информацию</w>": 330,
  "Г</w>": 331,
  "против</w>": 332,
  "E": 333,
  "им</w>": 334,
  "01</w>": 335,
  "усилия</w>": 336,
  "19": 337,
  "Я</w>": 338,
  "M": 339,
  "Мы</w>": 340,
  "ни</w>": 341,
  "...</w>": 342,
  "них</w>": 343,
  "политики</w>": 344,
  "программ</w>": 345,
  "без</w>": 346,
  "защиты</w>": 347,
  "d": 348,
  "ма": 349,
  "А</w>": 350,
  "ри": 351,
  "ем</w>": 352,
  "Это</w>": 353,
  "Э": 354,
  "странах</w>": 355,
  "29</w>": 356,
  "являются</w>": 357,
  "международных</w>": 358,
  "ко": 359,
  "ди": 360,
  "эти</w>": 361,
  "Комиссии</w>": 362,
  "чем</w>": 363,
  "свою</w>": 364,
  "p": 365,
  "50</w>": 366,
  "необходимо</w>": 367,
  "По</w>": 368,
  "и": 369,
  "Г": 370,
  "c": 371,
  "A": 372,
  "которой</w>": 373,
  "ность</w>": 374,
  "04</w>": 375,
  "ских</w>": 376,
  "ция</w>": 377,
  "Он</w>": 378,
  "AM</w>": 379,
  "лись</w>": 380,
  "_</w>": 381,
  "Р": 382,
  "обеспечить</w>": 383,
  "!</w>": 384,
  "т": 385,
  "учетом</w>": 386,
  "повестки</w>": 387,
  "ро": 388,
  "решение</w>": 389,
  "проведения</w>": 390,
  "02</w>": 391,
  "соответствующих</w>": 392,
  "ре": 393,
  "уже</w>": 394,
  "B": 395,
  "течение</w>": 396,
  "другие</w>": 397,
  "H": 398,
  "05</w>": 399,
  "i</w>": 400,
  "ет</w>": 401,
  "06</w>": 402,
  "ские</w>": 403,
  "b": 404,
  "ра</w>": 405,
  "организаций</w>": 406,
  "вопрос</w>": 407,
  "ке</w>": 408,
  "ции</w>": 409,
  "Б": 410,
  "№</w>": 411,
  "вопросу</w>": 412,
  "03</w>": 413,
  "вопросы</w>": 414,
  "s": 415,
  "право</w>": 416,
  "органов</w>": 417,
  "этот</w>": 418,
  "ский</w>": 419,
  "раз": 420,
  "особенно</w>": 421,
  "2004</w>": 422,
  "0": 423,
  "Телефон</w>": 424,
  "Совет</w>": 425,
  "ра": 426,
  "проекта</w>": 427,
  "использования</w>": 428,
  "ру": 429,
  "f": 430,
  "к": 431,
  "G": 432,
  "S</w>": 433,
  "PM</w>": 434,
  "К</w>": 435,
  "участие</w>": 436,
  "ту</w>": 437,
  "тов</w>": 438,
  "Е": 439,
  "По": 440,
  "вания</w>": 441,
  "я": 442,
  "d</w>": 443,
  "L": 444,
  "работе</w>": 445,
  "поддержки</w>": 446,
  "Для</w>": 447,
  "ле": 448,
  "i": 449,
  "целей</w>": 450,
  "ни": 451,
  "которое</w>": 452,
  "де": 453,
  "результате</w>": 454,
  "Если</w>": 455,
  "м": 456,
  "то": 457,
  "сотрудников</w>": 458,
  "40</w>": 459,
  "The</w>": 460,
  "деятельность</w>": 461,
  "ма</w>": 462,
  "возможность</w>": 463,
  "07</w>": 464,
  "те": 465,
  "E</w>": 466,
  "c</w>": 467,
  "национальных</w>": 468,
  "июня</w>": 469,
  "комитета</w>": 470,
  "ющие</w>": 471,
  "группа</w>": 472,
  "г": 473,
  "имеет</w>": 474,
  "ская</w>": 475,
  "k": 476,
  "тех</w>": 477,
  "08</w>": 478,
  "образования</w>": 479,
  "ми": 480,
  "ют</w>": 481,
  "09</w>": 482,
  "ООН</w>": 483,
  "2014</w>": 484,
  "подготовки</w>": 485,
  "Н": 486,
  "услуг</w>": 487,
  "всего</w>": 488,
  "мая</w>": 489,
  "I</w>": 490,
  "R": 491,
  "поддержку</w>": 492,
  "й</w>": 493,
  "ния</w>": 494,
  "ку</w>": 495,
  "вопросов</w>": 496,
  "помощь</w>": 497,
  "2000</w>": 498,
  "развитию</w>": 499,
  "000</w>": 500,
  "проект</w>": 501,
  "настоящее</w>": 502,
  "e</w>": 503,
  "возможности</w>": 504,
  "уровня</w>": 505,
  "a": 506,
  "цией</w>": 507,
  "принять</w>": 508,
  "поскольку</w>": 509,
  "2003</w>": 510,
  "правительства</w>": 511,
  "g": 512,
  "д": 513,
  "через</w>": 514,
  "говорит</w>": 515,
  "1": 516,
  "доклада</w>": 517,
  "потенциала</w>": 518,
  "касается</w>": 519,
  "емые</w>": 520,
  "различных</w>": 521,
  "жизни</w>": 522,
  "значение</w>": 523,
  "t": 524,
  "ние</w>": 525,
  "e": 526,
  "роль</w>": 527,
  "средства</w>": 528,
  "ней</w>": 529,
  "новых</w>": 530,
  "проблемы</w>": 531,
  "l": 532,
  "ей</w>": 533,
  "пункте</w>": 534,
  "лось</w>": 535,
  "оружия</w>": 536,
  "годы</w>": 537,
  "2015</w>": 538,
  "расходов</w>": 539,
  "да": 540,
  "рования</w>": 541,
  "должен</w>": 542,
  "оценки</w>": 543,
  "На": 544,
  "ба": 545,
  "где</w>": 546,
  "июля</w>": 547,
  "там</w>": 548,
  "F": 549,
  "решений</w>": 550,
  "вых</w>": 551,
  "х</w>": 552,
  "2002</w>": 553,
  "работу</w>": 554,
  "путем</w>": 555,
  "тами</w>": 556,
  "должна</w>": 557,
  "вая</w>": 558,
  "принятия</w>": 559,
  "0</w>": 560,
  "ском</w>": 561,
  "чных</w>": 562,
  "За": 563,
  "процесса</w>": 564,
  "ровать</w>": 565,
  "па": 566,
  "Как</w>": 567,
  "тных</w>": 568,
  "этим</w>": 569,
  "вание</w>": 570,
  "той</w>": 571,
  "торговли</w>": 572,
  "борьбе</w>": 573,
  "всем</w>": 574,
  "y": 575,
  "емых</w>": 576,
  "территории</w>": 577,
  "2001</w>": 578,
  "такие</w>": 579,
  "комитет</w>": 580,
  "связанных</w>": 581,
  "O": 582,
  "мо": 583,
  "дискриминации</w>": 584,
  "Конференции</w>": 585,
  "&apos;</w>": 586,
  "18": 587,
  "докладе</w>": 588,
  "s</w>": 589,
  "применения</w>": 590,
  "него</w>": 591,
  "n": 592,
  "например</w>": 593,
  "правительство</w>": 594,
  "во": 595,
  "относительно</w>": 596,
  "Ф": 597,
  "дел</w>": 598,
  "де</w>": 599,
  "Ка": 600,
  "н": 601,
  "ноября</w>": 602,
  "октября</w>": 603,
  "пункта</w>": 604,
  "основных</w>": 605,
  "Однако</w>": 606,
  "случаях</w>": 607,
  "ми</w>": 608,
  "З": 609,
  "среди</w>": 610,
  "собой</w>": 611,
  "й": 612,
  "Л": 613,
  "О</w>": 614,
  "ским</w>": 615,
  "см.</w>": 616,
  "са</w>": 617,
  "I": 618,
  "10": 619,
  "цию</w>": 620,
  "Не": 621,
  "ч.</w>": 622,
  "проектов</w>": 623,
  "мере</w>": 624,
  "35</w>": 625,
  "сентября</w>": 626,
  "Председателя</w>": 627,
  "содержа": 628,
  "льных</w>": 629,
  "лы</w>": 630,
  "W": 631,
  "развитие</w>": 632,
  "времени</w>": 633,
  "рекомендации</w>": 634,
  "проблем</w>": 635,
  "об": 636,
  "ш": 637,
  "млн.</w>": 638,
  "создания</w>": 639,
  "1998</w>": 640,
  "ле</w>": 641,
  "части</w>": 642,
  "должно</w>": 643,
  "тах</w>": 644,
  "людей</w>": 645,
  "своем</w>": 646,
  "ку": 647,
  "Ма": 648,
  "себя</w>": 649,
  "тные</w>": 650,
  "ви": 651,
  "49</w>": 652,
  "ве": 653,
  "II</w>": 654,
  "действия</w>": 655,
  "экспертов</w>": 656,
  "1999</w>": 657,
  "другими</w>": 658,
  "б": 659,
  "May</w>": 660,
  "33</w>": 661,
  "32</w>": 662,
  "ла": 663,
  "над</w>": 664,
  "r": 665,
  "вновь</w>": 666,
  "окружающей</w>": 667,
  "ло": 668,
  "данные</w>": 669,
  "ваться</w>": 670,
  "ями</w>": 671,
  "1.": 672,
  "48</w>": 673,
  "процентов</w>": 674,
  "2.": 675,
  "лишь</w>": 676,
  "согласно</w>": 677,
  "учреждений</w>": 678,
  "необходимость</w>": 679,
  "o</w>": 680,
  "1995</w>": 681,
  "га": 682,
  "V": 683,
  "деле</w>": 684,
  "марта</w>": 685,
  "пре": 686,
  "51</w>": 687,
  "л": 688,
  "менее</w>": 689,
  "цели</w>": 690,
  "призывает</w>": 691,
  "°</w>": 692,
  "общества</w>": 693,
  "развивающихся</w>": 694,
  "45</w>": 695,
  "которого</w>": 696,
  "14": 697,
  "контроля</w>": 698,
  "котором</w>": 699,
  "достижения</w>": 700,
  "вые</w>": 701,
  "кой</w>": 702,
  "h": 703,
  "Х": 704,
  "международной</w>": 705,
  "20": 706,
  "содействия</w>": 707,
  "групп</w>": 708,
  "заседании</w>": 709,
  "один</w>": 710,
  "персонала</w>": 711,
  "льной</w>": 712,
  "насилия</w>": 713,
  "ение</w>": 714,
  "ль</w>": 715,
  "вается</w>": 716,
  "рассмотрения</w>": 717,
  "N": 718,
  "16": 719,
  "осуществлению</w>": 720,
  "34</w>": 721,
  "ль": 722,
  "ческой</w>": 723,
  "си": 724,
  "лась</w>": 725,
  "−</w>": 726,
  "Posted</w>": 727,
  "1997</w>": 728,
  "осуществление</w>": 729,
  "нее</w>": 730,
  "льные</w>": 731,
  "1994</w>": 732,
  "ча": 733,
  "человек</w>": 734,
  "обеспечению</w>": 735,
  "36</w>": 736,
  "имеют</w>": 737,
  "чного</w>": 738,
  "представить</w>": 739,
  "двух</w>": 740,
  "Комиссия</w>": 741,
  "участников</w>": 742,
  "льного</w>": 743,
  "М</w>": 744,
  "Ассамблея</w>": 745,
  "17": 746,
  "Со": 747,
  "ностью</w>": 748,
  "Вы</w>": 749,
  "ры</w>": 750,
  "t</w>": 751,
  "р": 752,
  "55</w>": 753,
  "января</w>": 754,
  "37</w>": 755,
  "Р</w>": 756,
  "52</w>": 757,
  "числа</w>": 758,
  "силу</w>": 759,
  "се": 760,
  "годов</w>": 761,
  "Председатель</w>": 762,
  "е": 763,
  "При": 764,
  "er": 765,
  "Что</w>": 766,
  "1996</w>": 767,
  "60</w>": 768,
  "вого</w>": 769,
  "своего</w>": 770,
  "изменения</w>": 771,
  "ческих</w>": 772,
  "га</w>": 773,
  "из": 774,
  "апреля</w>": 775,
  "счет</w>": 776,
  "Д</w>": 777,
  "мероприятий</w>": 778,
  "государство</w>": 779,
  "общего</w>": 780,
  "осуществлении</w>": 781,
  "ре</w>": 782,
  "www.": 783,
  "стране</w>": 784,
  "одной</w>": 785,
  "58</w>": 786,
  "взаимо": 787,
  "члены</w>": 788,
  "лся</w>": 789,
  "участия</w>": 790,
  "v": 791,
  "два</w>": 792,
  "скими</w>": 793,
  "38</w>": 794,
  "реализации</w>": 795,
  "K": 796,
  "чной</w>": 797,
  "the</w>": 798,
  "статье</w>": 799,
  "возможностей</w>": 800,
  "ряд</w>": 801,
  "положений</w>": 802,
  "15": 803,
  "жа</w>": 804,
  "м.</w>": 805,
  "Пункт</w>": 806,
  "число</w>": 807,
  "53</w>": 808,
  "39</w>": 809,
  "го": 810,
  "3.": 811,
  "тельных</w>": 812,
  "44</w>": 813,
  "необходимости</w>": 814,
  "Ко": 815,
  "производства</w>": 816,
  "условиях</w>": 817,
  "57</w>": 818,
  "среды</w>": 819,
  "u": 820,
  "ства</w>": 821,
  "информация</w>": 822,
  "вой</w>": 823,
  "выше</w>": 824,
  "бо": 825,
  "процедуры</w>": 826,
  "выполнения</w>": 827,
  "операций</w>": 828,
  "ющим</w>": 829,
  "разработки</w>": 830,
  "са": 831,
  "лица</w>": 832,
  "отмечает</w>": 833,
  "ы</w>": 834,
  "ко</w>": 835,
  "Reply</w>": 836,
  "больше</w>": 837,
  "41</w>": 838,
  "воз": 839,
  "59</w>": 840,
  "ению</w>": 841,
  "э": 842,
  "координации</w>": 843,
  "зи": 844,
  "Республика</w>": 845,
  "обеспечение</w>": 846,
  "представителей</w>": 847,
  "47</w>": 848,
  "time</w>": 849,
  "су": 850,
  "ar": 851,
  "нам</w>": 852,
  "54</w>": 853,
  "доступа</w>": 854,
  "ё": 855,
  "соответствующие</w>": 856,
  "народов</w>": 857,
  "42</w>": 858,
  "лов</w>": 859,
  "финансирования</w>": 860,
  "странам</w>": 861,
  "общей</w>": 862,
  "категории</w>": 863,
  "L.": 864,
  "now</w>": 865,
  "56</w>": 866,
  "эффективности</w>": 867,
  "оказания</w>": 868,
  "m</w>": 869,
  "контексте</w>": 870,
  "процесс</w>": 871,
  "46</w>": 872,
  "условий</w>": 873,
  "государствами</w>": 874,
  "тельные</w>": 875,
  "нии</w>": 876,
  "ды</w>": 877,
  "пред": 878,
  "некоторых</w>": 879,
  "ему</w>": 880,
  "перед</w>": 881,
  "сфере</w>": 882,
  "вает</w>": 883,
  "чи": 884,
  "региональных</w>": 885,
  "al": 886,
  "жи": 887,
  "есть</w>": 888,
  "Т</w>": 889,
  "вление</w>": 890,
  "конференции</w>": 891,
  "43</w>": 892,
  "ме": 893,
  "ки": 894,
  "ров</w>": 895,
  "4.": 896,
  "Про": 897,
  "однако</w>": 898,
  "w": 899,
  "100</w>": 900,
  "en": 901,
  "систем</w>": 902,
  "ду": 903,
  "ющего</w>": 904,
  "При</w>": 905,
  "стратегии</w>": 906,
  "такой</w>": 907,
  "льный</w>": 908,
  "би": 909,
  "потребностей</w>": 910,
  "щие</w>": 911,
  "ин": 912,
  "интересах</w>": 913,
  "касающихся</w>": 914,
  "борьбы</w>": 915,
  "ж": 916,
  "13": 917,
  "власти</w>": 918,
  "тельного</w>": 919,
  "Ва": 920,
  "ваются</w>": 921,
  "организациями</w>": 922,
  "ющей</w>": 923,
  "es</w>": 924,
  "ющими</w>": 925,
  "п": 926,
  "укрепления</w>": 927,
  "одного</w>": 928,
  "сотрудничество</w>": 929,
  "экономического</w>": 930,
  "место</w>": 931,
  "o": 932,
  "ва</w>": 933,
  "тельной</w>": 934,
  "финансовых</w>": 935,
  "повышения</w>": 936,
  "несколько</w>": 937,
  "Ч": 938,
  "таким</w>": 939,
  "наиболее</w>": 940,
  "It</w>": 941,
  "an": 942,
  "этому</w>": 943,
  "B</w>": 944,
  "рассмотрение</w>": 945,
  "in</w>": 946,
  "ром</w>": 947,
  "рекомендаций</w>": 948,
  "создание</w>": 949,
  "использовать</w>": 950,
  "Группа</w>": 951,
  "ления</w>": 952,
  "нет</w>": 953,
  "помощью</w>": 954,
  "некоторые</w>": 955,
  "продолжать</w>": 956,
  "ях</w>": 957,
  "ста": 958,
  "ша": 959,
  "тной</w>": 960,
  "in": 961,
  "ство</w>": 962,
  "ний</w>": 963,
  "Е</w>": 964,
  "ним</w>": 965,
  "Ц": 966,
  "обязательств</w>": 967,
  "разработке</w>": 968,
  "устойчивого</w>": 969,
  "ними</w>": 970,
  "труда</w>": 971,
  "ением</w>": 972,
  "ту": 973,
  "Организация</w>": 974,
  "правах</w>": 975,
  "положение</w>": 976,
  "Я": 977,
  "currently</w>": 978,
  "Эти</w>": 979,
  "службы</w>": 980,
  "сто": 981,
  "даже</w>": 982,
  "бе": 983,
  "документов</w>": 984,
  "усилий</w>": 985,
  "бюджета</w>": 986,
  "услуги</w>": 987,
  "государствам</w>": 988,
  "ций</w>": 989,
  "свое</w>": 990,
  "го</w>": 991,
  "х": 992,
  "очень</w>": 993,
  "нем</w>": 994,
  "После</w>": 995,
  "защите</w>": 996,
  "февраля</w>": 997,
  "сессия</w>": 998,
  "вопроса</w>": 999,
  "ское</w>": 1000,
  "D</w>": 1001,
  "ческие</w>": 1002,
  "@</w>": 1003,
  "имени</w>": 1004,
  "Америки</w>": 1005,
  "многих</w>": 1006,
  "5.": 1007,
  "следующие</w>": 1008,
  "августа</w>": 1009,
  "процессе</w>": 1010,
  "лом</w>": 1011,
  "нию</w>": 1012,
  "иностранных</w>": 1013,
  "тели</w>": 1014,
  "кто</w>": 1015,
  "новые</w>": 1016,
  "Генеральная</w>": 1017,
  "обслуживания</w>": 1018,
  "1993</w>": 1019,
  "ad": 1020,
  "совещания</w>": 1021,
  "Она</w>": 1022,
  "ционного</w>": 1023,
  "тся</w>": 1024,
  "целом</w>": 1025,
  "три</w>": 1026,
  "жа": 1027,
  "емой</w>": 1028,
  "Группы</w>": 1029,
  "тельный</w>": 1030,
  "тного</w>": 1031,
  "здравоохранения</w>": 1032,
  "ля": 1033,
  "ков</w>": 1034,
  "ф": 1035,
  "доступ</w>": 1036,
  "поддержанию</w>": 1037,
  "заседаний</w>": 1038,
  "беженцев</w>": 1039,
  "размере</w>": 1040,
  "день</w>": 1041,
  "чные</w>": 1042,
  "Под": 1043,
  "сотрудничестве</w>": 1044,
  "ПРООН</w>": 1045,
  "странами</w>": 1046,
  "Международного</w>": 1047,
  "ги": 1048,
  "ении</w>": 1049,
  "ющихся</w>": 1050,
  "z": 1051,
  "СТ": 1052,
  "Они</w>": 1053,
  "регионе</w>": 1054,
  "ками</w>": 1055,
  "ядерного</w>": 1056,
  "политических</w>": 1057,
  "Специальный</w>": 1058,
  "63</w>": 1059,
  "которым</w>": 1060,
  "to</w>": 1061,
  "предложения</w>": 1062,
  "зрения</w>": 1063,
  "членами</w>": 1064,
  "обеспечи": 1065,
  "U": 1066,
  "касающиеся</w>": 1067,
  "проведение</w>": 1068,
  "мире</w>": 1069,
  "делам</w>": 1070,
  "it": 1071,
  "степени</w>": 1072,
  "периода</w>": 1073,
  "Ре": 1074,
  "гражданского</w>": 1075,
  "Ю": 1076,
  "ликвидации</w>": 1077,
  "ление</w>": 1078,
  "система</w>": 1079,
  "национального</w>": 1080,
  "процента</w>": 1081,
  "экономической</w>": 1082,
  "плане</w>": 1083,
  "Га": 1084,
  "пла": 1085,
  "оно</w>": 1086,
  "часть</w>": 1087,
  "местах</w>": 1088,
  "здоровья</w>": 1089,
  "рование</w>": 1090,
  "возможно</w>": 1091,
  "ну</w>": 1092,
  "2017</w>": 1093,
  "ниже</w>": 1094,
  "точки</w>": 1095,
  "ющий</w>": 1096,
  "социальной</w>": 1097,
  "сти": 1098,
  "тель</w>": 1099,
  "ответственности</w>": 1100,
  "свой</w>": 1101,
  "Са": 1102,
  "ст": 1103,
  "рами</w>": 1104,
  "комиссии</w>": 1105,
  "X": 1106,
  "з": 1107,
  "64</w>": 1108,
  "женщины</w>": 1109,
  "му</w>": 1110,
  "рассмотреть</w>": 1111,
  "результатов</w>": 1112,
  "65</w>": 1113,
  "национальной</w>": 1114,
  "документа</w>": 1115,
  "вым</w>": 1116,
  "компании</w>": 1117,
  "рас": 1118,
  "порядке</w>": 1119,
  "Рабочей</w>": 1120,
  "представления</w>": 1121,
  "документ</w>": 1122,
  "61</w>": 1123,
  "мой</w>": 1124,
  "вам</w>": 1125,
  "районах</w>": 1126,
  "коренных</w>": 1127,
  "ческого</w>": 1128,
  "зо": 1129,
  "пи": 1130,
  "хотя</w>": 1131,
  "of</w>": 1132,
  "нение</w>": 1133,
  "использование</w>": 1134,
  "П</w>": 1135,
  "учреждения</w>": 1136,
  "or": 1137,
  "принципов</w>": 1138,
  "обязательства</w>": 1139,
  "ю": 1140,
  "результаты</w>": 1141,
  "6.": 1142,
  "ющая</w>": 1143,
  "областях</w>": 1144,
  "оста": 1145,
  "Ш": 1146,
  "полностью</w>": 1147,
  "кам</w>": 1148,
  "g</w>": 1149,
  "плана</w>": 1150,
  "такого</w>": 1151,
  "er</w>": 1152,
  "Рабочая</w>": 1153,
  "уровнях</w>": 1154,
  "III</w>": 1155,
  "вших</w>": 1156,
  "второй</w>": 1157,
  "посредством</w>": 1158,
  "Все</w>": 1159,
  "связанные</w>": 1160,
  "име": 1161,
  "случаев</w>": 1162,
  "экономических</w>": 1163,
  "тот</w>": 1164,
  "дом</w>": 1165,
  "конвенции</w>": 1166,
  "просит</w>": 1167,
  "бу": 1168,
  "ям</w>": 1169,
  "ти</w>": 1170,
  "участник</w>": 1171,
  ".1</w>": 1172,
  "технологий</w>": 1173,
  "ческим</w>": 1174,
  "получить</w>": 1175,
  "материалов</w>": 1176,
  "скому</w>": 1177,
  "расходы</w>": 1178,
  "телей</w>": 1179,
  "докладов</w>": 1180,
  "государственных</w>": 1181,
  "тому</w>": 1182,
  "лу</w>": 1183,
  "национальном</w>": 1184,
  "ши": 1185,
  "ограни": 1186,
  "y</w>": 1187,
  "ответственность</w>": 1188,
  "настоятельно</w>": 1189,
  "условия</w>": 1190,
  "поводу</w>": 1191,
  "тный</w>": 1192,
  "ха": 1193,
  "полиции</w>": 1194,
  "ими</w>": 1195,
  "ан": 1196,
  "Сторон</w>": 1197,
  "re": 1198,
  "уровень</w>": 1199,
  "циями</w>": 1200,
  "раз</w>": 1201,
  "видов</w>": 1202,
  "поддержке</w>": 1203,
  ".com</w>": 1204,
  "f</w>": 1205,
  "Поэтому</w>": 1206,
  "всей</w>": 1207,
  "28": 1208,
  "ру</w>": 1209,
  "могли</w>": 1210,
  "консульта": 1211,
  "представляет</w>": 1212,
  "вают</w>": 1213,
  "ках</w>": 1214,
  "рекомендует</w>": 1215,
  "иметь</w>": 1216,
  "ме</w>": 1217,
  "Африки</w>": 1218,
  "ционных</w>": 1219,
  "ством</w>": 1220,
  "ч": 1221,
  "скую</w>": 1222,
  "сделать</w>": 1223,
  "осуществля": 1224,
  "Ба": 1225,
  "соглашения</w>": 1226,
  "программа</w>": 1227,
  "сектора</w>": 1228,
  "ющее</w>": 1229,
  "подготовке</w>": 1230,
  "ванию</w>": 1231,
  "P</w>": 1232,
  "62</w>": 1233,
  "конкретных</w>": 1234,
  "Вы": 1235,
  "которую</w>": 1236,
  "ситуации</w>": 1237,
  "am</w>": 1238,
  "st": 1239,
  "социального</w>": 1240,
  "механизмов</w>": 1241,
  "сторон</w>": 1242,
  "г.</w>": 1243,
  "нищеты</w>": 1244,
  "характер</w>": 1245,
  "фак": 1246,
  "ис": 1247,
  "кор": 1248,
  "льное</w>": 1249,
  "сведению</w>": 1250,
  "трех</w>": 1251,
  "силы</w>": 1252,
  "мероприятия</w>": 1253,
  "Программы</w>": 1254,
  "Доклад</w>": 1255,
  "сил</w>": 1256,
  "вании</w>": 1257,
  "ребенка</w>": 1258,
  "должности</w>": 1259,
  "первой</w>": 1260,
  "29": 1261,
  "рованных</w>": 1262,
  "нных</w>": 1263,
  "пе": 1264,
  "щих</w>": 1265,
  "цы</w>": 1266,
  "ресурсы</w>": 1267,
  "ком</w>": 1268,
  "ля</w>": 1269,
  "Хотя</w>": 1270,
  "принял</w>": 1271,
  "нас</w>": 1272,
  "j": 1273,
  "системе</w>": 1274,
  "право": 1275,
  "27": 1276,
  "прежнему</w>": 1277,
  "предоставля": 1278,
  "тельно</w>": 1279,
  "ду</w>": 1280,
  "ционные</w>": 1281,
  "Этот</w>": 1282,
  "приложение</w>": 1283,
  "новой</w>": 1284,
  "Специального</w>": 1285,
  "эту</w>": 1286,
  "одним</w>": 1287,
  "представля": 1288,
  "p</w>": 1289,
  "жения</w>": 1290,
  "провести</w>": 1291,
  "получения</w>": 1292,
  "ца</w>": 1293,
  "ВИЧ</w>": 1294,
  "Л</w>": 1295,
  "циям</w>": 1296,
  "Соединенных</w>": 1297,
  "пу": 1298,
  "Ми": 1299,
  "документе</w>": 1300,
  "качества</w>": 1301,
  "66</w>": 1302,
  "отметил</w>": 1303,
  "считает</w>": 1304,
  "щения</w>": 1305,
  "много</w>": 1306,
  "Ассамблее</w>": 1307,
  "Ра": 1308,
  "фа": 1309,
  "тивных</w>": 1310,
  "консультации</w>": 1311,
  "on": 1312,
  "Эта</w>": 1313,
  "консультаций</w>": 1314,
  "дней</w>": 1315,
  "70</w>": 1316,
  "определения</w>": 1317,
  "тельное</w>": 1318,
  "вали</w>": 1319,
  "Его</w>": 1320,
  "процедур</w>": 1321,
  "at": 1322,
  "ше": 1323,
  "социальных</w>": 1324,
  "рам</w>": 1325,
  "нием</w>": 1326,
  "R</w>": 1327,
  "От": 1328,
  "ЕЭК</w>": 1329,
  "способ": 1330,
  "Во</w>": 1331,
  "правовой</w>": 1332,
  "региона</w>": 1333,
  "принимать</w>": 1334,
  "предусматри": 1335,
  "правил</w>": 1336,
  "делегация</w>": 1337,
  "80</w>": 1338,
  "органы</w>": 1339,
  "суда</w>": 1340,
  "ос": 1341,
  "Декларации</w>": 1342,
  "and</w>": 1343,
  "предложение</w>": 1344,
  "x": 1345,
  "роста</w>": 1346,
  "ци": 1347,
  "призна": 1348,
  "Мо": 1349,
  "Генеральный</w>": 1350,
  "че": 1351,
  "доклады</w>": 1352,
  "нами</w>": 1353,
  "ству</w>": 1354,
  "технической</w>": 1355,
  "климата</w>": 1356,
  "другой</w>": 1357,
  "Се": 1358,
  "имя</w>": 1359,
  "можете</w>": 1360,
  "меж": 1361,
  "содействие</w>": 1362,
  "-": 1363,
  "представители</w>": 1364,
  "соблюдения</w>": 1365,
  "практики</w>": 1366,
  "международным</w>": 1367,
  "сообщества</w>": 1368,
  "обсуждения</w>": 1369,
  "эта</w>": 1370,
  "много": 1371,
  "льным</w>": 1372,
  "правосудия</w>": 1373,
  "Н</w>": 1374,
  "вом</w>": 1375,
  "преступности</w>": 1376,
  "el": 1377,
  "б</w>": 1378,
  "циях</w>": 1379,
  "МООН": 1380,
  "союза</w>": 1381,
  "тая</w>": 1382,
  "Ли": 1383,
  "сме": 1384,
  "последствий</w>": 1385,
  "тельным</w>": 1386,
  "щение</w>": 1387,
  "другим</w>": 1388,
  "пути</w>": 1389,
  "роли</w>": 1390,
  "Международной</w>": 1391,
  "хо": 1392,
  "линии</w>": 1393,
  "ну": 1394,
  "находится</w>": 1395,
  "законодательства</w>": 1396,
  "характера</w>": 1397,
  "секретарь</w>": 1398,
  "Нью</w>": 1399,
  "се</w>": 1400,
  "x</w>": 1401,
  "нового</w>": 1402,
  "расширения</w>": 1403,
  "информацией</w>": 1404,
  "обзора</w>": 1405,
  "организация</w>": 1406,
  "равенства</w>": 1407,
  "67</w>": 1408,
  "переговоров</w>": 1409,
  "виде</w>": 1410,
  "органами</w>": 1411,
  "вклад</w>": 1412,
  "рах</w>": 1413,
  "Азии</w>": 1414,
  "далее</w>": 1415,
  "правительством</w>": 1416,
  "технического</w>": 1417,
  "представителя</w>": 1418,
  "ран": 1419,
  "90</w>": 1420,
  "ческое</w>": 1421,
  "кого</w>": 1422,
  "теля</w>": 1423,
  "стра": 1424,
  "Африке</w>": 1425,
  "должностей</w>": 1426,
  "учета</w>": 1427,
  "нашей</w>": 1428,
  "представитель</w>": 1429,
  "суд</w>": 1430,
  "международном</w>": 1431,
  "объем</w>": 1432,
  "лением</w>": 1433,
  "свободы</w>": 1434,
  "дов</w>": 1435,
  "ь": 1436,
  "срок</w>": 1437,
  "чения</w>": 1438,
  "щий</w>": 1439,
  "полной</w>": 1440,
  "ения</w>": 1441,
  "исследований</w>": 1442,
  "содействовать</w>": 1443,
  "12": 1444,
  "оказывать</w>": 1445,
  "семьи</w>": 1446,
  "именно</w>": 1447,
  "программам</w>": 1448,
  "рабочих</w>": 1449,
  "ционной</w>": 1450,
  "мен": 1451,
  "Но</w>": 1452,
  "цев</w>": 1453,
  "тые</w>": 1454,
  "нача": 1455,
  "основании</w>": 1456,
  "жизнь</w>": 1457,
  "чный</w>": 1458,
  "какой</w>": 1459,
  "ванием</w>": 1460,
  "взносов</w>": 1461,
  "вер": 1462,
  "граждан</w>": 1463,
  "мов</w>": 1464,
  "У</w>": 1465,
  "многие</w>": 1466,
  "предоставления</w>": 1467,
  "k</w>": 1468,
  "Статья</w>": 1469,
  "эффективного</w>": 1470,
  "Па": 1471,
  "разде": 1472,
  "ческий</w>": 1473,
  "тых</w>": 1474,
  "задач</w>": 1475,
  "ак": 1476,
  "предлагает</w>": 1477,
  "ванных</w>": 1478,
  "мужчин</w>": 1479,
  "внимания</w>": 1480,
  "необходимые</w>": 1481,
  "создать</w>": 1482,
  "составляет</w>": 1483,
  "последние</w>": 1484,
  "вое</w>": 1485,
  "кон": 1486,
  "Всемирной</w>": 1487,
  "Управление</w>": 1488,
  "технологии</w>": 1489,
  "последствия</w>": 1490,
  "людьми</w>": 1491,
  "всеобъемлю": 1492,
  "принципы</w>": 1493,
  "функции</w>": 1494,
  "ic": 1495,
  "России</w>": 1496,
  "суб": 1497,
  "вместе</w>": 1498,
  "дать</w>": 1499,
  "&amp;</w>": 1500,
  "данной</w>": 1501,
  "же": 1502,
  "резолюция</w>": 1503,
  "выра": 1504,
  "сообщения</w>": 1505,
  "Миссии</w>": 1506,
  "статья</w>": 1507,
  "объема</w>": 1508,
  "план</w>": 1509,
  "охраны</w>": 1510,
  "нения</w>": 1511,
  "нему</w>": 1512,
  "п</w>": 1513,
  "Штатов</w>": 1514,
  "was</w>": 1515,
  "дам</w>": 1516,
  "чение</w>": 1517,
  "экономики</w>": 1518,
  "общи": 1519,
  "принятие</w>": 1520,
  "положении</w>": 1521,
  "членам</w>": 1522,
  "сом</w>": 1523,
  "представлен": 1524,
  "ря": 1525,
  "содержания</w>": 1526,
  "ств</w>": 1527,
  "отношений</w>": 1528,
  "пунктом</w>": 1529,
  "действие</w>": 1530,
  "мом</w>": 1531,
  "Согласно</w>": 1532,
  "пункту</w>": 1533,
  "ски</w>": 1534,
  "ениях</w>": 1535,
  "am": 1536,
  "Ж": 1537,
  "ch": 1538,
  "обще": 1539,
  "Де": 1540,
  "l</w>": 1541,
  "пункты</w>": 1542,
  "Организацией</w>": 1543,
  "et": 1544,
  "полу": 1545,
  "воды</w>": 1546,
  "систему</w>": 1547,
  "потребности</w>": 1548,
  "закона</w>": 1549,
  "разоружения</w>": 1550,
  "образование</w>": 1551,
  "Республике</w>": 1552,
  "международные</w>": 1553,
  "миссии</w>": 1554,
  "хотел</w>": 1555,
  "каса": 1556,
  "прогресса</w>": 1557,
  "рия</w>": 1558,
  "само": 1559,
  "68</w>": 1560,
  "предлага": 1561,
  "работа</w>": 1562,
  "настоящего</w>": 1563,
  "заявление</w>": 1564,
  "дела</w>": 1565,
  "благодаря</w>": 1566,
  "сами</w>": 1567,
  "данного</w>": 1568,
  "делегации</w>": 1569,
  "сегодня</w>": 1570,
  "ственного</w>": 1571,
  "осуществлять</w>": 1572,
  "оценке</w>": 1573,
  "ениям</w>": 1574,
  "вал</w>": 1575,
  "возра": 1576,
  "местных</w>": 1577,
  "указа": 1578,
  "ЕС</w>": 1579,
  "За</w>": 1580,
  "момент</w>": 1581,
  "пыток</w>": 1582,
  "тивной</w>": 1583,
  "показателей</w>": 1584,
  "принима": 1585,
  "F</w>": 1586,
  "стве</w>": 1587,
  "льная</w>": 1588,
  "тор": 1589,
  "тый</w>": 1590,
  "нов</w>": 1591,
  "принятых</w>": 1592,
  "нные</w>": 1593,
  "ясь</w>": 1594,
  "содержится</w>": 1595,
  "различные</w>": 1596,
  "ственной</w>": 1597,
  "ще": 1598,
  "de</w>": 1599,
  "N</w>": 1600,
  "сокращения</w>": 1601,
  "которыми</w>": 1602,
  "международными</w>": 1603,
  "ь</w>": 1604,
  "тивного</w>": 1605,
  "выражает</w>": 1606,
  "анализа</w>": 1607,
  "уголовного</w>": 1608,
  "Пере": 1609,
  "весьма</w>": 1610,
  "an</w>": 1611,
  "щим</w>": 1612,
  "способствовать</w>": 1613,
  "отде": 1614,
  "энергии</w>": 1615,
  "около</w>": 1616,
  "ги</w>": 1617,
  "1992</w>": 1618,
  "as": 1619,
  "культуры</w>": 1620,
  "программу</w>": 1621,
  "вос": 1622,
  "вод": 1623,
  "РА": 1624,
  "высокого</w>": 1625,
  "гаранти": 1626,
  "управление</w>": 1627,
  "рует</w>": 1628,
  "з</w>": 1629,
  "мнению</w>": 1630,
  "программе</w>": 1631,
  "рассматри": 1632,
  "исследования</w>": 1633,
  "укреплению</w>": 1634,
  "стратеги": 1635,
  "созданию</w>": 1636,
  "ве</w>": 1637,
  "важность</w>": 1638,
  "обзор</w>": 1639,
  "каждого</w>": 1640,
  "подход</w>": 1641,
  "пока</w>": 1642,
  "тным</w>": 1643,
  "состав</w>": 1644,
  "ников</w>": 1645,
  "рованные</w>": 1646,
  "учреждениями</w>": 1647,
  "вала</w>": 1648,
  "69</w>": 1649,
  "75</w>": 1650,
  "СП": 1651,
  "всегда</w>": 1652,
  "обеспечивать</w>": 1653,
  "распространения</w>": 1654,
  "совместно</w>": 1655,
  "Пре": 1656,
  "тысячелетия</w>": 1657,
  "7.": 1658,
  "нарушения</w>": 1659,
  "проведении</w>": 1660,
  "обращения</w>": 1661,
  "зы</w>": 1662,
  "сети</w>": 1663,
  "тивные</w>": 1664,
  "участники</w>": 1665,
  "принимает</w>": 1666,
  "правительств</w>": 1667,
  "политической</w>": 1668,
  "лен": 1669,
  "электро": 1670,
  "гражданских</w>": 1671,
  "телями</w>": 1672,
  "начала</w>": 1673,
  "пятьдесят</w>": 1674,
  "специалистов</w>": 1675,
  "тивный</w>": 1676,
  "Верховного</w>": 1677,
  "важное</w>": 1678,
  "ряда</w>": 1679,
  "ориенти": 1680,
  "заседания</w>": 1681,
  "НА": 1682,
  "ких</w>": 1683,
  "изменений</w>": 1684,
  "предпринима": 1685,
  "ческая</w>": 1686,
  "Европы</w>": 1687,
  "районе</w>": 1688,
  "применение</w>": 1689,
  "форм</w>": 1690,
  "зна": 1691,
  "До": 1692,
  "щего</w>": 1693,
  "отношения</w>": 1694,
  "ed</w>": 1695,
  "источников</w>": 1696,
  "руется</w>": 1697,
  "норм</w>": 1698,
  "вления</w>": 1699,
  "СО": 1700,
  "выбросов</w>": 1701,
  "Европейского</w>": 1702,
  "чены</w>": 1703,
  "h</w>": 1704,
  ".ru</w>": 1705,
  "всеми</w>": 1706,
  "достаточ": 1707,
  "обяза": 1708,
  "количество</w>": 1709,
  "ений</w>": 1710,
  "следующих</w>": 1711,
  "приветствует</w>": 1712,
  "факт</w>": 1713,
  "состава</w>": 1714,
  "решении</w>": 1715,
  "пози": 1716,
  "месяцев</w>": 1717,
  "поэтому</w>": 1718,
  "статьей</w>": 1719,
  "Add.": 1720,
  "подготовку</w>": 1721,
  "Ме": 1722,
  "кий</w>": 1723,
  "чным</w>": 1724,
  "J": 1725,
  "ник</w>": 1726,
  "места</w>": 1727,
  "un": 1728,
  "центр</w>": 1729,
  "национальные</w>": 1730,
  "сравнению</w>": 1731,
  "Пред": 1732,
  "ранее</w>": 1733,
  "гу": 1734,
  "вались</w>": 1735,
  "интеграции</w>": 1736,
  "25": 1737,
  "прежде</w>": 1738,
  "любой</w>": 1739,
  "Мобильный</w>": 1740,
  "ге": 1741,
  "приорите": 1742,
  "ведения</w>": 1743,
  "Ан": 1744,
  "en</w>": 1745,
  "сказал</w>": 1746,
  "not</w>": 1747,
  "n</w>": 1748,
  "позволяет</w>": 1749,
  "вающих</w>": 1750,
  "Су": 1751,
  "ениями</w>": 1752,
  "документы</w>": 1753,
  "инициативы</w>": 1754,
  "фонда</w>": 1755,
  "чению</w>": 1756,
  "региональном</w>": 1757,
  "мость</w>": 1758,
  "емого</w>": 1759,
  "IV</w>": 1760,
  "ченных</w>": 1761,
  "преступления</w>": 1762,
  "Го": 1763,
  "общих</w>": 1764,
  "использованием</w>": 1765,
  "сов</w>": 1766,
  "сам</w>": 1767,
  "международное</w>": 1768,
  "кие</w>": 1769,
  "подхода</w>": 1770,
  "рии</w>": 1771,
  "ня": 1772,
  "специальных</w>": 1773,
  "te": 1774,
  "вас</w>": 1775,
  "соответствующим</w>": 1776,
  "основные</w>": 1777,
  "компетен": 1778,
  "торговле</w>": 1779,
  "проводить</w>": 1780,
  "Бо": 1781,
  "оказанию</w>": 1782,
  "жение</w>": 1783,
  "заклю": 1784,
  "Ха": 1785,
  "стратегий</w>": 1786,
  "емый</w>": 1787,
  "защиту</w>": 1788,
  "цель</w>": 1789,
  "цен": 1790,
  "Вместе</w>": 1791,
  "планирования</w>": 1792,
  "L</w>": 1793,
  "Да": 1794,
  "оборудования</w>": 1795,
  "Было</w>": 1796,
  "выборов</w>": 1797,
  "предусматривает</w>": 1798,
  "конкретные</w>": 1799,
  "тное</w>": 1800,
  "функций</w>": 1801,
  "200</w>": 1802,
  "ЕР": 1803,
  "Закон</w>": 1804,
  "Советом</w>": 1805,
  "Проект</w>": 1806,
  "конфликтов</w>": 1807,
  "es": 1808,
  "ac": 1809,
  "новый</w>": 1810,
  "al</w>": 1811,
  "сси": 1812,
  "ческом</w>": 1813,
  "механизма</w>": 1814,
  "рованы</w>": 1815,
  "социально</w>": 1816,
  "дополнительных</w>": 1817,
  "дополнительные</w>": 1818,
  "НИ": 1819,
  "отметить</w>": 1820,
  "ственным</w>": 1821,
  "анализ</w>": 1822,
  "це": 1823,
  "G</w>": 1824,
  "ваемых</w>": 1825,
  "совещание</w>": 1826,
  "отдельных</w>": 1827,
  "77</w>": 1828,
  "кое</w>": 1829,
  "наи": 1830,
  "мир</w>": 1831,
  "министров</w>": 1832,
  "щей</w>": 1833,
  "финансовой</w>": 1834,
  "прогресс</w>": 1835,
  "стать</w>": 1836,
  "di": 1837,
  "мест</w>": 1838,
  "здесь</w>": 1839,
  "ЕН": 1840,
  "преступлений</w>": 1841,
  "сы</w>": 1842,
  "8.": 1843,
  "КО": 1844,
  "методов</w>": 1845,
  "ен": 1846,
  "приложении</w>": 1847,
  "внутренних</w>": 1848,
  "вшихся</w>": 1849,
  "чего</w>": 1850,
  "улучшения</w>": 1851,
  "оказыва": 1852,
  "опера": 1853,
  "влению</w>": 1854,
  "созда": 1855,
  "пор</w>": 1856,
  "центра": 1857,
  "ственные</w>": 1858,
  "Управления</w>": 1859,
  "ответ</w>": 1860,
  "назна": 1861,
  "докладчик</w>": 1862,
  "Правительство</w>": 1863,
  "1990</w>": 1864,
  "лизации</w>": 1865,
  "обучения</w>": 1866,
  "транспортных</w>": 1867,
  "военных</w>": 1868,
  "секторе</w>": 1869,
  "главным</w>": 1870,
  "Ассамблеей</w>": 1871,
  "правила</w>": 1872,
  "вооруженных</w>": 1873,
  "существует</w>": 1874,
  "ченные</w>": 1875,
  "ционный</w>": 1876,
  "отсутствие</w>": 1877,
  "задачи</w>": 1878,
  "ЮНИСЕФ</w>": 1879,
  "государственного</w>": 1880,
  "несмотря</w>": 1881,
  "пунктов</w>": 1882,
  "народа</w>": 1883,
  "каждой</w>": 1884,
  "состоянию</w>": 1885,
  "pm</w>": 1886,
  "двухгодичный</w>": 1887,
  "00": 1888,
  "Бу": 1889,
  "себе</w>": 1890,
  "доба": 1891,
  "заявления</w>": 1892,
  "затраги": 1893,
  "T</w>": 1894,
  "чет": 1895,
  "практике</w>": 1896,
  "замечания</w>": 1897,
  "TRANS</w>": 1898,
  "тер": 1899,
  "влении</w>": 1900,
  "мерах</w>": 1901,
  "регули": 1902,
  "занятости</w>": 1903,
  "чном</w>": 1904,
  "стандартов</w>": 1905,
  "протокола</w>": 1906,
  "Российской</w>": 1907,
  "гре": 1908,
  "инвестиций</w>": 1909,
  "V</w>": 1910,
  "товаров</w>": 1911,
  "му": 1912,
  "заседание</w>": 1913,
  "рабочей</w>": 1914,
  "сообщество</w>": 1915,
  "финансовые</w>": 1916,
  "города</w>": 1917,
  "все": 1918,
  "ЮНКТАД</w>": 1919,
  "щее</w>": 1920,
  "Федерации</w>": 1921,
  "государственной</w>": 1922,
  "веществ</w>": 1923,
  "охваты": 1924,
  "чная</w>": 1925,
  "заключается</w>": 1926,
  "зависимости</w>": 1927,
  "рав": 1928,
  "Комитетом</w>": 1929,
  "ри</w>": 1930,
  "следующим</w>": 1931,
  "Кон": 1932,
  "самым</w>": 1933,
  "льном</w>": 1934,
  "Об": 1935,
  "ro": 1936,
  "работа": 1937,
  "соглашений</w>": 1938,
  "информационно</w>": 1939,
  "мне</w>": 1940,
  "щими</w>": 1941,
  "Си": 1942,
  "нах</w>": 1943,
  "ственных</w>": 1944,
  "av": 1945,
  "создании</w>": 1946,
  "фи": 1947,
  "1991</w>": 1948,
  "укрепление</w>": 1949,
  "чить</w>": 1950,
  "деятельностью</w>": 1951,
  "применя": 1952,
  "ОР": 1953,
  "le": 1954,
  "требования</w>": 1955,
  "URL</w>": 1956,
  "веб</w>": 1957,
  "бра": 1958,
  "проводи": 1959,
  "сти</w>": 1960,
  "ii</w>": 1961,
  "участника</w>": 1962,
  "ваны</w>": 1963,
  "йте</w>": 1964,
  "учебных</w>": 1965,
  "состоянии</w>": 1966,
  "эксплуатации</w>": 1967,
  "какие</w>": 1968,
  "Таким</w>": 1969,
  "формы</w>": 1970,
  "v</w>": 1971,
  "сло": 1972,
  "норма": 1973,
  "ст</w>": 1974,
  "участнику</w>": 1975,
  "механизмы</w>": 1976,
  "выми</w>": 1977,
  "полного</w>": 1978,
  "соответствующими</w>": 1979,
  "кла": 1980,
  "учиты": 1981,
  "форма": 1982,
  "мых</w>": 1983,
  "передачи</w>": 1984,
  "ri": 1985,
  "im": 1986,
  "технических</w>": 1987,
  "ющиеся</w>": 1988,
  "инфраструктуры</w>": 1989,
  "стали</w>": 1990,
  "ха</w>": 1991,
  "мые</w>": 1992,
  "массовой</w>": 1993,
  "Закона</w>": 1994,
  "контроль</w>": 1995,
  "ете</w>": 1996,
  "ol": 1997,
  "проекты</w>": 1998,
  "предприятий</w>": 1999,
  "чное</w>": 2000,
  "государству</w>": 2001,
  "операции</w>": 2002,
  "Ку": 2003,
  "наших</w>": 2004,
  "руководящих</w>": 2005,
  "приняла</w>": 2006,
  "развитых</w>": 2007,
  "жен": 2008,
  "73</w>": 2009,
  "поддерживает</w>": 2010,
  "500</w>": 2011,
  "вопросах</w>": 2012,
  "обязанности</w>": 2013,
  "ЮН": 2014,
  "тными</w>": 2015,
  "сумму</w>": 2016,
  "утверждения</w>": 2017,
  "повышение</w>": 2018,
  "оказание</w>": 2019,
  "форме</w>": 2020,
  "ска": 2021,
  "необходимых</w>": 2022,
  "одна</w>": 2023,
  "инвалидов</w>": 2024,
  "вый</w>": 2025,
  "рен": 2026,
  "движения</w>": 2027,
  "Те": 2028,
  "представи": 2029,
  "ограничи": 2030,
  "комиссара</w>": 2031,
  "резолюций</w>": 2032,
  "расовой</w>": 2033,
  "состоя": 2034,
  "означает</w>": 2035,
  "совета</w>": 2036,
  "мир": 2037,
  "районов</w>": 2038,
  "Комитету</w>": 2039,
  "зу": 2040,
  "явля": 2041,
  "Ин": 2042,
  "стро": 2043,
  "ческими</w>": 2044,
  "мандата</w>": 2045,
  "отра": 2046,
  "рованного</w>": 2047,
  "приняли</w>": 2048,
  "приложения</w>": 2049,
  "повышению</w>": 2050,
  "представлены</w>": 2051,
  "Та": 2052,
  "состоит</w>": 2053,
  "приняты</w>": 2054,
  "Раз": 2055,
  "конфликта</w>": 2056,
  "совещании</w>": 2057,
  "ждения</w>": 2058,
  "M</w>": 2059,
  "тная</w>": 2060,
  "сторонами</w>": 2061,
  "НПО</w>": 2062,
  "наказания</w>": 2063,
  "телем</w>": 2064,
  "мости</w>": 2065,
  "две</w>": 2066,
  "органа</w>": 2067,
  "систе": 2068,
  "ш</w>": 2069,
  "вопросами</w>": 2070,
  "диалога</w>": 2071,
  "сведения</w>": 2072,
  "государством</w>": 2073,
  "тия</w>": 2074,
  "координа": 2075,
  "Экономи": 2076,
  "разработа": 2077,
  "поощрения</w>": 2078,
  "направленных</w>": 2079,
  "просто</w>": 2080,
  "комплек": 2081,
  "рованной</w>": 2082,
  "ким</w>": 2083,
  "расширение</w>": 2084,
  "войны</w>": 2085,
  "мым</w>": 2086,
  "пло": 2087,
  "Международный</w>": 2088,
  "центра</w>": 2089,
  "молодежи</w>": 2090,
  "ге</w>": 2091,
  "включа": 2092,
  "ена</w>": 2093,
  "Це": 2094,
  "мнение</w>": 2095,
  "требует</w>": 2096,
  "$</w>": 2097,
  "включает</w>": 2098,
  "ж</w>": 2099,
  "секретариат</w>": 2100,
  "включить</w>": 2101,
  "рован</w>": 2102,
  "Ла": 2103,
  "законодательство</w>": 2104,
  "стандар": 2105,
  "обслуживание</w>": 2106,
  "нескольких</w>": 2107,
  "будущем</w>": 2108,
  "три": 2109,
  "обмена</w>": 2110,
  "продукции</w>": 2111,
  "этапе</w>": 2112,
  "резолюцию</w>": 2113,
  "лей</w>": 2114,
  "своим</w>": 2115,
  "Армении</w>": 2116,
  "декларации</w>": 2117,
  "резолюцией</w>": 2118,
  "профессиональной</w>": 2119,
  "сер": 2120,
  "существующих</w>": 2121,
  "Не</w>": 2122,
  "предупреждения</w>": 2123,
  "материалы</w>": 2124,
  "сейчас</w>": 2125,
  "воздействия</w>": 2126,
  "имеющих</w>": 2127,
  "правило</w>": 2128,
  "вайп</w>": 2129,
  "совещаний</w>": 2130,
  "фонд</w>": 2131,
  "работников</w>": 2132,
  "обеспокоенность</w>": 2133,
  "льную</w>": 2134,
  "организо": 2135,
  "Ф</w>": 2136,
  "проекту</w>": 2137,
  "ОД": 2138,
  "порядка</w>": 2139,
  "преступ": 2140,
  "соз": 2141,
  "общин</w>": 2142,
  "км</w>": 2143,
  "ваний</w>": 2144,
  "щению</w>": 2145,
  "Штаты</w>": 2146,
  "назначения</w>": 2147,
  "Й": 2148,
  "опыт</w>": 2149,
  "текст</w>": 2150,
  "внутреннего</w>": 2151,
  "общественности</w>": 2152,
  "международному</w>": 2153,
  "часто</w>": 2154,
  "подроб": 2155,
  "конферен": 2156,
  "попрежнему</w>": 2157,
  "полномочий</w>": 2158,
  "З</w>": 2159,
  "ВО": 2160,
  "откры": 2161,
  "такое</w>": 2162,
  "происхождения</w>": 2163,
  "детьми</w>": 2164,
  "лении</w>": 2165,
  "ющую</w>": 2166,
  "ресурсами</w>": 2167,
  "неправительственных</w>": 2168,
  "вшие</w>": 2169,
  "емым</w>": 2170,
  "структуры</w>": 2171,
  "говорится</w>": 2172,
  "чно</w>": 2173,
  "проведению</w>": 2174,
  "приз": 2175,
  "тельная</w>": 2176,
  "распространение</w>": 2177,
  "гер</w>": 2178,
  "тора</w>": 2179,
  "ба</w>": 2180,
  "рассмотрению</w>": 2181,
  "ники</w>": 2182,
  "направлен": 2183,
  "привет": 2184,
  "направленные</w>": 2185,
  "группой</w>": 2186,
  "Программа</w>": 2187,
  "лу": 2188,
  "влением</w>": 2189,
  "находятся</w>": 2190,
  "группе</w>": 2191,
  "важно</w>": 2192,
  "очередь</w>": 2193,
  "емая</w>": 2194,
  "at</w>": 2195,
  "высшем</w>": 2196,
  "this</w>": 2197,
  "сельских</w>": 2198,
  "непосредственно</w>": 2199,
  "заявил</w>": 2200,
  "положениями</w>": 2201,
  "принятые</w>": 2202,
  "ско": 2203,
  "работать</w>": 2204,
  "ОВ": 2205,
  "объеме</w>": 2206,
  "каждый</w>": 2207,
  "примерно</w>": 2208,
  "требований</w>": 2209,
  "тро": 2210,
  "примени": 2211,
  "лицо</w>": 2212,
  "гуманитарной</w>": 2213,
  "крат": 2214,
  "Ри": 2215,
  "оценку</w>": 2216,
  "выполнять</w>": 2217,
  "пунктах</w>": 2218,
  "закры": 2219,
  "предоставление</w>": 2220,
  "Add.1</w>": 2221,
  "стражей</w>": 2222,
  "представляется</w>": 2223,
  "Договора</w>": 2224,
  "Joined</w>": 2225,
  "ц</w>": 2226,
  "данным</w>": 2227,
  "Ле": 2228,
  "встречи</w>": 2229,
  "теле": 2230,
  "особое</w>": 2231,
  "озабоченность</w>": 2232,
  "30": 2233,
  "делу</w>": 2234,
  "высказа": 2235,
  "любых</w>": 2236,
  "миссий</w>": 2237,
  "сотрудничеству</w>": 2238,
  "Совету</w>": 2239,
  "ших</w>": 2240,
  "Конституции</w>": 2241,
  "производ": 2242,
  "глоба": 2243,
  "хозяйства</w>": 2244,
  "сни": 2245,
  "УВКБ</w>": 2246,
  "il": 2247,
  "СЕ": 2248,
  "Тем</w>": 2249,
  "Казахстан</w>": 2250,
  "ing</w>": 2251,
  "регистрации</w>": 2252,
  "девочек</w>": 2253,
  "участием</w>": 2254,
  "ч</w>": 2255,
  "пять</w>": 2256,
  "масштабов</w>": 2257,
  "судебных</w>": 2258,
  "показатели</w>": 2259,
  "пересмотрен": 2260,
  "надеж": 2261,
  "урегулирования</w>": 2262,
  "отчетности</w>": 2263,
  "тра": 2264,
  "мигрантов</w>": 2265,
  "первого</w>": 2266,
  "почти</w>": 2267,
  "Секретариат</w>": 2268,
  "дах</w>": 2269,
  "многосторон": 2270,
  "сайте</w>": 2271,
  "отметила</w>": 2272,
  "72</w>": 2273,
  "реформы</w>": 2274,
  "рост</w>": 2275,
  "вне": 2276,
  "годах</w>": 2277,
  "is": 2278,
  "догово": 2279,
  "ника</w>": 2280,
  "ждение</w>": 2281,
  "меньшинств</w>": 2282,
  "O</w>": 2283,
  "дами</w>": 2284,
  "достижению</w>": 2285,
  "th": 2286,
  "посе": 2287,
  "уда": 2288,
  "согласован": 2289,
  "ор": 2290,
  "us": 2291,
  "тном</w>": 2292,
  "Фонда</w>": 2293,
  "лицам</w>": 2294,
  "ген": 2295,
  "ке": 2296,
  "обеспечении</w>": 2297,
  "Так</w>": 2298,
  "гендерного</w>": 2299,
  "рода</w>": 2300,
  "лен</w>": 2301,
  "тельном</w>": 2302,
  "увеличение</w>": 2303,
  "тор</w>": 2304,
  "закон": 2305,
  "вало</w>": 2306,
  "прилага": 2307,
  "обра": 2308,
  "ec": 2309,
  "поло": 2310,
  "Соединенные</w>": 2311,
  "получа": 2312,
  "Z": 2313,
  "щую</w>": 2314,
  "письмен": 2315,
  "наименее</w>": 2316,
  "H</w>": 2317,
  "гла": 2318,
  "Конференция</w>": 2319,
  "комиссия</w>": 2320,
  "ur": 2321,
  "сво": 2322,
  "безопасность</w>": 2323,
  "удовлетворением</w>": 2324,
  "Мар": 2325,
  "сро": 2326,
  "Некоторые</w>": 2327,
  "os": 2328,
  "выя": 2329,
  "решению</w>": 2330,
  "основной</w>": 2331,
  "большинство</w>": 2332,
  "третьей</w>": 2333,
  "Конго</w>": 2334,
  "жертв</w>": 2335,
  "семей</w>": 2336,
  "ar</w>": 2337,
  "лению</w>": 2338,
  "предназна": 2339,
  "договора</w>": 2340,
  "разоружению</w>": 2341,
  "предлагается</w>": 2342,
  "среде</w>": 2343,
  "типа</w>": 2344,
  "Секретариата</w>": 2345,
  "вклю": 2346,
  "позволит</w>": 2347,
  "транспорта</w>": 2348,
  "протяжении</w>": 2349,
  "служб</w>": 2350,
  "Государ": 2351,
  "правовых</w>": 2352,
  "данный</w>": 2353,
  "учреждениях</w>": 2354,
  "региональные</w>": 2355,
  "добиться</w>": 2356,
  "затем</w>": 2357,
  "коллек": 2358,
  "должность</w>": 2359,
  "настоящей</w>": 2360,
  "ствам</w>": 2361,
  "соответствующей</w>": 2362,
  "КА": 2363,
  "институциональ": 2364,
  "емое</w>": 2365,
  "тивным</w>": 2366,
  "каких</w>": 2367,
  "справедли": 2368,
  "щая</w>": 2369,
  "промышленности</w>": 2370,
  "противо": 2371,
  "продолжа": 2372,
  "праву</w>": 2373,
  "охва": 2374,
  "ческую</w>": 2375,
  "РЕ": 2376,
  "базы</w>": 2377,
  "требу": 2378,
  "9.": 2379,
  "ПО": 2380,
  "закреп": 2381,
  "исполнение</w>": 2382,
  "тельную</w>": 2383,
  "препят": 2384,
  "дальнейшего</w>": 2385,
  "дело</w>": 2386,
  "конфлик": 2387,
  "четыре</w>": 2388,
  "начале</w>": 2389,
  "рассмотрении</w>": 2390,
  "Му": 2391,
  "ден": 2392,
  "слова</w>": 2393,
  "судов</w>": 2394,
  "Ви": 2395,
  "соответственно</w>": 2396,
  "0,": 2397,
  "пяти</w>": 2398,
  "договоров</w>": 2399,
  "еди": 2400,
  "Несмотря</w>": 2401,
  "Демократической</w>": 2402,
  "авто": 2403,
  "осуществляется</w>": 2404,
  "подчеркивает</w>": 2405,
  "чи</w>": 2406,
  "запре": 2407,
  "специальной</w>": 2408,
  "ПО</w>": 2409,
  "подписа": 2410,
  "исключением</w>": 2411,
  "конце</w>": 2412,
  "стало</w>": 2413,
  "чено</w>": 2414,
  "предложений</w>": 2415,
  "Й</w>": 2416,
  "заключения</w>": 2417,
  "обеспечивает</w>": 2418,
  "ев</w>": 2419,
  "мин</w>": 2420,
  "вов</w>": 2421,
  "су</w>": 2422,
  "страна</w>": 2423,
  "составе</w>": 2424,
  "ECE</w>": 2425,
  "допол": 2426,
  "Украины</w>": 2427,
  "зада": 2428,
  "переда": 2429,
  "нной</w>": 2430,
  "обно": 2431,
  "Глоба": 2432,
  "проблемам</w>": 2433,
  "люди</w>": 2434,
  "зация</w>": 2435,
  "законов</w>": 2436,
  "телю</w>": 2437,
  "it</w>": 2438,
  "обо": 2439,
  "продолжает</w>": 2440,
  "300</w>": 2441,
  "вую</w>": 2442,
  "итогам</w>": 2443,
  "um": 2444,
  "телям</w>": 2445,
  "уни": 2446,
  "идет</w>": 2447,
  "ф</w>": 2448,
  "Ве": 2449,
  "сы": 2450,
  "компаний</w>": 2451,
  "Отде": 2452,
  "нарушений</w>": 2453,
  "политику</w>": 2454,
  "То": 2455,
  "ени": 2456,
  "остается</w>": 2457,
  "Би": 2458,
  "ар": 2459,
  "чен</w>": 2460,
  "вен": 2461,
  "РИ": 2462,
  "показатель</w>": 2463,
  "u</w>": 2464,
  "диа": 2465,
  "культурных</w>": 2466,
  "тельными</w>": 2467,
  "производи": 2468,
  "стабильности</w>": 2469,
  "Следует</w>": 2470,
  "Израиля</w>": 2471,
  "Ки": 2472,
  "de": 2473,
  "имущества</w>": 2474,
  "Стороны</w>": 2475,
  "большей</w>": 2476,
  "71</w>": 2477,
  "рассматривать</w>": 2478,
  "потому</w>": 2479,
  "участниками</w>": 2480,
  "руются</w>": 2481,
  "чена</w>": 2482,
  "оружием</w>": 2483,
  "приня": 2484,
  "никаких</w>": 2485,
  "закон</w>": 2486,
  "ены</w>": 2487,
  "пы": 2488,
  "чер": 2489,
  "жела": 2490,
  "Ы</w>": 2491,
  "которому</w>": 2492,
  "занима": 2493,
  "Меж": 2494,
  "Южной</w>": 2495,
  "универса": 2496,
  "ti": 2497,
  "Экономического</w>": 2498,
  "ствами</w>": 2499,
  "Северной</w>": 2500,
  "вающие</w>": 2501,
  "руководства</w>": 2502,
  "Когда</w>": 2503,
  "щ": 2504,
  "обусло": 2505,
  "министра</w>": 2506,
  "ровал</w>": 2507,
  "информи": 2508,
  "механиз": 2509,
  "собственности</w>": 2510,
  "Х</w>": 2511,
  "вра": 2512,
  "шие</w>": 2513,
  "ющимся</w>": 2514,
  "жных</w>": 2515,
  "расследования</w>": 2516,
  "инициатив</w>": 2517,
  "74</w>": 2518,
  "W</w>": 2519,
  "представлять</w>": 2520,
  "завер": 2521,
  "предоставить</w>": 2522,
  "направлении</w>": 2523,
  "пода": 2524,
  "должностных</w>": 2525,
  "женщинами</w>": 2526,
  "сокращение</w>": 2527,
  "активно</w>": 2528,
  "найти</w>": 2529,
  "гра": 2530,
  "Пакта</w>": 2531,
  "1.</w>": 2532,
  "утвер": 2533,
  "подготовка</w>": 2534,
  "проверки</w>": 2535,
  "шего</w>": 2536,
  "льными</w>": 2537,
  "позволя": 2538,
  "няя</w>": 2539,
  "Центральной</w>": 2540,
  "выполнение</w>": 2541,
  "первый</w>": 2542,
  "85</w>": 2543,
  "судебного</w>": 2544,
  "поддержка</w>": 2545,
  "Windows</w>": 2546,
  "относятся</w>": 2547,
  "мониторинга</w>": 2548,
  "СИ": 2549,
  "тель": 2550,
  "Ду": 2551,
  "ющейся</w>": 2552,
  "Ста": 2553,
  "шта": 2554,
  "ству": 2555,
  "СА": 2556,
  "ОП": 2557,
  "Бе": 2558,
  "устойчивому</w>": 2559,
  "самых</w>": 2560,
  "воздействие</w>": 2561,
  "day</w>": 2562,
  "Департамент</w>": 2563,
  "знаний</w>": 2564,
  "Ти": 2565,
  "защи": 2566,
  "Международная</w>": 2567,
  "восстановления</w>": 2568,
  "мого</w>": 2569,
  ".html</w>": 2570,
  "недавно</w>": 2571,
  "вана</w>": 2572,
  "шестьдесят</w>": 2573,
  "использу": 2574,
  "Женеве</w>": 2575,
  "момента</w>": 2576,
  "имеющихся</w>": 2577,
  "требованиям</w>": 2578,
  "одоб": 2579,
  "месте</w>": 2580,
  "планов</w>": 2581,
  "ман": 2582,
  "организациям</w>": 2583,
  "Консультативный</w>": 2584,
  "группу</w>": 2585,
  "ток</w>": 2586,
  "описа": 2587,
  "меня</w>": 2588,
  "голосования</w>": 2589,
  "статус</w>": 2590,
  "ссылаясь</w>": 2591,
  "Пе": 2592,
  "предо": 2593,
  "одно</w>": 2594,
  "данном</w>": 2595,
  "мм</w>": 2596,
  "част": 2597,
  "ab": 2598,
  "важным</w>": 2599,
  "бе</w>": 2600,
  "секретариата</w>": 2601,
  "кодекса</w>": 2602,
  "бро": 2603,
  "опыта</w>": 2604,
  "общественной</w>": 2605,
  "безопас": 2606,
  "Вам</w>": 2607,
  "льно</w>": 2608,
  "тивное</w>": 2609,
  "бы": 2610,
  "Б</w>": 2611,
  "ющимися</w>": 2612,
  "ap": 2613,
  "организа": 2614,
  "мар": 2615,
  "вести</w>": 2616,
  "Восточной</w>": 2617,
  "95</w>": 2618,
  "тических</w>": 2619,
  "тную</w>": 2620,
  "програм": 2621,
  "Ирака</w>": 2622,
  "работ</w>": 2623,
  "нской</w>": 2624,
  "em": 2625,
  "требуется</w>": 2626,
  "моби": 2627,
  "тен": 2628,
  "наличие</w>": 2629,
  "сдела": 2630,
  "WP.": 2631,
  "Юг</w>": 2632,
  "ent": 2633,
  "предоставлении</w>": 2634,
  "разработать</w>": 2635,
  "предотвращения</w>": 2636,
  "Конвенция</w>": 2637,
  "наблюда": 2638,
  "достижение</w>": 2639,
  "гу</w>": 2640,
  "ТА</w>": 2641,
  "ска</w>": 2642,
  "т.е.</w>": 2643,
  "эффективность</w>": 2644,
  "вля": 2645,
  "миграции</w>": 2646,
  "76</w>": 2647,
  "челове": 2648,
  "роваться</w>": 2649,
  "демокра": 2650,
  "просьбой</w>": 2651,
  "Во": 2652,
  "бедствий</w>": 2653,
  "ью</w>": 2654,
  "зации</w>": 2655,
  "заинтересованных</w>": 2656,
  "центров</w>": 2657,
  "любые</w>": 2658,
  "законом</w>": 2659,
  "сотрудники</w>": 2660,
  "Например</w>": 2661,
  "тек": 2662,
  "96</w>": 2663,
  "ционным</w>": 2664,
  "сбора</w>": 2665,
  "23": 2666,
  "ву": 2667,
  "Администра": 2668,
  "участвовать</w>": 2669,
  "делега": 2670,
  "представлен</w>": 2671,
  "ница</w>": 2672,
  "Европе</w>": 2673,
  "торов</w>": 2674,
  "любого</w>": 2675,
  "базо": 2676,
  "правительству</w>": 2677,
  "возрасте</w>": 2678,
  "хи": 2679,
  "аспекты</w>": 2680,
  "частью</w>": 2681,
  "енные</w>": 2682,
  "благо": 2683,
  "тогда</w>": 2684,
  "ратифици": 2685,
  "МА": 2686,
  "заключение</w>": 2687,
  "Израиль</w>": 2688,
  "гом</w>": 2689,
  "связь</w>": 2690,
  "руют</w>": 2691,
  "логи": 2692,
  "достаточно</w>": 2693,
  "формули": 2694,
  ".0": 2695,
  "Социального</w>": 2696,
  "актов</w>": 2697,
  "шим</w>": 2698,
  "приемле": 2699,
  "четвертой</w>": 2700,
  "политике</w>": 2701,
  "Поскольку</w>": 2702,
  "Все": 2703,
  "орган</w>": 2704,
  "чную</w>": 2705,
  "дети</w>": 2706,
  "поправки</w>": 2707,
  "GR": 2708,
  "партнеров</w>": 2709,
  "регионального</w>": 2710,
  "израиль": 2711,
  "без": 2712,
  "уделя": 2713,
  "постоянно</w>": 2714,
  "языке</w>": 2715,
  "важную</w>": 2716,
  "сть</w>": 2717,
  "водо": 2718,
  "дли": 2719,
  "экспор": 2720,
  "влений</w>": 2721,
  "Департамента</w>": 2722,
  "Ар": 2723,
  "основном</w>": 2724,
  "регулирования</w>": 2725,
  "Сек": 2726,
  "шения</w>": 2727,
  "ЮНЕП</w>": 2728,
  "посред": 2729,
  "развитии</w>": 2730,
  "обязанностей</w>": 2731,
  "интересов</w>": 2732,
  "ван": 2733,
  "подготовлен": 2734,
  "87</w>": 2735,
  "ща": 2736,
  "учеб": 2737,
  "элементов</w>": 2738,
  "дает</w>": 2739,
  "задолженности</w>": 2740,
  "опасности</w>": 2741,
  "ограничения</w>": 2742,
  "шение</w>": 2743,
  "мер": 2744,
  "Региональ": 2745,
  "Програм": 2746,
  "факторов</w>": 2747,
  "определение</w>": 2748,
  "основан": 2749,
  "лицами</w>": 2750,
  "назад</w>": 2751,
  "стал</w>": 2752,
  "определить</w>": 2753,
  "изменить</w>": 2754,
  "99</w>": 2755,
  "проблема</w>": 2756,
  "кри": 2757,
  "виды</w>": 2758,
  "географи": 2759,
  "Бюро</w>": 2760,
  "конститу": 2761,
  "политика</w>": 2762,
  "стов</w>": 2763,
  "тан": 2764,
  "сь</w>": 2765,
  "цами</w>": 2766,
  "представление</w>": 2767,
  "78</w>": 2768,
  "сных</w>": 2769,
  "сроки</w>": 2770,
  "отношение</w>": 2771,
  "дей": 2772,
  "био": 2773,
  "двадцать</w>": 2774,
  "терроризма</w>": 2775,
  "файл</w>": 2776,
  "каким</w>": 2777,
  "научно</w>": 2778,
  "МИ": 2779,
  "Мон": 2780,
  "оценка</w>": 2781,
  "А.</w>": 2782,
  "кру": 2783,
  "частного</w>": 2784,
  "статуса</w>": 2785,
  "режима</w>": 2786,
  "server</w>": 2787,
  "учрежден": 2788,
  "пол": 2789,
  "поддержи": 2790,
  "Китая</w>": 2791,
  ".org</w>": 2792,
  "нормы</w>": 2793,
  "ственная</w>": 2794,
  "сорок</w>": 2795,
  "дискримина": 2796,
  "ущерба</w>": 2797,
  "r</w>": 2798,
  "большое</w>": 2799,
  "связей</w>": 2800,
  "обеспе": 2801,
  "значительно</w>": 2802,
  "тыми</w>": 2803,
  "ровании</w>": 2804,
  "механизм</w>": 2805,
  "24": 2806,
  "кар": 2807,
  "Ше": 2808,
  "последова": 2809,
  "АО</w>": 2810,
  "признательность</w>": 2811,
  "found</w>": 2812,
  "трудо": 2813,
  "процен": 2814,
  "фикации</w>": 2815,
  "финансирование</w>": 2816,
  "vi": 2817,
  "тельности</w>": 2818,
  "судебной</w>": 2819,
  "показа": 2820,
  "исключительно</w>": 2821,
  "конкре": 2822,
  "осу": 2823,
  "терроризмом</w>": 2824,
  "устойчи": 2825,
  "взносы</w>": 2826,
  "включать</w>": 2827,
  "завершения</w>": 2828,
  "значения</w>": 2829,
  "поддерживать</w>": 2830,
  "разме": 2831,
  "первонача": 2832,
  "использовании</w>": 2833,
  "представителями</w>": 2834,
  "z</w>": 2835,
  "ir": 2836,
  "нарушение</w>": 2837,
  "ход</w>": 2838,
  "Китай</w>": 2839,
  "держа": 2840,
  "способности</w>": 2841,
  "li": 2842,
  "совет</w>": 2843,
  "достигну": 2844,
  "раздел</w>": 2845,
  "Необходимо</w>": 2846,
  "первых</w>": 2847,
  "находящихся</w>": 2848,
  "опытом</w>": 2849,
  "эффективной</w>": 2850,
  "упомяну": 2851,
  "ot": 2852,
  "причи": 2853,
  "этими</w>": 2854,
  "by</w>": 2855,
  "министр</w>": 2856,
  "конструк": 2857,
  "транспортного</w>": 2858,
  "ческому</w>": 2859,
  "рение</w>": 2860,
  "мнения</w>": 2861,
  "наши</w>": 2862,
  "тельность</w>": 2863,
  "низ": 2864,
  "причем</w>": 2865,
  "информационных</w>": 2866,
  "упро": 2867,
  "процессов</w>": 2868,
  "Ди": 2869,
  "тические</w>": 2870,
  "ющегося</w>": 2871,
  "надлежа": 2872,
  "организацией</w>": 2873,
  "срока</w>": 2874,
  "предупреждению</w>": 2875,
  "кая</w>": 2876,
  "привести</w>": 2877,
  "значи": 2878,
  "ди</w>": 2879,
  "om": 2880,
  "осно": 2881,
  "процеду": 2882,
  "си</w>": 2883,
  "86</w>": 2884,
  "фо": 2885,
  "сказать</w>": 2886,
  "улучшению</w>": 2887,
  "разделе</w>": 2888,
  "ООН": 2889,
  "ЮНФПА</w>": 2890,
  "чении</w>": 2891,
  "рой</w>": 2892,
  "лены</w>": 2893,
  "образ": 2894,
  "83</w>": 2895,
  "реш": 2896,
  "аспектов</w>": 2897,
  "Ор": 2898,
  "региональными</w>": 2899,
  "использованию</w>": 2900,
  "98</w>": 2901,
  "ядерных</w>": 2902,
  "согласия</w>": 2903,
  "связанной</w>": 2904,
  "ленных</w>": 2905,
  "административных</w>": 2906,
  "соответствующего</w>": 2907,
  "ван</w>": 2908,
  "ожида": 2909,
  "предложен": 2910,
  "ностей</w>": 2911,
  "подверга": 2912,
  "зале</w>": 2913,
  "Германии</w>": 2914,
  "посвящен": 2915,
  "Министерство</w>": 2916,
  "четырех</w>": 2917,
  "Из</w>": 2918,
  "постановляет</w>": 2919,
  "всесторон": 2920,
  "важных</w>": 2921,
  "суммы</w>": 2922,
  "прави": 2923,
  "бюджет</w>": 2924,
  "избира": 2925,
  "мирного</w>": 2926,
  "действовать</w>": 2927,
  "ком": 2928,
  "строительства</w>": 2929,
  "разработку</w>": 2930,
  "чением</w>": 2931,
  "определя": 2932,
  "представляют</w>": 2933,
  "ВИ": 2934,
  "честь</w>": 2935,
  "Ча": 2936,
  "рынке</w>": 2937,
  "най": 2938,
  "поро": 2939,
  "ложения</w>": 2940,
  "мог</w>": 2941,
  "ву</w>": 2942,
  "93</w>": 2943,
  "ченного</w>": 2944,
  "ag": 2945,
  "функционирования</w>": 2946,
  "Помимо</w>": 2947,
  "минима": 2948,
  "кра": 2949,
  "учитывать</w>": 2950,
  "сообщений</w>": 2951,
  "нужно</w>": 2952,
  "88</w>": 2953,
  "правом</w>": 2954,
  "тельства</w>": 2955,
  "включения</w>": 2956,
  "94</w>": 2957,
  "объектов</w>": 2958,
  "ru</w>": 2959,
  "проя": 2960,
  "82</w>": 2961,
  "мое</w>": 2962,
  "учре": 2963,
  "81</w>": 2964,
  "запи": 2965,
  "вами</w>": 2966,
  "указанных</w>": 2967,
  "реаль": 2968,
  "облада": 2969,
  "выполнению</w>": 2970,
  "Постоянного</w>": 2971,
  "КС</w>": 2972,
  "файла</w>": 2973,
  "имеется</w>": 2974,
  "Ни": 2975,
  "ТИ": 2976,
  "КА</w>": 2977,
  "испытания</w>": 2978,
  "Более</w>": 2979,
  "requested</w>": 2980,
  "полез": 2981,
  "Устава</w>": 2982,
  "граждан": 2983,
  "установления</w>": 2984,
  "настоящем</w>": 2985,
  "тно</w>": 2986,
  "оборудование</w>": 2987,
  "вался</w>": 2988,
  "удовлетво": 2989,
  "Националь": 2990,
  "свободу</w>": 2991,
  "статисти": 2992,
  "хорошо</w>": 2993,
  "носи": 2994,
  "79</w>": 2995,
  "использо": 2996,
  "доля</w>": 2997,
  "класса</w>": 2998,
  "протоко": 2999,
  "et</w>": 3000,
  "ровки</w>": 3001,
  "выделя": 3002,
  "26": 3003,
  "Кар": 3004,
  "гражданской</w>": 3005,
  "гуманитарного</w>": 3006,
  "руководство</w>": 3007,
  "крайней</w>": 3008,
  "просила</w>": 3009,
  "Но": 3010,
  "условии</w>": 3011,
  "методы</w>": 3012,
  "особенности</w>": 3013,
  "жи</w>": 3014,
  "Y": 3015,
  "МО": 3016,
  "независимости</w>": 3017,
  "\\</w>": 3018,
  "In": 3019,
  "игры</w>": 3020,
  "числу</w>": 3021,
  "распреде": 3022,
  "сохраня": 3023,
  "пле": 3024,
  "нес": 3025,
  "статей</w>": 3026,
  "он": 3027,
  "друг</w>": 3028,
  "97</w>": 3029,
  "продуктов</w>": 3030,
  "Фонд</w>": 3031,
  "президента</w>": 3032,
  "предварительной</w>": 3033,
  "прекра": 3034,
  "союз</w>": 3035,
  "межправитель": 3036,
  "VI</w>": 3037,
  "персонал</w>": 3038,
  "изда": 3039,
  "английски</w>": 3040,
  "решением</w>": 3041,
  "миру</w>": 3042,
  "изложен": 3043,
  "судей</w>": 3044,
  "своими</w>": 3045,
  "особо</w>": 3046,
  "НО": 3047,
  "поощ": 3048,
  "средствами</w>": 3049,
  "ущерб</w>": 3050,
  "подтверждает</w>": 3051,
  "список</w>": 3052,
  "существу": 3053,
  "мам</w>": 3054,
  "играть</w>": 3055,
  "лю": 3056,
  "крупных</w>": 3057,
  "африканских</w>": 3058,
  "рынка</w>": 3059,
  "взя": 3060,
  "рованию</w>": 3061,
  "потенциал</w>": 3062,
  "мах</w>": 3063,
  "ul": 3064,
  "сохранения</w>": 3065,
  "самом</w>": 3066,
  "Сомали</w>": 3067,
  "часов</w>": 3068,
  "тесь</w>": 3069,
  "основу</w>": 3070,
  "компенсации</w>": 3071,
  "дома</w>": 3072,
  "ста</w>": 3073,
  "мо</w>": 3074,
  "X</w>": 3075,
  "независи": 3076,
  "выда": 3077,
  "Беларусь</w>": 3078,
  "вано</w>": 3079,
  "большой</w>": 3080,
  "электронной</w>": 3081,
  "перечень</w>": 3082,
  "озаглавлен": 3083,
  "эффективно</w>": 3084,
  "принятии</w>": 3085,
  "полном</w>": 3086,
  "соглашение</w>": 3087,
  "eb": 3088,
  "общее</w>": 3089,
  "банк</w>": 3090,
  "включают</w>": 3091,
  "тии</w>": 3092,
  "последних</w>": 3093,
  "гиб": 3094,
  "84</w>": 3095,
  "ЛА": 3096,
  "питания</w>": 3097,
  "центре</w>": 3098,
  "установить</w>": 3099,
  "отходов</w>": 3100,
  "92</w>": 3101,
  "гор": 3102,
  "91</w>": 3103,
  "ниях</w>": 3104,
  "экономическим</w>": 3105,
  "позиции</w>": 3106,
  "Представитель</w>": 3107,
  "финансового</w>": 3108,
  "никами</w>": 3109,
  "as</w>": 3110,
  "увеличения</w>": 3111,
  "поч": 3112,
  "ско</w>": 3113,
  "отсутствия</w>": 3114,
  "отда": 3115,
  "женщинам</w>": 3116,
  "тя": 3117,
  "кро": 3118,
  "тического</w>": 3119,
  "дой</w>": 3120,
  "содержит</w>": 3121,
  "обычно</w>": 3122,
  "внести</w>": 3123,
  "осуществлением</w>": 3124,
  "фе": 3125,
  "Также</w>": 3126,
  "щении</w>": 3127,
  "национальным</w>": 3128,
  "пола</w>": 3129,
  "докладу</w>": 3130,
  "анти": 3131,
  "сформули": 3132,
  "палестин": 3133,
  "партнерами</w>": 3134,
  "доступ": 3135,
  "графи": 3136,
  "сла": 3137,
  "каче": 3138,
  "четко</w>": 3139,
  "науки</w>": 3140,
  "функциони": 3141,
  "кризиса</w>": 3142,
  "состояния</w>": 3143,
  "экономические</w>": 3144,
  "делать</w>": 3145,
  "сосредото": 3146,
  "распределения</w>": 3147,
  "компания</w>": 3148,
  "первую</w>": 3149,
  "информа": 3150,
  "РК</w>": 3151,
  "перевоз": 3152,
  "ванные</w>": 3153,
  "частных</w>": 3154,
  "12.": 3155,
  "tion</w>": 3156,
  "финанси": 3157,
  "Генеральному</w>": 3158,
  "выхода</w>": 3159,
  "Ы": 3160,
  "us</w>": 3161,
  "расши": 3162,
  "sp": 3163,
  "доверия</w>": 3164,
  "гуманитар": 3165,
  "дирек": 3166,
  "Ь</w>": 3167,
  "различными</w>": 3168,
  "гру": 3169,
  "содержание</w>": 3170,
  "фер": 3171,
  "щены</w>": 3172,
  "доно": 3173,
  "ственное</w>": 3174,
  "такими</w>": 3175,
  "тации</w>": 3176,
  "язы": 3177,
  "тру": 3178,
  "участником</w>": 3179,
  "Латинской</w>": 3180,
  "органам</w>": 3181,
  "Франции</w>": 3182,
  "Иран</w>": 3183,
  "w</w>": 3184,
  "стре": 3185,
  "зы": 3186,
  "емыми</w>": 3187,
  "конференций</w>": 3188,
  "школы</w>": 3189,
  "ed": 3190,
  "МЕ": 3191,
  "техники</w>": 3192,
  "сте": 3193,
  "Комиссией</w>": 3194,
  "кими</w>": 3195,
  "печа": 3196,
  "использоваться</w>": 3197,
  "независимо</w>": 3198,
  "Другие</w>": 3199,
  "кадров</w>": 3200,
  "проинформи": 3201,
  "сотрудника</w>": 3202,
  "вооружений</w>": 3203,
  "соблюдение</w>": 3204,
  "реши": 3205,
  "кре": 3206,
  "млрд.</w>": 3207,
  "счета</w>": 3208,
  "официального</w>": 3209,
  "ing": 3210,
  "трансграни": 3211,
  "пригла": 3212,
  "Генеральным</w>": 3213,
  "руководящие</w>": 3214,
  "системой</w>": 3215,
  "имеются</w>": 3216,
  "тки</w>": 3217,
  "доноров</w>": 3218,
  "глубо": 3219,
  "продолжение</w>": 3220,
  "forum</w>": 3221,
  "им": 3222,
  "эффективных</w>": 3223,
  "ц": 3224,
  "предусмотрено</w>": 3225,
  "касающимся</w>": 3226,
  "глобальной</w>": 3227,
  "представил</w>": 3228,
  "сса": 3229,
  "повестку</w>": 3230,
  "одну</w>": 3231,
  "анали": 3232,
  "последующих</w>": 3233,
  "нное</w>": 3234,
  "разных</w>": 3235,
  "Рас": 3236,
  "бор": 3237,
  "прак": 3238,
  "Лу": 3239,
  "производство</w>": 3240,
  "теперь</w>": 3241,
  "основным</w>": 3242,
  "повысить</w>": 3243,
  "ВА": 3244,
  "общие</w>": 3245,
  "согла": 3246,
  "ционная</w>": 3247,
  "сумма</w>": 3248,
  "сотрудничать</w>": 3249,
  "внутри</w>": 3250,
  "ший</w>": 3251,
  "принципа</w>": 3252,
  "шей</w>": 3253,
  "нного</w>": 3254,
  "двумя</w>": 3255,
  "ay": 3256,
  "St": 3257,
  "Германия</w>": 3258,
  "этниче": 3259,
  "переме": 3260,
  "опасных</w>": 3261,
  "89</w>": 3262,
  "предусмотрен": 3263,
  "руководя": 3264,
  "мирных</w>": 3265,
  "ровали</w>": 3266,
  "валось</w>": 3267,
  "политические</w>": 3268,
  "стала</w>": 3269,
  "предусмотренных</w>": 3270,
  "речь</w>": 3271,
  "возобно": 3272,
  "2.</w>": 3273,
  "све": 3274,
  "индивидуаль": 3275,
  "ющем</w>": 3276,
  "выше": 3277,
  "шее</w>": 3278,
  "заседаниях</w>": 3279,
  "принцип</w>": 3280,
  "рована</w>": 3281,
  "тым</w>": 3282,
  "мый</w>": 3283,
  "тельств</w>": 3284,
  "микро": 3285,
  "партии</w>": 3286,
  "секретарю</w>": 3287,
  "составля": 3288,
  "банка</w>": 3289,
  "ску</w>": 3290,
  "жением</w>": 3291,
  "надца": 3292,
  "руководством</w>": 3293,
  "услугам</w>": 3294,
  "разработка</w>": 3295,
  "IN": 3296,
  "шаги</w>": 3297,
  "файлов</w>": 3298,
  "рующих</w>": 3299,
  "удалось</w>": 3300,
  "обы": 3301,
  "скорее</w>": 3302,
  "переговоры</w>": 3303,
  "рамки</w>": 3304,
  "фон": 3305,
  "семье</w>": 3306,
  "пра": 3307,
  "лучше</w>": 3308,
  "возраста</w>": 3309,
  "стоимости</w>": 3310,
  "•</w>": 3311,
  "миро": 3312,
  "50": 3313,
  "утвержден": 3314,
  "праве</w>": 3315,
  "докладчика</w>": 3316,
  "IS": 3317,
  "делегаций</w>": 3318,
  "согласо": 3319,
  "широкого</w>": 3320,
  "свидетельствует</w>": 3321,
  "жителей</w>": 3322,
  "кан": 3323,
  "чности</w>": 3324,
  "Ро": 3325,
  "специальные</w>": 3326,
  "действует</w>": 3327,
  "пор": 3328,
  "обязательство</w>": 3329,
  "способность</w>": 3330,
  "ющему</w>": 3331,
  "официальных</w>": 3332,
  "руемых</w>": 3333,
  "угрозу</w>": 3334,
  "Целевой</w>": 3335,
  "предоставлен": 3336,
  "серьезные</w>": 3337,
  "пределах</w>": 3338,
  "воздуха</w>": 3339,
  "обмен</w>": 3340,
  "оказа": 3341,
  "400</w>": 3342,
  "уде": 3343,
  "практику": 3344,
  "нашего</w>": 3345,
  "главы</w>": 3346,
  "ЧЕ": 3347,
  "секретарем</w>": 3348,
  "мандат</w>": 3349,
  "взаимодействия</w>": 3350,
  "ждении</w>": 3351,
  "пользования</w>": 3352,
  "ежегод": 3353,
  "нным</w>": 3354,
  "сложности</w>": 3355,
  "инвести": 3356,
  "политического</w>": 3357,
  "экономикой</w>": 3358,
  "основы": 3359,
  "количества</w>": 3360,
  "прошлом</w>": 3361,
  "получение</w>": 3362,
  "выполнении</w>": 3363,
  "используется</w>": 3364,
  "национальными</w>": 3365,
  "адеква": 3366,
  "фору": 3367,
  "Секретариа": 3368,
  "поведения</w>": 3369,
  "ковых</w>": 3370,
  "связаны</w>": 3371,
  "лли": 3372,
  "Центральных</w>": 3373,
  "правительствами</w>": 3374,
  "бес": 3375,
  "чать</w>": 3376,
  "определенных</w>": 3377,
  "предприятия</w>": 3378,
  "следу": 3379,
  "технологи": 3380,
  "недостаточ": 3381,
  "предусматривается</w>": 3382,
  "комитетом</w>": 3383,
  "C.": 3384,
  "мировой</w>": 3385,
  "форума</w>": 3386,
  "выполня": 3387,
  "ut": 3388,
  "указано</w>": 3389,
  "Государства</w>": 3390,
  "Франция</w>": 3391,
  "цен</w>": 3392,
  "действительно</w>": 3393,
  "людских</w>": 3394,
  "енных</w>": 3395,
  "толко": 3396,
  "хозяй": 3397,
  "принимая</w>": 3398,
  "подтвер": 3399,
  "гендер": 3400,
  "настоящему</w>": 3401,
  "министерства</w>": 3402,
  "МС": 3403,
  "Из": 3404,
  "AC.": 3405,
  "языках</w>": 3406,
  "лах</w>": 3407,
  "точ": 3408,
  "удовлетворения</w>": 3409,
  "sh": 3410,
  "партнерства</w>": 3411,
  "ственный</w>": 3412,
  "возвра": 3413,
  "наблюдателей</w>": 3414,
  "ряде</w>": 3415,
  "are</w>": 3416,
  "Ша": 3417,
  "помочь</w>": 3418,
  "испытаний</w>": 3419,
  "медицинских</w>": 3420,
  "нер": 3421,
  "активов</w>": 3422,
  "ОБЪЕДИНЕННЫХ</w>": 3423,
  "конец</w>": 3424,
  "доходов</w>": 3425,
  "глобальных</w>": 3426,
  "просьбе</w>": 3427,
  "шению</w>": 3428,
  "Интернет</w>": 3429,
  "общий</w>": 3430,
  "перемещенных</w>": 3431,
  "НАЦИЙ</w>": 3432,
  "ченным</w>": 3433,
  "сах</w>": 3434,
  "преде": 3435,
  "Японии</w>": 3436,
  "крайне</w>": 3437,
  "11.": 3438,
  "малых</w>": 3439,
  "упомина": 3440,
  "ня</w>": 3441,
  "мных</w>": 3442,
  "оказывает</w>": 3443,
  "получили</w>": 3444,
  "распростра": 3445,
  "работает</w>": 3446,
  "замеча": 3447,
  "расширению</w>": 3448,
  "ru": 3449,
  "Западной</w>": 3450,
  "зе": 3451,
  "охране</w>": 3452,
  "or</w>": 3453,
  "руководителей</w>": 3454,
  "положению</w>": 3455,
  "содействии</w>": 3456,
  "региональной</w>": 3457,
  "евро</w>": 3458,
  "кроме</w>": 3459,
  "600</w>": 3460,
  "объя": 3461,
  "Протокола</w>": 3462,
  "управлению</w>": 3463,
  "ЕНИЕ</w>": 3464,
  "сообщил</w>": 3465,
  "подразде": 3466,
  "ратификации</w>": 3467,
  "Новости</w>": 3468,
  "продоволь": 3469,
  "физи": 3470,
  "социальным</w>": 3471,
  "проводится</w>": 3472,
  "постав": 3473,
  "глобального</w>": 3474,
  "разби": 3475,
  "пропаганди": 3476,
  "ностях</w>": 3477,
  "планы</w>": 3478,
  "op": 3479,
  "ствующие</w>": 3480,
  "уязви": 3481,
  "дости": 3482,
  "жда": 3483,
  "юриди": 3484,
  "рез": 3485,
  "Йорк</w>": 3486,
  "находя": 3487,
  "гов</w>": 3488,
  "двусторон": 3489,
  "ответствен": 3490,
  "регионах</w>": 3491,
  "хода</w>": 3492,
  "формирования</w>": 3493,
  "times</w>": 3494,
  "Ирландии</w>": 3495,
  "документации</w>": 3496,
  "ЮНИДО</w>": 3497,
  "ak": 3498,
  "смер": 3499,
  "основы</w>": 3500,
  "шести</w>": 3501,
  "запол": 3502,
  "учитывая</w>": 3503,
  "новым</w>": 3504,
  "Отдел</w>": 3505,
  "заместитель</w>": 3506,
  "событий</w>": 3507,
  "тие</w>": 3508,
  "направления</w>": 3509,
  "общество</w>": 3510,
  "научных</w>": 3511,
  "надзора</w>": 3512,
  "тность</w>": 3513,
  "политическим</w>": 3514,
  "приверженность</w>": 3515,
  "континген": 3516,
  "причине</w>": 3517,
  "признает</w>": 3518,
  "автора</w>": 3519,
  "СМ": 3520,
  "актуаль": 3521,
  "ТО": 3522,
  "периоди": 3523,
  "заме": 3524,
  "интерес</w>": 3525,
  "осуществляться</w>": 3526,
  "составляют</w>": 3527,
  "наличии</w>": 3528,
  "мыми</w>": 3529,
  "обороны</w>": 3530,
  "практически</w>": 3531,
  "Великобритании</w>": 3532,
  "Сегодня</w>": 3533,
  "контролю</w>": 3534,
  "перевозок</w>": 3535,
  "принято</w>": 3536,
  "ровала</w>": 3537,
  "Европейский</w>": 3538,
  "ниям</w>": 3539,
  "щем</w>": 3540,
  "Координа": 3541,
  "WP.29</w>": 3542,
  "ваш</w>": 3543,
  "следующее</w>": 3544,
  "одном</w>": 3545,
  "кризи": 3546,
  "оказать</w>": 3547,
  "ющийся</w>": 3548,
  "Королевства</w>": 3549,
  "свете</w>": 3550,
  "ственными</w>": 3551,
  "измен": 3552,
  "первом</w>": 3553,
  "нен": 3554,
  "ia</w>": 3555,
  "произ": 3556,
  "приведен": 3557,
  "промышлен": 3558,
  "испыта": 3559,
  "ры": 3560,
  "валась</w>": 3561,
  "€</w>": 3562,
  "заключи": 3563,
  "структур</w>": 3564,
  "возможных</w>": 3565,
  "будущих</w>": 3566,
  "группами</w>": 3567,
  "бой</w>": 3568,
  "разру": 3569,
  "обсуждение</w>": 3570,
  "утверждение</w>": 3571,
  "наркотиков</w>": 3572,
  "сельского</w>": 3573,
  "причин</w>": 3574,
  "iii</w>": 3575,
  "сной</w>": 3576,
  "наме": 3577,
  "угрозы</w>": 3578,
  "бед": 3579,
  "личности</w>": 3580,
  "никогда</w>": 3581,
  "Королевство</w>": 3582,
  "могла</w>": 3583,
  "утверждает</w>": 3584,
  "постано": 3585,
  "тической</w>": 3586,
  "второго</w>": 3587,
  "сообщение</w>": 3588,
  "кому</w>": 3589,
  "пределами</w>": 3590,
  "диалог</w>": 3591,
  "разрешения</w>": 3592,
  "территорий</w>": 3593,
  "подчеркнул</w>": 3594,
  "местного</w>": 3595,
  "Суда</w>": 3596,
  "В.</w>": 3597,
  "специализи": 3598,
  "нару": 3599,
  "Гу": 3600,
  "заключенных</w>": 3601,
  "Руководя": 3602,
  "дания</w>": 3603,
  "отношению</w>": 3604,
  "возника": 3605,
  "Национальный</w>": 3606,
  "демократии</w>": 3607,
  "администра": 3608,
  "Беларуси</w>": 3609,
  "временного</w>": 3610,
  "стоя": 3611,
  "ваемые</w>": 3612,
  "бан": 3613,
  "акты</w>": 3614,
  "Цель</w>": 3615,
  "фици": 3616,
  "июне</w>": 3617,
  "обучение</w>": 3618,
  "Казахстана</w>": 3619,
  "Соглашения</w>": 3620,
  "изучения</w>": 3621,
  "защита</w>": 3622,
  "постро": 3623,
  "Президент</w>": 3624,
  "истории</w>": 3625,
  "элементы</w>": 3626,
  "уст": 3627,
  "имели</w>": 3628,
  "лениями</w>": 3629,
  "лизация</w>": 3630,
  "объек": 3631,
  "сные</w>": 3632,
  "щением</w>": 3633,
  "Консультативного</w>": 3634,
  "охвата</w>": 3635,
  "поправок</w>": 3636,
  "КП": 3637,
  "поли": 3638,
  "понимания</w>": 3639,
  "нную</w>": 3640,
  "перевозки</w>": 3641,
  "действующих</w>": 3642,
  "голо": 3643,
  "постановил</w>": 3644,
  "провел</w>": 3645,
  "вод</w>": 3646,
  "рядом</w>": 3647,
  "уз": 3648,
  "C.3</w>": 3649,
  "рованный</w>": 3650,
  "тка</w>": 3651,
  "ждены</w>": 3652,
  "реагирования</w>": 3653,
  "нный</w>": 3654,
  "ts</w>": 3655,
  "любое</w>": 3656,
  "end": 3657,
  "сферы</w>": 3658,
  "спи": 3659,
  "совершенствования</w>": 3660,
  "Гаити</w>": 3661,
  "конвен": 3662,
  "чными</w>": 3663,
  "предложено</w>": 3664,
  "строительство</w>": 3665,
  "че</w>": 3666,
  "разви": 3667,
  "уделять</w>": 3668,
  "опас": 3669,
  "субъек": 3670,
  "СС": 3671,
  "реги": 3672,
  "административным</w>": 3673,
  "Многие</w>": 3674,
  "содержатся</w>": 3675,
  "внутрен": 3676,
  "определен": 3677,
  "зом</w>": 3678,
  "щи": 3679,
  "тари": 3680,
  "мобилизации</w>": 3681,
  "заниматься</w>": 3682,
  "рованным</w>": 3683,
  "мами</w>": 3684,
  "бюджетных</w>": 3685,
  "ша</w>": 3686,
  "номера</w>": 3687,
  "надцатой</w>": 3688,
  "свобод</w>": 3689,
  "выводы</w>": 3690,
  "таблице</w>": 3691,
  "отмечая</w>": 3692,
  "зоны</w>": 3693,
  "тивы</w>": 3694,
  "качество</w>": 3695,
  "вступления</w>": 3696,
  "До</w>": 3697,
  "чу": 3698,
  "администрации</w>": 3699,
  "секто": 3700,
  "10.": 3701,
  "роди": 3702,
  "A.</w>": 3703,
  "кг</w>": 3704,
  "Пра": 3705,
  "суще": 3706,
  "развивающимся</w>": 3707,
  "уровнем</w>": 3708,
  "совместных</w>": 3709,
  "пресс</w>": 3710,
  "Исполнительного</w>": 3711,
  "покры": 3712,
  "адрес</w>": 3713,
  "40": 3714,
  "Центр</w>": 3715,
  "максима": 3716,
  "ДО": 3717,
  ".2</w>": 3718,
  "процессу</w>": 3719,
  "пользователей</w>": 3720,
  "шестой</w>": 3721,
  "Хо": 3722,
  "жению</w>": 3723,
  "кур": 3724,
  "oc": 3725,
  "изменение</w>": 3726,
  "влияние</w>": 3727,
  "интересы</w>": 3728,
  "емую</w>": 3729,
  "I.</w>": 3730,
  "мор": 3731,
  "зов</w>": 3732,
  "нюю</w>": 3733,
  "нять</w>": 3734,
  "торы</w>": 3735,
  "ou": 3736,
  "вшиеся</w>": 3737,
  "тивная</w>": 3738,
  "модели</w>": 3739,
  "CC": 3740,
  "co": 3741,
  "распространен": 3742,
  "Боснии</w>": 3743,
  "значительной</w>": 3744,
  "страну</w>": 3745,
  "ченный</w>": 3746,
  "состоится</w>": 3747,
  "ЗА": 3748,
  "стоимость</w>": 3749,
  "шая</w>": 3750,
  "ation</w>": 3751,
  "Совмест": 3752,
  "принят</w>": 3753,
  "ключевых</w>": 3754,
  "чиков</w>": 3755,
  "тамож": 3756,
  "кандидатов</w>": 3757,
  "выразил</w>": 3758,
  "November</w>": 3759,
  "бо</w>": 3760,
  "используются</w>": 3761,
  "продолжить</w>": 3762,
  "активизировать</w>": 3763,
  "нал</w>": 3764,
  "наращи": 3765,
  "това": 3766,
  "Воз": 3767,
  "Q": 3768,
  "Конвенцию</w>": 3769,
  "ро</w>": 3770,
  "официальные</w>": 3771,
  "ov": 3772,
  "Йорке</w>": 3773,
  "эко": 3774,
  "предоставлять</w>": 3775,
  "сокращению</w>": 3776,
  "энерго": 3777,
  "трудности</w>": 3778,
  "входят</w>": 3779,
  "ней": 3780,
  "бассейна</w>": 3781,
  "ig": 3782,
  "обсу": 3783,
  "наркотиками</w>": 3784,
  "ПА": 3785,
  "получил</w>": 3786,
  "подтвержда": 3787,
  "выз": 3788,
  "теме</w>": 3789,
  "Япония</w>": 3790,
  "Вас</w>": 3791,
  "Ак": 3792,
  "ine</w>": 3793,
  "ляет</w>": 3794,
  "ter</w>": 3795,
  "радио": 3796,
  "Высо": 3797,
  "предписа": 3798,
  "воль": 3799,
  "зма</w>": 3800,
  "ху": 3801,
  "постановила</w>": 3802,
  "одновременно</w>": 3803,
  "топлива</w>": 3804,
  "принуди": 3805,
  "стан": 3806,
  "вленных</w>": 3807,
  "ствах</w>": 3808,
  "ствующих</w>": 3809,
  "Государство</w>": 3810,
  "Э</w>": 3811,
  "слово</w>": 3812,
  "тивную</w>": 3813,
  "налажи": 3814,
  "проекте</w>": 3815,
  "гендерной</w>": 3816,
  "высоко": 3817,
  "пара": 3818,
  "организованной</w>": 3819,
  "поездки</w>": 3820,
  "правами</w>": 3821,
  "всю</w>": 3822,
  "обработки</w>": 3823,
  "шесть</w>": 3824,
  "опублико": 3825,
  "связанным</w>": 3826,
  "отношениях</w>": 3827,
  "жать</w>": 3828,
  "соответствие</w>": 3829,
  "lo": 3830,
  "указыва": 3831,
  "ряет</w>": 3832,
  "занимающихся</w>": 3833,
  "Ch": 3834,
  "зависит</w>": 3835,
  "автор</w>": 3836,
  "письмо</w>": 3837,
  "плани": 3838,
  "гражданства</w>": 3839,
  "Письмо</w>": 3840,
  "Национального</w>": 3841,
  "манда": 3842,
  "согласованных</w>": 3843,
  "тво": 3844,
  "общую</w>": 3845,
  "час</w>": 3846,
  "экологи": 3847,
  "временных</w>": 3848,
  "относится</w>": 3849,
  "мент</w>": 3850,
  "глава</w>": 3851,
  "материально</w>": 3852,
  "результатах</w>": 3853,
  "рассмотр": 3854,
  "одно": 3855,
  "1,": 3856,
  "открытого</w>": 3857,
  "включены</w>": 3858,
  "содержащихся</w>": 3859,
  "Чтобы</w>": 3860,
  "Индии</w>": 3861,
  "альтерна": 3862,
  "наблюдения</w>": 3863,
  "самого</w>": 3864,
  "рей": 3865,
  "статистики</w>": 3866,
  "Югославии</w>": 3867,
  "численности</w>": 3868,
  "соверша": 3869,
  "судеб": 3870,
  "служить</w>": 3871,
  "нить</w>": 3872,
  "водных</w>": 3873,
  "вспомога": 3874,
  "бюро</w>": 3875,
  "Карибского</w>": 3876,
  "получать</w>": 3877,
  "грузо": 3878,
  "отмечено</w>": 3879,
  "сс</w>": 3880,
  "лож": 3881,
  "улучшение</w>": 3882,
  "направля": 3883,
  "десятой</w>": 3884,
  "аль": 3885,
  "чрезвычай": 3886,
  "данному</w>": 3887,
  "следующей</w>": 3888,
  "Участники</w>": 3889,
  "Вен": 3890,
  "аспек": 3891,
  "Сер": 3892,
  "риска</w>": 3893,
  "вышеупомяну": 3894,
  "реша": 3895,
  "Ис": 3896,
  "экспер": 3897,
  "усилиях</w>": 3898,
  "вне</w>": 3899,
  "оказании</w>": 3900,
  "номер</w>": 3901,
  "района</w>": 3902,
  "продолжи": 3903,
  "осуществляет</w>": 3904,
  "сайт</w>": 3905,
  "CO": 3906,
  "пя": 3907,
  "пересе": 3908,
  "такая</w>": 3909,
  "лами</w>": 3910,
  "нными</w>": 3911,
  "нашу</w>": 3912,
  "Канада</w>": 3913,
  "расхо": 3914,
  "покрытия</w>": 3915,
  "соответствует</w>": 3916,
  "удоб": 3917,
  "тности</w>": 3918,
  "торговлей</w>": 3919,
  "Просьба</w>": 3920,
  "бре": 3921,
  "ТА": 3922,
  "ассоциации</w>": 3923,
  "рения</w>": 3924,
  "исклю": 3925,
  "подготовить</w>": 3926,
  "шении</w>": 3927,
  "пятой</w>": 3928,
  "лежа": 3929,
  "запрещении</w>": 3930,
  "поддержания</w>": 3931,
  "вспомогательных</w>": 3932,
  "подразделений</w>": 3933,
  "ЮНИ": 3934,
  "штаб</w>": 3935,
  "ЦИИ</w>": 3936,
  "ды": 3937,
  "приводится</w>": 3938,
  "социальные</w>": 3939,
  "джи": 3940,
  "грузов</w>": 3941,
  "сред": 3942,
  "пору": 3943,
  "чик</w>": 3944,
  "ят</w>": 3945,
  "ер": 3946,
  "Социаль": 3947,
  "соглаш": 3948,
  "лым</w>": 3949,
  "следующий</w>": 3950,
  "выступили</w>": 3951,
  "приобре": 3952,
  "CE": 3953,
  "чая</w>": 3954,
  "люд": 3955,
  "сообщили</w>": 3956,
  "достоинство</w>": 3957,
  "убе": 3958,
  "тить</w>": 3959,
  "вающей</w>": 3960,
  "Марокко</w>": 3961,
  "уполномо": 3962,
  "60": 3963,
  "просил</w>": 3964,
  "девя": 3965,
  "Th": 3966,
  "запасов</w>": 3967,
  "ниями</w>": 3968,
  "широ": 3969,
  "статистических</w>": 3970,
  "активизации</w>": 3971,
  "Италия</w>": 3972,
  "член": 3973,
  "сектор</w>": 3974,
  "седьмой</w>": 3975,
  "йской</w>": 3976,
  "сексуаль": 3977,
  "какого</w>": 3978,
  "оперативной</w>": 3979,
  "помещений</w>": 3980,
  "труд": 3981,
  "материаль": 3982,
  "сты</w>": 3983,
  "заня": 3984,
  "другого</w>": 3985,
  "доб": 3986,
  "соста": 3987,
  "ситуация</w>": 3988,
  "Национальной</w>": 3989,
  "пунктам</w>": 3990,
  "достичь</w>": 3991,
  "and": 3992,
  "беспла": 3993,
  "корпора": 3994,
  "нная</w>": 3995,
  "ею</w>": 3996,
  "словами</w>": 3997,
  "основания</w>": 3998,
  "тради": 3999,
  "начать</w>": 4000,
  "просьбы</w>": 4001,
  "медицинского</w>": 4002,
  "Гн</w>": 4003,
  "Африкан": 4004,
  "задача</w>": 4005,
  "вить</w>": 4006,
  "МАГАТЭ</w>": 4007,
  "силами</w>": 4008,
  "ядерной</w>": 4009,
  "VII</w>": 4010,
  "законы</w>": 4011,
  "принципами</w>": 4012,
  "благоприя": 4013,
  "применять</w>": 4014,
  "жена</w>": 4015,
  "Министерства</w>": 4016,
  "применении</w>": 4017,
  "ЮНЕСКО</w>": 4018,
  "начиная</w>": 4019,
  "сформулированных</w>": 4020,
  "замечаний</w>": 4021,
  "сентябре</w>": 4022,
  "признаку</w>": 4023,
  "раза</w>": 4024,
  "последу": 4025,
  "среду</w>": 4026,
  "сокра": 4027,
  "восьмой</w>": 4028,
  "экологических</w>": 4029,
  "проводит</w>": 4030,
  "ассигнования</w>": 4031,
  "Положение</w>": 4032,
  "Сьерра</w>": 4033,
  "Соединенное</w>": 4034,
  "лег": 4035,
  "пяти": 4036,
  "резер": 4037,
  "Леоне</w>": 4038,
  "пы</w>": 4039,
  "УВКПЧ</w>": 4040,
  "ваем</w>": 4041,
  "характер": 4042,
  "содержащиеся</w>": 4043,
  "рисков</w>": 4044,
  "Кор": 4045,
  "члена</w>": 4046,
  "Маль": 4047,
  "юстиции</w>": 4048,
  "щен": 4049,
  "времен": 4050,
  "кли": 4051,
  "инструментов</w>": 4052,
  "pro": 4053,
  "контро": 4054,
  "организацию</w>": 4055,
  "жены</w>": 4056,
  "эффективное</w>": 4057,
  "пользу</w>": 4058,
  "Приложение</w>": 4059,
  "конференция</w>": 4060,
  "полное</w>": 4061,
  "тар": 4062,
  "Отдела</w>": 4063,
  "устройства</w>": 4064,
  "B.</w>": 4065,
  "улуч": 4066,
  "стаби": 4067,
  "стратегических</w>": 4068,
  "ПП</w>": 4069,
  "поме": 4070,
  "справо": 4071,
  "поступлений</w>": 4072,
  "разбирательства</w>": 4073,
  "оценок</w>": 4074,
  "премьер</w>": 4075,
  "озаглавленный</w>": 4076,
  "органом</w>": 4077,
  "ГС</w>": 4078,
  "чей</w>": 4079,
  "араб": 4080,
  "официальной</w>": 4081,
  "заявляет</w>": 4082,
  "помимо</w>": 4083,
  "совмест": 4084,
  "отметили</w>": 4085,
  "трудящихся</w>": 4086,
  "доброво": 4087,
  "земли</w>": 4088,
  "тельство</w>": 4089,
  "ex": 4090,
  "порядок</w>": 4091,
  "месяца</w>": 4092,
  "Корея</w>": 4093,
  "Новой</w>": 4094,
  "сталкиваются</w>": 4095,
  "отве": 4096,
  "щимся</w>": 4097,
  "вынесен": 4098,
  "конвенций</w>": 4099,
  "насиль": 4100,
  "возможные</w>": 4101,
  "убежища</w>": 4102,
  "жесто": 4103,
  "выпла": 4104,
  "ляции</w>": 4105,
  "наличия</w>": 4106,
  "существуют</w>": 4107,
  "Консульта": 4108,
  "морских</w>": 4109,
  "прав": 4110,
  "незаконного</w>": 4111,
  "большинстве</w>": 4112,
  "слишком</w>": 4113,
  "вследствие</w>": 4114,
  "KASE</w>": 4115,
  "осозна": 4116,
  "приходится</w>": 4117,
  "вому</w>": 4118,
  "государственные</w>": 4119,
  "вшего</w>": 4120,
  "реформ</w>": 4121,
  "вшим</w>": 4122,
  "потребления</w>": 4123,
  "позднее</w>": 4124,
  "тую</w>": 4125,
  "бер": 4126,
  "Стра": 4127,
  "интер": 4128,
  "лан": 4129,
  "представленных</w>": 4130,
  "рий</w>": 4131,
  "детям</w>": 4132,
  "всему</w>": 4133,
  "менты</w>": 4134,
  "Европейской</w>": 4135,
  "ковой</w>": 4136,
  "лений</w>": 4137,
  "ствуя</w>": 4138,
  "положи": 4139,
  "веду": 4140,
  "Новая</w>": 4141,
  "ционными</w>": 4142,
  "уважения</w>": 4143,
  "пространства</w>": 4144,
  "предоставляет</w>": 4145,
  "биологи": 4146,
  "сражение</w>": 4147,
  "режим</w>": 4148,
  "Россия</w>": 4149,
  "3.</w>": 4150,
  "меньше</w>": 4151,
  "председа": 4152,
  "уничтожения</w>": 4153,
  "Федерация</w>": 4154,
  "тто</w>": 4155,
  "станет</w>": 4156,
  "нь</w>": 4157,
  "Турции</w>": 4158,
  "бывшей</w>": 4159,
  "широко</w>": 4160,
  "лам</w>": 4161,
  "влены</w>": 4162,
  "школ</w>": 4163,
  "for</w>": 4164,
  "случаи</w>": 4165,
  "уче": 4166,
  "прямо</w>": 4167,
  "консенсуса</w>": 4168,
  "мента": 4169,
  "отделения</w>": 4170,
  "несовершеннолетних</w>": 4171,
  "правительствам</w>": 4172,
  "самой</w>": 4173,
  "поощрять</w>": 4174,
  "цам</w>": 4175,
  "быстро</w>": 4176,
  "тическим</w>": 4177,
  "отвечает</w>": 4178,
  "Бурунди</w>": 4179,
  "кампании</w>": 4180,
  "отрица": 4181,
  "последнее</w>": 4182,
  "девятой</w>": 4183,
  "Информация</w>": 4184,
  "новую</w>": 4185,
  "мае</w>": 4186,
  "Такие</w>": 4187,
  "местном</w>": 4188,
  "ждена</w>": 4189,
  "ведо": 4190,
  "участникам</w>": 4191,
  "партнер": 4192,
  "per": 4193,
  "6,": 4194,
  "дея": 4195,
  "директор</w>": 4196,
  "капита": 4197,
  "высокой</w>": 4198,
  "ья</w>": 4199,
  "континен": 4200,
  "Председателем</w>": 4201,
  "концепции</w>": 4202,
  "вах</w>": 4203,
  "ПРА": 4204,
  "арабских</w>": 4205,
  "занимается</w>": 4206,
  "ен</w>": 4207,
  "террористи": 4208,
  "ted</w>": 4209,
  "az": 4210,
  "координи": 4211,
  "щается</w>": 4212,
  "даты</w>": 4213,
  "президент</w>": 4214,
  "компьютер": 4215,
  "гн</w>": 4216,
  "выполнить</w>": 4217,
  "ментов</w>": 4218,
  "Осуществление</w>": 4219,
  "ОБ": 4220,
  "Хабитат</w>": 4221,
  "рай": 4222,
  "продовольственной</w>": 4223,
  "предвари": 4224,
  "дан": 4225,
  "нельзя</w>": 4226,
  "ассигнований</w>": 4227,
  "отчет</w>": 4228,
  "службе</w>": 4229,
  "e.": 4230,
  "Сейчас</w>": 4231,
  "Неизвестное</w>": 4232,
  "лет": 4233,
  "НК": 4234,
  "эк": 4235,
  "правитель": 4236,
  "постоянного</w>": 4237,
  "ски": 4238,
  "Четвер": 4239,
  "МОТ</w>": 4240,
  "важней": 4241,
  "платы</w>": 4242,
  "зая": 4243,
  "ты": 4244,
  "работающих</w>": 4245,
  "гуманитарных</w>": 4246,
  "городе</w>": 4247,
  "выступа": 4248,
  "необходимым</w>": 4249,
  "надлежащего</w>": 4250,
  "сопровожда": 4251,
  "предполага": 4252,
  "800</w>": 4253,
  "дополнение</w>": 4254,
  "следующего</w>": 4255,
  "комитету</w>": 4256,
  "рекоменду": 4257,
  "жертвам</w>": 4258,
  "углуб": 4259,
  "применительно</w>": 4260,
  "непреры": 4261,
  "Суд</w>": 4262,
  "зм</w>": 4263,
  "основополага": 4264,
  "ПИ": 4265,
  "5,": 4266,
  "НЕ": 4267,
  "150</w>": 4268,
  "участии</w>": 4269,
  "С.</w>": 4270,
  "химических</w>": 4271,
  "сле": 4272,
  "социаль": 4273,
  "население</w>": 4274,
  "последующей</w>": 4275,
  "иной</w>": 4276,
  "Рабо": 4277,
  "Чили</w>": 4278,
  "равенство</w>": 4279,
  "недо": 4280,
  "ственную</w>": 4281,
  "Дата</w>": 4282,
  "рованными</w>": 4283,
  "серии</w>": 4284,
  "ющееся</w>": 4285,
  "секретариатом</w>": 4286,
  "поправ": 4287,
  "Таблица</w>": 4288,
  "постоянных</w>": 4289,
  "проблеме</w>": 4290,
  "выступил</w>": 4291,
  "военной</w>": 4292,
  "жении</w>": 4293,
  "201": 4294,
  "решить</w>": 4295,
  "гарантий</w>": 4296,
  "зе</w>": 4297,
  "оконча": 4298,
  "ок": 4299,
  "распоряжении</w>": 4300,
  "жилья</w>": 4301,
  "обслужи": 4302,
  "si": 4303,
  "Всемирного</w>": 4304,
  "выплаты</w>": 4305,
  "Судана</w>": 4306,
  "авиа": 4307,
  "функциональ": 4308,
  "провин": 4309,
  "принятию</w>": 4310,
  "проектам</w>": 4311,
  "язык</w>": 4312,
  "Pro": 4313,
  "свя": 4314,
  "лин": 4315,
  "ведение</w>": 4316,
  "прожи": 4317,
  "ющаяся</w>": 4318,
  "120</w>": 4319,
  "текста</w>": 4320,
  "марте</w>": 4321,
  "June</w>": 4322,
  "пля": 4323,
  "рок</w>": 4324,
  "данными</w>": 4325,
  "исте": 4326,
  "внед": 4327,
  "открыть</w>": 4328,
  "емом</w>": 4329,
  "процессуаль": 4330,
  "долж": 4331,
  "управляющих</w>": 4332,
  "декабре</w>": 4333,
  "располага": 4334,
  "осведомленности</w>": 4335,
  "Африканского</w>": 4336,
  "границы</w>": 4337,
  "управля": 4338,
  "практика</w>": 4339,
  "жного</w>": 4340,
  "Кыргыз": 4341,
  "Соединенного</w>": 4342,
  "wipe</w>": 4343,
  "здоровье</w>": 4344,
  "среднесро": 4345,
  "гарантии</w>": 4346,
  "нарко": 4347,
  "бога": 4348,
  "религии</w>": 4349,
  "тридцать</w>": 4350,
  "надлежащих</w>": 4351,
  "транс": 4352,
  "полицейских</w>": 4353,
  "дис": 4354,
  "Армения</w>": 4355,
  "сор": 4356,
  "состояние</w>": 4357,
  "Африка</w>": 4358,
  "считать</w>": 4359,
  "режи": 4360,
  "пленар": 4361,
  "ванного</w>": 4362,
  "ье</w>": 4363,
  "исследователь": 4364,
  "Глава</w>": 4365,
  "класси": 4366,
  "фондов</w>": 4367,
  "незакон": 4368,
  "каждом</w>": 4369,
  "темы</w>": 4370,
  "4,": 4371,
  "официально</w>": 4372,
  "равно": 4373,
  "обеспоко": 4374,
  "становится</w>": 4375,
  "Ту": 4376,
  "шены</w>": 4377,
  "преследования</w>": 4378,
  "облег": 4379,
  "главе</w>": 4380,
  "африкан": 4381,
  "ционное</w>": 4382,
  "обеспокоен</w>": 4383,
  "переходной</w>": 4384,
  "нали": 4385,
  "Ж</w>": 4386,
  "200": 4387,
  "восто": 4388,
  "полученных</w>": 4389,
  "Российская</w>": 4390,
  "проживания</w>": 4391,
  "ноябре</w>": 4392,
  "You</w>": 4393,
  "Прави": 4394,
  "привлечения</w>": 4395,
  "отвеча": 4396,
  "заинтересованными</w>": 4397,
  "ито": 4398,
  "ходом</w>": 4399,
  "мента</w>": 4400,
  "СУ": 4401,
  "Сан": 4402,
  "проблемами</w>": 4403,
  "следующем</w>": 4404,
  "просьба</w>": 4405,
  "па</w>": 4406,
  "жалоб</w>": 4407,
  "конкуренции</w>": 4408,
  "90": 4409,
  "существенно</w>": 4410,
  "льности</w>": 4411,
  "превра": 4412,
  "путь</w>": 4413,
  "санкций</w>": 4414,
  "ядерным</w>": 4415,
  "поставлен": 4416,
  "новая</w>": 4417,
  "тематиче": 4418,
  "океана</w>": 4419,
  "Име": 4420,
  "учебные</w>": 4421,
  "бесплатно</w>": 4422,
  "XXI</w>": 4423,
  "разум": 4424,
  "вид": 4425,
  "предупре": 4426,
  "Предлага": 4427,
  "ленные</w>": 4428,
  "фа</w>": 4429,
  "докладах</w>": 4430,
  "ссыл": 4431,
  "общественного</w>": 4432,
  "se": 4433,
  "тему</w>": 4434,
  "заключа": 4435,
  "ждений</w>": 4436,
  "насилие</w>": 4437,
  "систематиче": 4438,
  "ЕЛ": 4439,
  "базе</w>": 4440,
  "тивными</w>": 4441,
  "tr": 4442,
  "стандарты</w>": 4443,
  "работой</w>": 4444,
  "находи": 4445,
  "юридических</w>": 4446,
  "гах</w>": 4447,
  "id": 4448,
  "лесо": 4449,
  "свое": 4450,
  "юрисдик": 4451,
  "обе": 4452,
  "заместителя</w>": 4453,
  "сотрудник</w>": 4454,
  "Сан</w>": 4455,
  "вки</w>": 4456,
  "стом</w>": 4457,
  "сих</w>": 4458,
  "призыв</w>": 4459,
  "угро": 4460,
  "лениях</w>": 4461,
  "нен</w>": 4462,
  "Благодаря</w>": 4463,
  "положениям</w>": 4464,
  "взно": 4465,
  "экспорта</w>": 4466,
  "средствах</w>": 4467,
  "проблему</w>": 4468,
  "возмож": 4469,
  "тое</w>": 4470,
  "происходит</w>": 4471,
  "избежать</w>": 4472,
  "Договарива": 4473,
  "лечения</w>": 4474,
  "большую</w>": 4475,
  "этапа</w>": 4476,
  "Свя": 4477,
  "вызывает</w>": 4478,
  "пом</w>": 4479,
  "хими": 4480,
  "семей": 4481,
  "ver": 4482,
  "нике</w>": 4483,
  "тию</w>": 4484,
  "напоминает</w>": 4485,
  "технические</w>": 4486,
  "лл</w>": 4487,
  "ежегодно</w>": 4488,
  "ОТ": 4489,
  "ником</w>": 4490,
  "прекращения</w>": 4491,
  "увеличи": 4492,
  "Грузии</w>": 4493,
  "тыс.</w>": 4494,
  "участию</w>": 4495,
  "ad</w>": 4496,
  "ФАО</w>": 4497,
  "вший</w>": 4498,
  "стен": 4499,
  "зу</w>": 4500,
  "установки</w>": 4501,
  "Джа": 4502,
  "туры</w>": 4503,
  "областей</w>": 4504,
  "вместо</w>": 4505,
  "ад": 4506,
  "Народно</w>": 4507,
  "un.org</w>": 4508,
  "ше</w>": 4509,
  "Еще</w>": 4510,
  "проблемой</w>": 4511,
  "выявления</w>": 4512,
  "внешней</w>": 4513,
  "пользоваться</w>": 4514,
  "просить</w>": 4515,
  "ванной</w>": 4516,
  "совмести": 4517,
  "СПИДом</w>": 4518,
  "СТА": 4519,
  "мно": 4520,
  "C.1</w>": 4521,
  "ся": 4522,
  "признания</w>": 4523,
  "Пи": 4524,
  "енного</w>": 4525,
  "един": 4526,
  "пли": 4527,
  "институтов</w>": 4528,
  "образованию</w>": 4529,
  "сеть</w>": 4530,
  "измер": 4531,
  "пар": 4532,
  "эффектив": 4533,
  "жено</w>": 4534,
  "регулярно</w>": 4535,
  "экологической</w>": 4536,
  "укрепить</w>": 4537,
  "применяется</w>": 4538,
  "креди": 4539,
  "санитар": 4540,
  "ё</w>": 4541,
  "рассмотрел</w>": 4542,
  "общины</w>": 4543,
  "СК": 4544,
  "привлека": 4545,
  "води": 4546,
  "считается</w>": 4547,
  "дви": 4548,
  "известно</w>": 4549,
  "городов</w>": 4550,
  "вающего</w>": 4551,
  "Специаль": 4552,
  "национальный</w>": 4553,
  "понима": 4554,
  "нефти</w>": 4555,
  "споров</w>": 4556,
  "мало": 4557,
  "полномочия</w>": 4558,
  "предотвращению</w>": 4559,
  "поощрение</w>": 4560,
  "своему</w>": 4561,
  "сексуального</w>": 4562,
  "институ": 4563,
  "внедрения</w>": 4564,
  "наце": 4565,
  "языка</w>": 4566,
  "можем</w>": 4567,
  "форум</w>": 4568,
  "Совете</w>": 4569,
  "продолжают</w>": 4570,
  "газов</w>": 4571,
  "сотрудниками</w>": 4572,
  "освобо": 4573,
  "Rev.1</w>": 4574,
  "клиентов</w>": 4575,
  "Канады</w>": 4576,
  "местные</w>": 4577,
  "столь</w>": 4578,
  "военнослужащих</w>": 4579,
  "программах</w>": 4580,
  "вного</w>": 4581,
  "законодательством</w>": 4582,
  "вот</w>": 4583,
  "сессий</w>": 4584,
  "зачастую</w>": 4585,
  "многосторонних</w>": 4586,
  "ши</w>": 4587,
  "тельному</w>": 4588,
  "аналоги": 4589,
  "подразделения</w>": 4590,
  "Лю": 4591,
  "Ц</w>": 4592,
  "приблизительно</w>": 4593,
  "события</w>": 4594,
  "Женева</w>": 4595,
  "рассматриваются</w>": 4596,
  "Конститу": 4597,
  "дж": 4598,
  "потенциаль": 4599,
  "успеш": 4600,
  "выпол": 4601,
  "ПРО": 4602,
  "ПР": 4603,
  "главных</w>": 4604,
  "развивающиеся</w>": 4605,
  "вели": 4606,
  "торговой</w>": 4607,
  "перевод</w>": 4608,
  "необходимую</w>": 4609,
  "вид</w>": 4610,
  "пер": 4611,
  "Пу": 4612,
  "т.д.</w>": 4613,
  "дополнительную</w>": 4614,
  "приоритетных</w>": 4615,
  "сохранить</w>": 4616,
  "бюджетным</w>": 4617,
  "программой</w>": 4618,
  "управлен": 4619,
  "Опера": 4620,
  "хотели</w>": 4621,
  "нужда": 4622,
  "выпу": 4623,
  "реинтеграции</w>": 4624,
  "расизма</w>": 4625,
  "спа": 4626,
  "море</w>": 4627,
  "представлена</w>": 4628,
  "продук": 4629,
  "закупок</w>": 4630,
  "Косово</w>": 4631,
  "December</w>": 4632,
  "названием</w>": 4633,
  "октябре</w>": 4634,
  "йского</w>": 4635,
  "имеющие</w>": 4636,
  "бесчелове": 4637,
  "смерти</w>": 4638,
  "загряз": 4639,
  "капитала</w>": 4640,
  "эта": 4641,
  "путей</w>": 4642,
  "вет": 4643,
  "являющихся</w>": 4644,
  "дол": 4645,
  "усилиям</w>": 4646,
  "оп": 4647,
  "угле": 4648,
  "содействию</w>": 4649,
  "хотела</w>": 4650,
  "представительства</w>": 4651,
  "миллионов</w>": 4652,
  "ваемого</w>": 4653,
  "UN": 4654,
  "тон</w>": 4655,
  "мина": 4656,
  "природных</w>": 4657,
  "ожидается</w>": 4658,
  "дохода</w>": 4659,
  "СПИДа</w>": 4660,
  "высоко</w>": 4661,
  "Финансо": 4662,
  "коррупции</w>": 4663,
  "рассматриваться</w>": 4664,
  "цах</w>": 4665,
  "ВОЗ</w>": 4666,
  "сен": 4667,
  "уника": 4668,
  "мероприятиях</w>": 4669,
  "Вопрос</w>": 4670,
  "яви": 4671,
  "сетей</w>": 4672,
  "космического</w>": 4673,
  "расследований</w>": 4674,
  "сту": 4675,
  "весь</w>": 4676,
  "связа": 4677,
  "вовле": 4678,
  "лиза": 4679,
  "став": 4680,
  "вопросом</w>": 4681,
  "P.": 4682,
  "ск</w>": 4683,
  "чрезвычайных</w>": 4684,
  "удовлетворение</w>": 4685,
  "смертности</w>": 4686,
  "готовности</w>": 4687,
  "ситуациях</w>": 4688,
  "практику</w>": 4689,
  "способствует</w>": 4690,
  "ЛЬ": 4691,
  "рить</w>": 4692,
  "ча</w>": 4693,
  "несет</w>": 4694,
  "Индия</w>": 4695,
  "доли</w>": 4696,
  "носят</w>": 4697,
  "долларов</w>": 4698,
  "забо": 4699,
  "направлены</w>": 4700,
  "K</w>": 4701,
  "земель</w>": 4702,
  "укреплении</w>": 4703,
  "населению</w>": 4704,
  "Стати": 4705,
  "le</w>": 4706,
  "новое</w>": 4707,
  "адаптации</w>": 4708,
  "Правил</w>": 4709,
  "учреждениям</w>": 4710,
  "pl": 4711,
  "тический</w>": 4712,
  "рассматривается</w>": 4713,
  "группам</w>": 4714,
  "ТРА": 4715,
  "Постоян": 4716,
  "выразить</w>": 4717,
  "рей</w>": 4718,
  "тура</w>": 4719,
  "шен": 4720,
  "добавить</w>": 4721,
  "лена</w>": 4722,
  "вин": 4723,
  "временной</w>": 4724,
  "затрат</w>": 4725,
  "Перу</w>": 4726,
  "письма</w>": 4727,
  "долю</w>": 4728,
  "ванный</w>": 4729,
  "Право</w>": 4730,
  "4.</w>": 4731,
  "глобальном</w>": 4732,
  "кости</w>": 4733,
  "вопро": 4734,
  "признавая</w>": 4735,
  "Ию": 4736,
  "html</w>": 4737,
  "арбитра": 4738,
  "департа": 4739,
  "летний</w>": 4740,
  "шка": 4741,
  "Щ": 4742,
  "изъя": 4743,
  "важные</w>": 4744,
  "вариант</w>": 4745,
  "el</w>": 4746,
  "нению</w>": 4747,
  "устра": 4748,
  "разнообрази": 4749,
  "призвал</w>": 4750,
  "пу</w>": 4751,
  "определенные</w>": 4752,
  "транспарентности</w>": 4753,
  "бежен": 4754,
  "применяются</w>": 4755,
  "Исполнительный</w>": 4756,
  "укреплять</w>": 4757,
  "необходимы</w>": 4758,
  "Боли": 4759,
  "требуют</w>": 4760,
  "коммуника": 4761,
  "свыше</w>": 4762,
  "поощрению</w>": 4763,
  "дер": 4764,
  "успешно</w>": 4765,
  "Специальным</w>": 4766,
  "хранения</w>": 4767,
  "бюдже": 4768,
  "Делегация</w>": 4769,
  "осна": 4770,
  "пожела": 4771,
  "неотъемле": 4772,
  "ман</w>": 4773,
  "целевых</w>": 4774,
  "CN.": 4775,
  "передо": 4776,
  "органах</w>": 4777,
  "молодых</w>": 4778,
  "це</w>": 4779,
  "предыдущих</w>": 4780,
  "спо": 4781,
  "33": 4782,
  "шему</w>": 4783,
  "денег</w>": 4784,
  "территориях</w>": 4785,
  "жной</w>": 4786,
  "Бер": 4787,
  "едино": 4788,
  "миротвор": 4789,
  "EN": 4790,
  "гарантировать</w>": 4791,
  "полага": 4792,
  "консульти": 4793,
  "ятся</w>": 4794,
  "Re": 4795,
  "ЛИ": 4796,
  "меня": 4797,
  "запа": 4798,
  "серьезных</w>": 4799,
  "тай": 4800,
  "борьбу</w>": 4801,
  "основное</w>": 4802,
  "Тимо": 4803,
  "непосред": 4804,
  "потребуется</w>": 4805,
  "стату": 4806,
  "впредь</w>": 4807,
  "джа": 4808,
  "сторон": 4809,
  "мнений</w>": 4810,
  "Украина</w>": 4811,
  "Пла": 4812,
  "начало</w>": 4813,
  "принимается</w>": 4814,
  "страда": 4815,
  "ой</w>": 4816,
  "эксплуата": 4817,
  "твор": 4818,
  "куль": 4819,
  "отмеча": 4820,
  "твер": 4821,
  "законодательных</w>": 4822,
  "провела</w>": 4823,
  "Согла": 4824,
  "максимально</w>": 4825,
  "РУ": 4826,
  "обсуждений</w>": 4827,
  "Введение</w>": 4828,
  "принадлежа": 4829,
  "возвращения</w>": 4830,
  "выразили</w>": 4831,
  "заявлений</w>": 4832,
  "род": 4833,
  "табли": 4834,
  "После": 4835,
  "МДП</w>": 4836,
  "вывод</w>": 4837,
  "вленные</w>": 4838,
  "проведенных</w>": 4839,
  "цены</w>": 4840,
  "избра": 4841,
  "Уста": 4842,
  "расширить</w>": 4843,
  "стихийных</w>": 4844,
  "ваниях</w>": 4845,
  "света</w>": 4846,
  "признание</w>": 4847,
  "ЦИ": 4848,
  "парламен": 4849,
  "исследование</w>": 4850,
  "моду": 4851,
  "ствовала</w>": 4852,
  "стоит</w>": 4853,
  "апреле</w>": 4854,
  "рующие</w>": 4855,
  "режиме</w>": 4856,
  "Утверждение</w>": 4857,
  "CN.4</w>": 4858,
  "мужчинами</w>": 4859,
  "властей</w>": 4860,
  "предложил</w>": 4861,
  "ено</w>": 4862,
  "Вопросы</w>": 4863,
  "газа</w>": 4864,
  "расту": 4865,
  "жений</w>": 4866,
  "эффективные</w>": 4867,
  "окру": 4868,
  "ra": 4869,
  "тре": 4870,
  "изучить</w>": 4871,
  "общая</w>": 4872,
  "измерения</w>": 4873,
  "правовые</w>": 4874,
  "Аль": 4875,
  "зарегистри": 4876,
  "впервые</w>": 4877,
  "исполнения</w>": 4878,
  "правовым</w>": 4879,
  "ситуаций</w>": 4880,
  "значительные</w>": 4881,
  "сбаланси": 4882,
  "1989</w>": 4883,
  "дела": 4884,
  "снабжения</w>": 4885,
  "тысяч</w>": 4886,
  "ров": 4887,
  "публи": 4888,
  "Ком": 4889,
  "Времен": 4890,
  "учащихся</w>": 4891,
  "грани": 4892,
  "совместного</w>": 4893,
  "разрабаты": 4894,
  "Ь": 4895,
  "справедливого</w>": 4896,
  "оружие</w>": 4897,
  "делает</w>": 4898,
  "почему</w>": 4899,
  "тельством</w>": 4900,
  "соблюда": 4901,
  "сделал</w>": 4902,
  "Доба": 4903,
  "сайта</w>": 4904,
  "проведены</w>": 4905,
  "свидетель": 4906,
  "ви</w>": 4907,
  "ствовали</w>": 4908,
  "ствуют</w>": 4909,
  "Управлением</w>": 4910,
  "уро": 4911,
  "наш</w>": 4912,
  "Востоке</w>": 4913,
  "решать</w>": 4914,
  "вшийся</w>": 4915,
  "кры": 4916,
  "рекомендовал</w>": 4917,
  "отме": 4918,
  "цикла</w>": 4919,
  "хи</w>": 4920,
  "щено</w>": 4921,
  "вающий</w>": 4922,
  "морской</w>": 4923,
  "тором</w>": 4924,
  "заявлениями</w>": 4925,
  "ченными</w>": 4926,
  "публикации</w>": 4927,
  "яс": 4928,
  "инспек": 4929,
  "неправительственными</w>": 4930,
  "ввиду</w>": 4931,
  "квалифици": 4932,
  "представленный</w>": 4933,
  "Основ": 4934,
  "Аб": 4935,
  "Независи": 4936,
  "70": 4937,
  "степень</w>": 4938,
  "стью</w>": 4939,
  "сня": 4940,
  "транспарен": 4941,
  "уча": 4942,
  "финансовым</w>": 4943,
  "ограничений</w>": 4944,
  "позволяют</w>": 4945,
  "предложить</w>": 4946,
  "чита": 4947,
  "щен</w>": 4948,
  "воспользоваться</w>": 4949,
  "получают</w>": 4950,
  "ответы</w>": 4951,
  "отмечается</w>": 4952,
  "ровано</w>": 4953,
  "подготови": 4954,
  "вед": 4955,
  "D.</w>": 4956,
  "авторов</w>": 4957,
  "вперед</w>": 4958,
  "C.2</w>": 4959,
  "Австралии</w>": 4960,
  "ИН": 4961,
  "трех": 4962,
  "обре": 4963,
  "курсов</w>": 4964,
  "регионов</w>": 4965,
  "проводятся</w>": 4966,
  "Центра</w>": 4967,
  "курс</w>": 4968,
  "будучи</w>": 4969,
  "брифин": 4970,
  "жертвами</w>": 4971,
  "ER": 4972,
  "Арабской</w>": 4973,
  "активное</w>": 4974,
  "Маври": 4975,
  "Конвенцией</w>": 4976,
  "Ман": 4977,
  "исключи": 4978,
  "Америке</w>": 4979,
  "дели": 4980,
  "Ливана</w>": 4981,
  "документах</w>": 4982,
  "млн</w>": 4983,
  "лия</w>": 4984,
  "рома</w>": 4985,
  "чки</w>": 4986,
  "пространство</w>": 4987,
  "Уган": 4988,
  "Ал": 4989,
  "вленной</w>": 4990,
  "ресурсах</w>": 4991,
  "добровольных</w>": 4992,
  "мера</w>": 4993,
  "выбор</w>": 4994,
  "September</w>": 4995,
  "государствах</w>": 4996,
  "июле</w>": 4997,
  "тивно</w>": 4998,
  "обществе</w>": 4999,
  "бизнес</w>": 5000,
  "ть": 5001,
  "тол": 5002,
  "уменьшения</w>": 5003,
  "80": 5004,
  "рати": 5005,
  "специального</w>": 5006,
  "знания</w>": 5007,
  "персона": 5008,
  "культур": 5009,
  "провозгла": 5010,
  "нынешней</w>": 5011,
  "торговых</w>": 5012,
  "предварительного</w>": 5013,
  "ход": 5014,
  "August</w>": 5015,
  "конца</w>": 5016,
  "ne": 5017,
  "директора</w>": 5018,
  "осуществить</w>": 5019,
  "затрону": 5020,
  "справедливости</w>": 5021,
  "играет</w>": 5022,
  "настоящим</w>": 5023,
  "приоритетов</w>": 5024,
  "Оно</w>": 5025,
  "зон</w>": 5026,
  "док</w>": 5027,
  "отвер": 5028,
  "применению</w>": 5029,
  "особого</w>": 5030,
  "рекомендацию</w>": 5031,
  "ора": 5032,
  "наконец</w>": 5033,
  "компонентов</w>": 5034,
  "средствам</w>": 5035,
  "совершен": 5036,
  "такую</w>": 5037,
  "сексуальной</w>": 5038,
  "обзору</w>": 5039,
  "рабочего</w>": 5040,
  "должност": 5041,
  "Лан": 5042,
  "консенсу": 5043,
  "кадро": 5044,
  "700</w>": 5045,
  "представленные</w>": 5046,
  "pe": 5047,
  "эффективным</w>": 5048,
  "извле": 5049,
  "свидетельствуют</w>": 5050,
  "установлению</w>": 5051,
  "Наша</w>": 5052,
  "сно": 5053,
  "ющуюся</w>": 5054,
  "величи": 5055,
  "вызыва": 5056,
  "оперативных</w>": 5057,
  "невозможно</w>": 5058,
  "ОЭСР</w>": 5059,
  "Либерии</w>": 5060,
  "Фа": 5061,
  "енным</w>": 5062,
  "нд": 5063,
  "вшей</w>": 5064,
  "шем</w>": 5065,
  "ката": 5066,
  "Затем</w>": 5067,
  "внутренней</w>": 5068,
  "ходя": 5069,
  "двух": 5070,
  "массового</w>": 5071,
  "ОАО</w>": 5072,
  "вступи": 5073,
  "ждает</w>": 5074,
  "сков</w>": 5075,
  "ДЕ": 5076,
  "Международное</w>": 5077,
  "динами": 5078,
  "Гватема": 5079,
  "рий": 5080,
  "вя": 5081,
  "усили": 5082,
  "военного</w>": 5083,
  "соблюдать</w>": 5084,
  "позицию</w>": 5085,
  "дискуссии</w>": 5086,
  "легко</w>": 5087,
  "ото": 5088,
  "корректи": 5089,
  "ске</w>": 5090,
  "сотрудни": 5091,
  "существующие</w>": 5092,
  "чрезвычайной</w>": 5093,
  "протокол</w>": 5094,
  "шко": 5095,
  "тер</w>": 5096,
  "точно</w>": 5097,
  "ведет</w>": 5098,
  "ated</w>": 5099,
  "дия</w>": 5100,
  "введен": 5101,
  "дить</w>": 5102,
  "Вер": 5103,
  "od": 5104,
  "нуть</w>": 5105,
  "курсы</w>": 5106,
  "разнообразия</w>": 5107,
  "Решение</w>": 5108,
  "медицинской</w>": 5109,
  "летнего</w>": 5110,
  "дар": 5111,
  "али": 5112,
  "совместной</w>": 5113,
  "любом</w>": 5114,
  "народ</w>": 5115,
  "ционную</w>": 5116,
  "коне": 5117,
  "Члены</w>": 5118,
  "иных</w>": 5119,
  "проведен": 5120,
  "2.1</w>": 5121,
  "размер</w>": 5122,
  "рекомендо": 5123,
  "Объединен": 5124,
  "фика": 5125,
  "гостей</w>": 5126,
  "вер</w>": 5127,
  "тин": 5128,
  "Бангладеш</w>": 5129,
  "оцен": 5130,
  "принятой</w>": 5131,
  "бюджете</w>": 5132,
  "тет</w>": 5133,
  "правосудию</w>": 5134,
  "сообщить</w>": 5135,
  "ченной</w>": 5136,
  "Миссия</w>": 5137,
  "October</w>": 5138,
  "минут</w>": 5139,
  "практических</w>": 5140,
  "сообщает</w>": 5141,
  "щать</w>": 5142,
  "действу": 5143,
  "рамок</w>": 5144,
  "US": 5145,
  "жалобы</w>": 5146,
  "средство</w>": 5147,
  "Южная</w>": 5148,
  "увеличить</w>": 5149,
  "моря</w>": 5150,
  "няется</w>": 5151,
  "бази": 5152,
  "дополнительной</w>": 5153,
  "палестинского</w>": 5154,
  "a.": 5155,
  "насилием</w>": 5156,
  "Корей": 5157,
  "исходя</w>": 5158,
  "общественных</w>": 5159,
  "природ": 5160,
  "устранения</w>": 5161,
  "соответствующий</w>": 5162,
  "народонаселения</w>": 5163,
  "самое</w>": 5164,
  "пря": 5165,
  "экологически</w>": 5166,
  "viewtopic.php</w>": 5167,
  "джи</w>": 5168,
  "шенных</w>": 5169,
  "доказа": 5170,
  "сов": 5171,
  "злоупотреб": 5172,
  "самые</w>": 5173,
  "Ближнем</w>": 5174,
  "родителей</w>": 5175,
  "оптима": 5176,
  "предлож": 5177,
  "днев": 5178,
  "нены</w>": 5179,
  "применением</w>": 5180,
  "неу": 5181,
  "Ю</w>": 5182,
  "создана</w>": 5183,
  "согласие</w>": 5184,
  "страной</w>": 5185,
  "Число</w>": 5186,
  "подходов</w>": 5187,
  "различия</w>": 5188,
  "носит</w>": 5189,
  "инстру": 5190,
  "Исполнитель": 5191,
  "входит</w>": 5192,
  "подотчетности</w>": 5193,
  "проведено</w>": 5194,
  "зыва": 5195,
  "ВВП</w>": 5196,
  "материала</w>": 5197,
  "j</w>": 5198,
  "перево": 5199,
  "услугами</w>": 5200,
  "религиоз": 5201,
  "уничто": 5202,
  "свиде": 5203,
  "лью</w>": 5204,
  "эксперимента": 5205,
  "наряду</w>": 5206,
  "действуют</w>": 5207,
  "ИКТ</w>": 5208,
  "Испания</w>": 5209,
  "ГИ": 5210,
  "ственно</w>": 5211,
  "кс</w>": 5212,
  "испол": 5213,
  "первоочеред": 5214,
  "судом</w>": 5215,
  "тип</w>": 5216,
  "рь</w>": 5217,
  "техническую</w>": 5218,
  "нов": 5219,
  "ВТО</w>": 5220,
  "факторы</w>": 5221,
  "матери": 5222,
  "категорий</w>": 5223,
  "тур": 5224,
  "ST</w>": 5225,
  "необходимой</w>": 5226,
  "чика</w>": 5227,
  "проститу": 5228,
  "космической</w>": 5229,
  "вариан": 5230,
  "напря": 5231,
  "мся</w>": 5232,
  "вашего</w>": 5233,
  "призыва": 5234,
  "ite</w>": 5235,
  "широкий</w>": 5236,
  "центры</w>": 5237,
  "организу": 5238,
  "экономи": 5239,
  "шением</w>": 5240,
  "создавать</w>": 5241,
  "архи": 5242,
  "кодек": 5243,
  "результатам</w>": 5244,
  "рова": 5245,
  "заплани": 5246,
  "осуществ": 5247,
  "риа": 5248,
  "ТЕ": 5249,
  "шает</w>": 5250,
  "Президента</w>": 5251,
  "размини": 5252,
  "отделений</w>": 5253,
  "министерство</w>": 5254,
  "достижении</w>": 5255,
  "этнических</w>": 5256,
  "Аль</w>": 5257,
  "властями</w>": 5258,
  "Меры</w>": 5259,
  "определены</w>": 5260,
  "трибунала</w>": 5261,
  "жить</w>": 5262,
  "мен</w>": 5263,
  "Ma": 5264,
  "практикой</w>": 5265,
  "DLL</w>": 5266,
  "квалификации</w>": 5267,
  "уязвимых</w>": 5268,
  "жен</w>": 5269,
  "могло</w>": 5270,
  "неде": 5271,
  "Мексика</w>": 5272,
  "щейся</w>": 5273,
  "совет": 5274,
  "составил</w>": 5275,
  "сразу</w>": 5276,
  "выборы</w>": 5277,
  "пересмотра</w>": 5278,
  "37": 5279,
  "культурного</w>": 5280,
  "город</w>": 5281,
  "Турция</w>": 5282,
  "ЕНИЯ</w>": 5283,
  "СНГ</w>": 5284,
  "взаим": 5285,
  "рией</w>": 5286,
  "2,": 5287,
  "1988</w>": 5288,
  "графии</w>": 5289,
  "тивному</w>": 5290,
  "одина": 5291,
  "иностран": 5292,
  "чь</w>": 5293,
  "энергетики</w>": 5294,
  "Италии</w>": 5295,
  "рабочие</w>": 5296,
  "диску": 5297,
  "рамо": 5298,
  "Были</w>": 5299,
  "оцени": 5300,
  "Поли": 5301,
  "Трибунала</w>": 5302,
  "подлежа": 5303,
  "касающейся</w>": 5304,
  "законодательстве</w>": 5305,
  "составления</w>": 5306,
  "ствовать</w>": 5307,
  "шими</w>": 5308,
  "Швейцария</w>": 5309,
  "нением</w>": 5310,
  "комите": 5311,
  "Mar</w>": 5312,
  "мую</w>": 5313,
  "перевода</w>": 5314,
  "предпринять</w>": 5315,
  "вида</w>": 5316,
  "недели</w>": 5317,
  "широкой</w>": 5318,
  "тского</w>": 5319,
  "принадлежности</w>": 5320,
  "внешних</w>": 5321,
  "стратегического</w>": 5322,
  "предста": 5323,
  "От</w>": 5324,
  "обоснован": 5325,
  "сообществом</w>": 5326,
  "методологи": 5327,
  "надлежащим</w>": 5328,
  "добы": 5329,
  "рованием</w>": 5330,
  "раздела</w>": 5331,
  "Молдова</w>": 5332,
  "нией</w>": 5333,
  "конечном</w>": 5334,
  "представила</w>": 5335,
  "структур": 5336,
  "фай": 5337,
  "широкое</w>": 5338,
  "ровка</w>": 5339,
  "четвер": 5340,
  "сей</w>": 5341,
  "сного</w>": 5342,
  "вполне</w>": 5343,
  "ch</w>": 5344,
  "возмещения</w>": 5345,
  "бли": 5346,
  "Ги": 5347,
  "Фи": 5348,
  "остаются</w>": 5349,
  "Нидерланды</w>": 5350,
  "дипломатиче": 5351,
  "Distr</w>": 5352,
  "летия</w>": 5353,
  "Европей": 5354,
  "ан</w>": 5355,
  "всеобъемлющего</w>": 5356,
  "спроса</w>": 5357,
  "заболеваний</w>": 5358,
  "наказа": 5359,
  "конфиденциаль": 5360,
  "лые</w>": 5361,
  "гражданским</w>": 5362,
  "преобразо": 5363,
  "юрисдикции</w>": 5364,
  "Al": 5365,
  "рождения</w>": 5366,
  "служит</w>": 5367,
  "7,": 5368,
  "ent</w>": 5369,
  "стимули": 5370,
  "плате": 5371,
  "приняло</w>": 5372,
  "тельностью</w>": 5373,
  "ничего</w>": 5374,
  "насколько</w>": 5375,
  "ковые</w>": 5376,
  "импор": 5377,
  "спор": 5378,
  "ственном</w>": 5379,
  "Ай": 5380,
  "мето": 5381,
  "товары</w>": 5382,
  "нений</w>": 5383,
  "утра": 5384,
  "снижения</w>": 5385,
  "чений</w>": 5386,
  "работают</w>": 5387,
  "ност": 5388,
  "Теперь</w>": 5389,
  "инвестиции</w>": 5390,
  "программами</w>": 5391,
  "Мьян": 5392,
  "пребывания</w>": 5393,
  "ез": 5394,
  "КН": 5395,
  "Ру": 5396,
  "мной</w>": 5397,
  "тонн</w>": 5398,
  "жая</w>": 5399,
  "Один</w>": 5400,
  "иннова": 5401,
  "бло": 5402,
  "страновых</w>": 5403,
  "знать</w>": 5404,
  "высо": 5405,
  "результатом</w>": 5406,
  "январе</w>": 5407,
  "движение</w>": 5408,
  "обращение</w>": 5409,
  "шен</w>": 5410,
  "район</w>": 5411,
  "перехода</w>": 5412,
  "правоохранительных</w>": 5413,
  "указывает</w>": 5414,
  "обстоятельствах</w>": 5415,
  "просьбу</w>": 5416,
  "енный</w>": 5417,
  "сон</w>": 5418,
  "частично</w>": 5419,
  "количе": 5420,
  "обмен": 5421,
  "заяви": 5422,
  "представителем</w>": 5423,
  "оборо": 5424,
  "международно</w>": 5425,
  "военные</w>": 5426,
  "учет</w>": 5427,
  "семинаров</w>": 5428,
  "проводиться</w>": 5429,
  "комитетов</w>": 5430,
  "Бразилия</w>": 5431,
  "планируется</w>": 5432,
  "сферах</w>": 5433,
  "другом</w>": 5434,
  "ум": 5435,
  "нынешнего</w>": 5436,
  "состоявшейся</w>": 5437,
  "международный</w>": 5438,
  "from</w>": 5439,
  "рынок</w>": 5440,
  "суды</w>": 5441,
  "земле": 5442,
  "page</w>": 5443,
  "форми": 5444,
  "Стратеги": 5445,
  "неофициальных</w>": 5446,
  "ще</w>": 5447,
  "GMT</w>": 5448,
  "оправ": 5449,
  "Бразилии</w>": 5450,
  "откло": 5451,
  "различным</w>": 5452,
  "July</w>": 5453,
  "вской</w>": 5454,
  "выс": 5455,
  "закуп": 5456,
  "шую</w>": 5457,
  "Правило</w>": 5458,
  "доклад": 5459,
  "правления</w>": 5460,
  "спорта</w>": 5461,
  "сессиях</w>": 5462,
  "эн": 5463,
  "выборах</w>": 5464,
  "ядер": 5465,
  "данное</w>": 5466,
  "Совещание</w>": 5467,
  "будущего</w>": 5468,
  "зи</w>": 5469,
  "НП": 5470,
  "рово": 5471,
  "сотрудникам</w>": 5472,
  "подробно</w>": 5473,
  "совещаниях</w>": 5474,
  "СПИ": 5475,
  "создает</w>": 5476,
  "делах</w>": 5477,
  "Фак": 5478,
  "ДА": 5479,
  "ate</w>": 5480,
  "указания</w>": 5481,
  "настоя": 5482,
  "лий": 5483,
  "Австралия</w>": 5484,
  "обстоятельств</w>": 5485,
  "развитием</w>": 5486,
  "считаем</w>": 5487,
  "задержа": 5488,
  "выступает</w>": 5489,
  "косми": 5490,
  "описание</w>": 5491,
  "нераспространения</w>": 5492,
  "Международным</w>": 5493,
  "Основные</w>": 5494,
  "СР</w>": 5495,
  "соответствующую</w>": 5496,
  "АС": 5497,
  "установленных</w>": 5498,
  "преследо": 5499,
  "будем</w>": 5500,
  "скорей": 5501,
  "ПРЕД": 5502,
  "1.1</w>": 5503,
  "никам</w>": 5504,
  "льному</w>": 5505,
  "СО</w>": 5506,
  "каза": 5507,
  "определении</w>": 5508,
  "Увеличение</w>": 5509,
  "иного</w>": 5510,
  "секторах</w>": 5511,
  "сное</w>": 5512,
  "бизнеса</w>": 5513,
  "оговорки</w>": 5514,
  "наде": 5515,
  "правительственных</w>": 5516,
  "Швейцарии</w>": 5517,
  "ОО": 5518,
  "уделяется</w>": 5519,
  "применяться</w>": 5520,
  "сооб": 5521,
  "перечислен": 5522,
  "подтверждая</w>": 5523,
  "меньшей</w>": 5524,
  "регистри": 5525,
  "900</w>": 5526,
  "Кубы</w>": 5527,
  "этап</w>": 5528,
  "словам</w>": 5529,
  "официальный</w>": 5530,
  "Норвегия</w>": 5531,
  "ера</w>": 5532,
  "улучшить</w>": 5533,
  "образова": 5534,
  "равно</w>": 5535,
  "35": 5536,
  "вероятно</w>": 5537,
  "чному</w>": 5538,
  "ревизии</w>": 5539,
  "лить</w>": 5540,
  "большого</w>": 5541,
  "109</w>": 5542,
  "тью</w>": 5543,
  "кую</w>": 5544,
  "страхования</w>": 5545,
  "принимают</w>": 5546,
  "пограни": 5547,
  "Деятельность</w>": 5548,
  "месяц</w>": 5549,
  "войска</w>": 5550,
  "луч": 5551,
  "Пак": 5552,
  "сделали</w>": 5553,
  "эгидой</w>": 5554,
  "Заседание</w>": 5555,
  "требование</w>": 5556,
  "all": 5557,
  "спе": 5558,
  "жден": 5559,
  "оборудо": 5560,
  "обеспечивают</w>": 5561,
  "емся</w>": 5562,
  "тацию</w>": 5563,
  "неправительственные</w>": 5564,
  "удостовер": 5565,
  "участ": 5566,
  "завершить</w>": 5567,
  "Su": 5568,
  "обязаны</w>": 5569,
  "Три": 5570,
  "con": 5571,
  "типо": 5572,
  "C.</w>": 5573,
  "Герцего": 5574,
  "апелля": 5575,
  "многочисленные</w>": 5576,
  "транспор": 5577,
  "Правила</w>": 5578,
  "гово": 5579,
  "просвети": 5580,
  "Факульта": 5581,
  "8,": 5582,
  "надлежащие</w>": 5583,
  "105</w>": 5584,
  "тесно</w>": 5585,
  "шки</w>": 5586,
  "основными</w>": 5587,
  "Египет</w>": 5588,
  "Re</w>": 5589,
  "неформа": 5590,
  "34": 5591,
  "5.</w>": 5592,
  "мета": 5593,
  "коммер": 5594,
  "огня</w>": 5595,
  "достигнутый</w>": 5596,
  "Показа": 5597,
  "поступления</w>": 5598,
  "английском</w>": 5599,
  "детской</w>": 5600,
  "долго": 5601,
  "указывается</w>": 5602,
  "Испании</w>": 5603,
  "емости</w>": 5604,
  "чески</w>": 5605,
  "большие</w>": 5606,
  "загрязнения</w>": 5607,
  "Ar": 5608,
  "Рассмотрение</w>": 5609,
  "расследование</w>": 5610,
  "няет</w>": 5611,
  "кость</w>": 5612,
  "городах</w>": 5613,
  "морю</w>": 5614,
  "рию</w>": 5615,
  "уго": 5616,
  "вшись</w>": 5617,
  "ья": 5618,
  "большим</w>": 5619,
  "туа": 5620,
  "исход": 5621,
  "школах</w>": 5622,
  "односторон": 5623,
  "националь": 5624,
  "процессы</w>": 5625,
  "недостаточно</w>": 5626,
  "мы": 5627,
  "ек": 5628,
  "присут": 5629,
  "сбор</w>": 5630,
  "тием</w>": 5631,
  "ГЭ": 5632,
  "поступа": 5633,
  "место": 5634,
  "пост": 5635,
  "January</w>": 5636,
  "МК": 5637,
  "щенных</w>": 5638,
  "электри": 5639,
  "подклю": 5640,
  "основой</w>": 5641,
  "ТО</w>": 5642,
  "Верховный</w>": 5643,
  "продажи</w>": 5644,
  "Азербайджа": 5645,
  "психологи": 5646,
  "членом</w>": 5647,
  "Hotel</w>": 5648,
  "SR.": 5649,
  "государственным</w>": 5650,
  "важной</w>": 5651,
  "произведен": 5652,
  "конкретно</w>": 5653,
  "принимаются</w>": 5654,
  "беспристра": 5655,
  "ум</w>": 5656,
  "полученные</w>": 5657,
  "стать": 5658,
  "встрече</w>": 5659,
  "обратиться</w>": 5660,
  "техническое</w>": 5661,
  "большинства</w>": 5662,
  "колони": 5663,
  "льской</w>": 5664,
  "обраща": 5665,
  "европейских</w>": 5666,
  "общем</w>": 5667,
  "границ</w>": 5668,
  "кто": 5669,
  "переход": 5670,
  "направлений</w>": 5671,
  "заинтересован": 5672,
  "Бан": 5673,
  "Наконец</w>": 5674,
  "накоплен": 5675,
  "есте": 5676,
  "причины</w>": 5677,
  "неблагоприя": 5678,
  "гендерных</w>": 5679,
  "Реги": 5680,
  "250</w>": 5681,
  "Qu": 5682,
  "создан</w>": 5683,
  "VIII</w>": 5684,
  "последнего</w>": 5685,
  "стой": 5686,
  "C.5</w>": 5687,
  "регуляр": 5688,
  "возможным</w>": 5689,
  "полный</w>": 5690,
  "религиозных</w>": 5691,
  "ур": 5692,
  "Views</w>": 5693,
  "совершении</w>": 5694,
  "тическое</w>": 5695,
  "устройство</w>": 5696,
  "Дополнитель": 5697,
  "потреб": 5698,
  "конкретным</w>": 5699,
  "Азербайджана</w>": 5700,
  "карты</w>": 5701,
  "принципах</w>": 5702,
  "отражает</w>": 5703,
  "доказательств</w>": 5704,
  "sk": 5705,
  "пособий</w>": 5706,
  "Ло": 5707,
  "значительное</w>": 5708,
  "охватывает</w>": 5709,
  "состоявшемся</w>": 5710,
  "века</w>": 5711,
  "Законом</w>": 5712,
  "предусмотренные</w>": 5713,
  "стиму": 5714,
  "слож": 5715,
  "Камбо": 5716,
  "U</w>": 5717,
  "критериев</w>": 5718,
  "распределение</w>": 5719,
  "подчеркнули</w>": 5720,
  "СС</w>": 5721,
  "RA": 5722,
  "частей</w>": 5723,
  "ГО": 5724,
  "указать</w>": 5725,
  "восстановлению</w>": 5726,
  "рекомендовала</w>": 5727,
  "ясно</w>": 5728,
  "мигра": 5729,
  "Создание</w>": 5730,
  "среднем</w>": 5731,
  "традиционных</w>": 5732,
  "стер": 5733,
  "опустыни": 5734,
  "ревизоров</w>": 5735,
  "мандатов</w>": 5736,
  "оплаты</w>": 5737,
  "хар": 5738,
  "подгото": 5739,
  "феврале</w>": 5740,
  "среднего</w>": 5741,
  "копи": 5742,
  "F.": 5743,
  "вносить</w>": 5744,
  "реализо": 5745,
  "судо": 5746,
  "ситуацию</w>": 5747,
  "вся": 5748,
  "распоря": 5749,
  "ходить</w>": 5750,
  "Сторонами</w>": 5751,
  "Apr</w>": 5752,
  "надлежащей</w>": 5753,
  "ствует</w>": 5754,
  "ждением</w>": 5755,
  "Общие</w>": 5756,
  "Десяти": 5757,
  "районы</w>": 5758,
  "служба</w>": 5759,
  "целевой</w>": 5760,
  "3,": 5761,
  "договоренности</w>": 5762,
  "дисциплинар": 5763,
  "хра": 5764,
  "тенденции</w>": 5765,
  "жающих</w>": 5766,
  "распространению</w>": 5767,
  "ем": 5768,
  "неправитель": 5769,
  "ствие</w>": 5770,
  "сохранение</w>": 5771,
  "Догово": 5772,
  "шается</w>": 5773,
  "комплексного</w>": 5774,
  "лицом</w>": 5775,
  "специализированных</w>": 5776,
  "110</w>": 5777,
  "последствиях</w>": 5778,
  "жало": 5779,
  "работ": 5780,
  "Кри": 5781,
  "частным</w>": 5782,
  "надежду</w>": 5783,
  "рованная</w>": 5784,
  "обсужда": 5785,
  "осве": 5786,
  "договор</w>": 5787,
  "источ": 5788,
  "разору": 5789,
  "тенге</w>": 5790,
  "соблюдением</w>": 5791,
  "распространяется</w>": 5792,
  "веден": 5793,
  "член</w>": 5794,
  "сожалению</w>": 5795,
  "вающим</w>": 5796,
  "жденных</w>": 5797,
  "субъектов</w>": 5798,
  "Солнца</w>": 5799,
  "Система</w>": 5800,
  "отсутствием</w>": 5801,
  "островных</w>": 5802,
  "Пя": 5803,
  "указанные</w>": 5804,
  "запраши": 5805,
  "заявлением</w>": 5806,
  "Пол": 5807,
  "мыш": 5808,
  "Всемир": 5809,
  "запро": 5810,
  "гри": 5811,
  "лы": 5812,
  "дальнейшей</w>": 5813,
  "подвер": 5814,
  "развивающимися</w>": 5815,
  "внесения</w>": 5816,
  "влено</w>": 5817,
  "имел</w>": 5818,
  "будущее</w>": 5819,
  "незаконной</w>": 5820,
  "соответствия</w>": 5821,
  "первая</w>": 5822,
  "Всемирный</w>": 5823,
  "ологи": 5824,
  "La</w>": 5825,
  "партнерских</w>": 5826,
  "инвали": 5827,
  "регулярного</w>": 5828,
  "нынеш": 5829,
  "мя": 5830,
  "Факультативного</w>": 5831,
  "сможет</w>": 5832,
  "каждому</w>": 5833,
  "круг</w>": 5834,
  "Here</w>": 5835,
  "испан": 5836,
  "сессион": 5837,
  "мерам</w>": 5838,
  "зия</w>": 5839,
  "форму</w>": 5840,
  "пен": 5841,
  "ok": 5842,
  "тю": 5843,
  "тив</w>": 5844,
  "щает</w>": 5845,
  "our": 5846,
  "CA": 5847,
  "проси": 5848,
  "Центра": 5849,
  "национальное</w>": 5850,
  "методи": 5851,
  "разделу</w>": 5852,
  "психи": 5853,
  "дной</w>": 5854,
  "контра": 5855,
  "подчеркнуть</w>": 5856,
  "иммуни": 5857,
  "наблюдению</w>": 5858,
  "ирак": 5859,
  "определяется</w>": 5860,
  "касаются</w>": 5861,
  "счетов</w>": 5862,
  "договорных</w>": 5863,
  "пожелает</w>": 5864,
  "срав": 5865,
  "Королев": 5866,
  "настоящих</w>": 5867,
  "212</w>": 5868,
  "друга</w>": 5869,
  "палестинских</w>": 5870,
  "административного</w>": 5871,
  "вокруг</w>": 5872,
  "заработной</w>": 5873,
  "Постоянный</w>": 5874,
  "qu": 5875,
  "газо": 5876,
  "укреп": 5877,
  "озна": 5878,
  "СКАЯ</w>": 5879,
  "дополня": 5880,
  "основного</w>": 5881,
  "ган": 5882,
  "секторов</w>": 5883,
  "This</w>": 5884,
  "ждать</w>": 5885,
  "s.": 5886,
  "привле": 5887,
  "присоединения</w>": 5888,
  "цар": 5889,
  "Fri</w>": 5890,
  "считают</w>": 5891,
  "Коста</w>": 5892,
  "позволило</w>": 5893,
  "уровней</w>": 5894,
  "статью</w>": 5895,
  "хе</w>": 5896,
  "значительный</w>": 5897,
  "исполнении</w>": 5898,
  "юридической</w>": 5899,
  "ниче": 5900,
  "ху</w>": 5901,
  "тивном</w>": 5902,
  "числен": 5903,
  "природоохран": 5904,
  "March</w>": 5905,
  "НОГО</w>": 5906,
  "превышает</w>": 5907,
  "предстоя": 5908,
  "пережи": 5909,
  "коммуникационных</w>": 5910,
  "рассчита": 5911,
  "нении</w>": 5912,
  "контрактов</w>": 5913,
  "полно": 5914,
  "строительству</w>": 5915,
  "обследования</w>": 5916,
  "стри": 5917,
  "учреждение</w>": 5918,
  "достигнут</w>": 5919,
  "ал": 5920,
  "for": 5921,
  "Об</w>": 5922,
  "приводи": 5923,
  "Трибу": 5924,
  "Подготови": 5925,
  "свободной</w>": 5926,
  "носить</w>": 5927,
  "Совещания</w>": 5928,
  "тизации</w>": 5929,
  "уважение</w>": 5930,
  "получи": 5931,
  "Республикой</w>": 5932,
  "аспектах</w>": 5933,
  "йских</w>": 5934,
  "согласи": 5935,
  "государственными</w>": 5936,
  "оценкам</w>": 5937,
  "Второй</w>": 5938,
  "продукты</w>": 5939,
  "краткосро": 5940,
  "Are</w>": 5941,
  "объеди": 5942,
  "соч": 5943,
  "провод": 5944,
  "9,": 5945,
  "²</w>": 5946,
  "концу</w>": 5947,
  "шают</w>": 5948,
  "присоеди": 5949,
  "Много": 5950,
  "расо": 5951,
  "стар": 5952,
  "гото": 5953,
  "вооружен": 5954,
  "Форума</w>": 5955,
  "сельскохозяй": 5956,
  "}</w>": 5957,
  "НА</w>": 5958,
  "ника": 5959,
  "должным</w>": 5960,
  "ДРК</w>": 5961,
  "приводит</w>": 5962,
  "отправления</w>": 5963,
  "территорию</w>": 5964,
  "выражения</w>": 5965,
  "Директора</w>": 5966,
  "пленарном</w>": 5967,
  "противоре": 5968,
  "прибы": 5969,
  "Настоящий</w>": 5970,
  "присоедини": 5971,
  "понимании</w>": 5972,
  "прилож": 5973,
  "административные</w>": 5974,
  "su": 5975,
  "полевой</w>": 5976,
  "координацию</w>": 5977,
  "index.php</w>": 5978,
  "евре": 5979,
  "положением</w>": 5980,
  "{</w>": 5981,
  "дальнейших</w>": 5982,
  "be": 5983,
  "долгосро": 5984,
  "Ирак</w>": 5985,
  "отслежи": 5986,
  "предстоит</w>": 5987,
  "акций</w>": 5988,
  "большее</w>": 5989,
  "Норвегии</w>": 5990,
  "встреч</w>": 5991,
  "подготовлен</w>": 5992,
  "передаче</w>": 5993,
  "очередной</w>": 5994,
  "сторонам</w>": 5995,
  "серьезно</w>": 5996,
  "хе": 5997,
  "исследо": 5998,
  "установлен": 5999,
  "призвала</w>": 6000,
  "опасность</w>": 6001,
  "Жене": 6002,
  "надеется</w>": 6003,
  "заявили</w>": 6004,
  "ht": 6005,
  "est": 6006,
  "Женщины</w>": 6007,
  "информационной</w>": 6008,
  "участвующих</w>": 6009,
  "приверженности</w>": 6010,
  "ян": 6011,
  "ауди": 6012,
  "межправительственных</w>": 6013,
  "расположен": 6014,
  "Прочие</w>": 6015,
  "прода": 6016,
  "фактически</w>": 6017,
  "внутренние</w>": 6018,
  "Дарфу": 6019,
  "допуска": 6020,
  "por": 6021,
  "Общая</w>": 6022,
  "добиваться</w>": 6023,
  "прочего</w>": 6024,
  "наз": 6025,
  "Мини": 6026,
  "дал</w>": 6027,
  "дии</w>": 6028,
  "ОБСЕ</w>": 6029,
  "енной</w>": 6030,
  "созданы</w>": 6031,
  "Азиатско</w>": 6032,
  "рные</w>": 6033,
  "уточ": 6034,
  "href</w>": 6035,
  "активного</w>": 6036,
  "вариантов</w>": 6037,
  "стра</w>": 6038,
  "стратегия</w>": 6039,
  "аспектам</w>": 6040,
  "Хорватии</w>": 6041,
  "начислен": 6042,
  "рении</w>": 6043,
  "Фон": 6044,
  "формирование</w>": 6045,
  "засу": 6046,
  "постоян": 6047,
  "ist": 6048,
  "несут</w>": 6049,
  "повтор": 6050,
  "веще": 6051,
  "деся": 6052,
  "te</w>": 6053,
  "равных</w>": 6054,
  "привело</w>": 6055,
  "недопу": 6056,
  "пособия</w>": 6057,
  "низким</w>": 6058,
  "оговор": 6059,
  "устройств</w>": 6060,
  "государстве</w>": 6061,
  "теку": 6062,
  "возбу": 6063,
  "кризис</w>": 6064,
  "стратегию</w>": 6065,
  "вия</w>": 6066,
  "циона": 6067,
  "Мин": 6068,
  "вар": 6069,
  "вещества</w>": 6070,
  "щений</w>": 6071,
  "ваемой</w>": 6072,
  "снижение</w>": 6073,
  "пробе": 6074,
  "согласования</w>": 6075,
  "экономике</w>": 6076,
  "отдельные</w>": 6077,
  "RE": 6078,
  "Именно</w>": 6079,
  "тация</w>": 6080,
  "адре": 6081,
  "суде</w>": 6082,
  "подлин": 6083,
  "обла": 6084,
  "сырье": 6085,
  "играют</w>": 6086,
  "представили</w>": 6087,
  "органи": 6088,
  "Интер": 6089,
  "веб": 6090,
  "чаются</w>": 6091,
  "мные</w>": 6092,
  "зоне</w>": 6093,
  "достой": 6094,
  "региональным</w>": 6095,
  "Unknown</w>": 6096,
  "агентства</w>": 6097,
  "Результаты</w>": 6098,
  "целе": 6099,
  "имущество</w>": 6100,
  "сек": 6101,
  "давления</w>": 6102,
  "отеля</w>": 6103,
  "обслуживанию</w>": 6104,
  "ЛЕ": 6105,
  "МО</w>": 6106,
  "Каждый</w>": 6107,
  "серьезную</w>": 6108,
  "говорить</w>": 6109,
  "высоким</w>": 6110,
  "зву": 6111,
  "Австрия</w>": 6112,
  "Большинство</w>": 6113,
  "предоставляется</w>": 6114,
  "несен": 6115,
  "нном</w>": 6116,
  "ents</w>": 6117,
  "перво": 6118,
  "тской</w>": 6119,
  "Кара": 6120,
  "впоследствии</w>": 6121,
  "устойчивости</w>": 6122,
  "лко": 6123,
  "глобализации</w>": 6124,
  "экономическое</w>": 6125,
  "ца": 6126,
  "реализацию</w>": 6127,
  "encounter</w>": 6128,
  "скоордини": 6129,
  "произво": 6130,
  "втором</w>": 6131,
  "ща</w>": 6132,
  "сократить</w>": 6133,
  "лем</w>": 6134,
  "мии</w>": 6135,
  "топли": 6136,
  "поставки</w>": 6137,
  "реабилитации</w>": 6138,
  "проведением</w>": 6139,
  "Пакистан</w>": 6140,
  "выплачи": 6141,
  "рон": 6142,
  "оккупированных</w>": 6143,
  "гео": 6144,
  "техническим</w>": 6145,
  "решительно</w>": 6146,
  "ство": 6147,
  "выде": 6148,
  "Тор": 6149,
  "стадии</w>": 6150,
  "степен": 6151,
  "допу": 6152,
  "финансировании</w>": 6153,
  "предмет</w>": 6154,
  "доброволь": 6155,
  "возобновля": 6156,
  "Протоко": 6157,
  "лла</w>": 6158,
  "существования</w>": 6159,
  "Исламской</w>": 6160,
  "показателя</w>": 6161,
  "Директор</w>": 6162,
  "отчеты</w>": 6163,
  "оборота</w>": 6164,
  "подпрограммы</w>": 6165,
  "дальнейшее</w>": 6166,
  "экономический</w>": 6167,
  "комиссией</w>": 6168,
  "энерге": 6169,
  "ОС</w>": 6170,
  "поправками</w>": 6171,
  "ностям</w>": 6172,
  "An": 6173,
  "нападения</w>": 6174,
  "Швеции</w>": 6175,
  "сроков</w>": 6176,
  "пригово": 6177,
  "профессиональ": 6178,
  "жные</w>": 6179,
  "os</w>": 6180,
  "нова": 6181,
  "годи": 6182,
  "обосно": 6183,
  "интегри": 6184,
  "РО": 6185,
  "Эритре": 6186,
  "Укрепление</w>": 6187,
  "предотвра": 6188,
  "Среди</w>": 6189,
  "торговля</w>": 6190,
  "острова</w>": 6191,
  "взять</w>": 6192,
  "судьи</w>": 6193,
  "постоянной</w>": 6194,
  "мирового</w>": 6195,
  "2.2</w>": 6196,
  "XX": 6197,
  "ресурсам</w>": 6198,
  "общим</w>": 6199,
  "финансовую</w>": 6200,
  "похи": 6201,
  "стано": 6202,
  "островов</w>": 6203,
  "высокий</w>": 6204,
  "двусторонних</w>": 6205,
  "структуре</w>": 6206,
  "человеческого</w>": 6207,
  "финансов</w>": 6208,
  "ваниям</w>": 6209,
  "дубли": 6210,
  "третьих</w>": 6211,
  "Компания</w>": 6212,
  "no": 6213,
  "озабочен": 6214,
  "Польша</w>": 6215,
  "казни</w>": 6216,
  "чность</w>": 6217,
  "слуша": 6218,
  "моделей</w>": 6219,
  "выво": 6220,
  "изнасило": 6221,
  "нк": 6222,
  "нитель": 6223,
  "вных</w>": 6224,
  "кам": 6225,
  "Строительство</w>": 6226,
  "Центрально": 6227,
  "регулиру": 6228,
  "сту</w>": 6229,
  "tel</w>": 6230,
  "цеп": 6231,
  "Пункты</w>": 6232,
  "ответ": 6233,
  "чает</w>": 6234,
  "ph": 6235,
  "предполагает</w>": 6236,
  "щена</w>": 6237,
  "ho": 6238,
  "вашем</w>": 6239,
  "признать</w>": 6240,
  "тическая</w>": 6241,
  "млрд</w>": 6242,
  "лять</w>": 6243,
  "брони": 6244,
  "Учитывая</w>": 6245,
  "Первый</w>": 6246,
  "городских</w>": 6247,
  "ставит</w>": 6248,
  "соответствующее</w>": 6249,
  "Ереван</w>": 6250,
  "сче": 6251,
  "окла": 6252,
  "принципам</w>": 6253,
  "Зал</w>": 6254,
  "хро": 6255,
  "жден</w>": 6256,
  "форма</w>": 6257,
  "поиска</w>": 6258,
  "рациональ": 6259,
  "информированности</w>": 6260,
  "производстве</w>": 6261,
  "Евро": 6262,
  "Всемирная</w>": 6263,
  "африканского</w>": 6264,
  "секретариату</w>": 6265,
  "ЭК": 6266,
  "потери</w>": 6267,
  "свер": 6268,
  "НРС</w>": 6269,
  "валю": 6270,
  "направлена</w>": 6271,
  "Con": 6272,
  "туризма</w>": 6273,
  "мон": 6274,
  "ступ": 6275,
  "свобод": 6276,
  "контак": 6277,
  "Wed</w>": 6278,
  "терми": 6279,
  "финансированию</w>": 6280,
  "Тре": 6281,
  "ИК": 6282,
  "трудно</w>": 6283,
  "ы": 6284,
  "t.": 6285,
  "явления</w>": 6286,
  "вок</w>": 6287,
  "выводу</w>": 6288,
  "коммерческих</w>": 6289,
  "приводятся</w>": 6290,
  "сообщила</w>": 6291,
  "запад": 6292,
  "ОВЕ": 6293,
  "рованное</w>": 6294,
  "заявила</w>": 6295,
  "численность</w>": 6296,
  "перспективы</w>": 6297,
  "двой": 6298,
  "гро": 6299,
  "трибуна": 6300,
  "уведомления</w>": 6301,
  "оставаться</w>": 6302,
  "оплачи": 6303,
  "лю</w>": 6304,
  "нося": 6305,
  "ers</w>": 6306,
  "пост</w>": 6307,
  "семинар</w>": 6308,
  "бу</w>": 6309,
  "разверты": 6310,
  "контролем</w>": 6311,
  "получила</w>": 6312,
  "Тер": 6313,
  "кодекс</w>": 6314,
  "чрезвычайно</w>": 6315,
  "Сентябрь</w>": 6316,
  "Бар": 6317,
  "государственном</w>": 6318,
  "Афганистане</w>": 6319,
  "Объединенной</w>": 6320,
  "законодательные</w>": 6321,
  "скры": 6322,
  "персоналу</w>": 6323,
  "Дей": 6324,
  "iv</w>": 6325,
  "межучрежден": 6326,
  "важнейших</w>": 6327,
  "пересмотреть</w>": 6328,
  "стого</w>": 6329,
  "конкретной</w>": 6330,
  "отрасли</w>": 6331,
  "дискриминацией</w>": 6332,
  "масштаб": 6333,
  "полную</w>": 6334,
  "6.</w>": 6335,
  "мужчины</w>": 6336,
  "век</w>": 6337,
  "Уголовного</w>": 6338,
  "Афганистана</w>": 6339,
  "год": 6340,
  "гораздо</w>": 6341,
  "следующую</w>": 6342,
  "важности</w>": 6343,
  "двухгодичного</w>": 6344,
  "знаниями</w>": 6345,
  "ов</w>": 6346,
  "вка</w>": 6347,
  "сертифика": 6348,
  "институт</w>": 6349,
  "Куба</w>": 6350,
  "филь": 6351,
  "Автор</w>": 6352,
  "введения</w>": 6353,
  "слов</w>": 6354,
  "управлении</w>": 6355,
  "повестка</w>": 6356,
  "ment</w>": 6357,
  "Пер": 6358,
  "влена</w>": 6359,
  "электронных</w>": 6360,
  "дают</w>": 6361,
  "Финляндии</w>": 6362,
  "наруши": 6363,
  "человечества</w>": 6364,
  "повы": 6365,
  "ПРИ": 6366,
  "ведении</w>": 6367,
  "превен": 6368,
  "сный</w>": 6369,
  "Цена</w>": 6370,
  "выступления</w>": 6371,
  "обзор": 6372,
  "Corr.1</w>": 6373,
  "препятствий</w>": 6374,
  "готовность</w>": 6375,
  "подры": 6376,
  "искоренения</w>": 6377,
  "жу": 6378,
  "Право": 6379,
  "видео</w>": 6380,
  "вклада</w>": 6381,
  "рассматривает</w>": 6382,
  "азиат": 6383,
  "Ex": 6384,
  "Швеция</w>": 6385,
  "подня": 6386,
  "причиной</w>": 6387,
  "гами</w>": 6388,
  "ведущих</w>": 6389,
  "название</w>": 6390,
  "ставки</w>": 6391,
  "наказание</w>": 6392,
  "начина": 6393,
  "каз": 6394,
  "условиями</w>": 6395,
  "местными</w>": 6396,
  "председателя</w>": 6397,
  "Туркмени": 6398,
  "надо</w>": 6399,
  "действуя</w>": 6400,
  "семинара</w>": 6401,
  "Обще": 6402,
  "веща": 6403,
  "раскры": 6404,
  "аэропорта</w>": 6405,
  "АНИ": 6406,
  "совер": 6407,
  "хозяйств</w>": 6408,
  "станции</w>": 6409,
  "подряд": 6410,
  "смогут</w>": 6411,
  "РА</w>": 6412,
  "правового</w>": 6413,
  "Сотрудничество</w>": 6414,
  "курса</w>": 6415,
  "профессиональных</w>": 6416,
  "совершенно</w>": 6417,
  "ob": 6418,
  "открытия</w>": 6419,
  "смогли</w>": 6420,
  "36": 6421,
  "проис": 6422,
  "грам": 6423,
  "готовы</w>": 6424,
  "au": 6425,
  "Ге": 6426,
  "оказывают</w>": 6427,
  "компонен": 6428,
  "оратор</w>": 6429,
  "ПК</w>": 6430,
  "Mon": 6431,
  "гна</w>": 6432,
  "правилами</w>": 6433,
  "Цен": 6434,
  "обследо": 6435,
  "исто": 6436,
  "комплексной</w>": 6437,
  "Газа</w>": 6438,
  "ционном</w>": 6439,
  "связано</w>": 6440,
  "мена</w>": 6441,
  "ибо</w>": 6442,
  "рекомендуется</w>": 6443,
  "льник</w>": 6444,
  "чаще</w>": 6445,
  "Бог</w>": 6446,
  "11": 6447,
  "вторых</w>": 6448,
  "раль": 6449,
  "занимает</w>": 6450,
  "развертывания</w>": 6451,
  "Log</w>": 6452,
  "осуществляются</w>": 6453,
  "виду</w>": 6454,
  "следить</w>": 6455,
  "тща": 6456,
  "Полу": 6457,
  "отбора</w>": 6458,
  "палестинской</w>": 6459,
  "структура</w>": 6460,
  "Сою": 6461,
  ".48</w>": 6462,
  "me": 6463,
  "Sat</w>": 6464,
  "существо": 6465,
  "Юго</w>": 6466,
  "процессом</w>": 6467,
  "вшейся</w>": 6468,
  "прогнози": 6469,
  "ai": 6470,
  "ЕД": 6471,
  "22": 6472,
  "жд": 6473,
  "свобо": 6474,
  "боль": 6475,
  "очевид": 6476,
  "рением</w>": 6477,
  "источником</w>": 6478,
  "теми</w>": 6479,
  "проведена</w>": 6480,
  "излага": 6481,
  "тила</w>": 6482,
  "двухгоди": 6483,
  "эксперты</w>": 6484,
  "прось": 6485,
  "парламента</w>": 6486,
  "включение</w>": 6487,
  "возможностью</w>": 6488,
  "CDATA</w>": 6489,
  "вакан": 6490,
  "понимание</w>": 6491,
  "смеж": 6492,
  "боеприпасов</w>": 6493,
  "современных</w>": 6494,
  "нарушениях</w>": 6495,
  "iz": 6496,
  "зал</w>": 6497,
  "Шри</w>": 6498,
  "над": 6499,
  "жей</w>": 6500,
  "1.2</w>": 6501,
  "религи": 6502,
  "Информа": 6503,
  "3.1</w>": 6504,
  "аре": 6505,
  ".ua</w>": 6506,
  "сии</w>": 6507,
  "стандартам</w>": 6508,
  "ума</w>": 6509,
  "информировать</w>": 6510,
  "Хи": 6511,
  "возможностями</w>": 6512,
  "мя</w>": 6513,
  "ОА": 6514,
  "щимися</w>": 6515,
  "централизо": 6516,
  "ванная</w>": 6517,
  "питание</w>": 6518,
  "Нет</w>": 6519,
  "рассмотрены</w>": 6520,
  "адресу</w>": 6521,
  "косвен": 6522,
  "реализу": 6523,
  "101</w>": 6524,
  "науч": 6525,
  "относи": 6526,
  "правилом</w>": 6527,
  "пересмотр": 6528,
  "ссылки</w>": 6529,
  "Доклад": 6530,
  "рных</w>": 6531,
  "wor": 6532,
  "DA": 6533,
  "помещения</w>": 6534,
  "сказа": 6535,
  "жестокого</w>": 6536,
  "зер": 6537,
  "Сальва": 6538,
  "gr": 6539,
  "Дол": 6540,
  "обоих</w>": 6541,
  "здания</w>": 6542,
  "проведен</w>": 6543,
  "дро": 6544,
  "транзи": 6545,
  "нормами</w>": 6546,
  "мень": 6547,
  "мати": 6548,
  "фикация</w>": 6549,
  "проблематики</w>": 6550,
  "уведо": 6551,
  "ly</w>": 6552,
  "Рамо": 6553,
  "изменении</w>": 6554,
  "April</w>": 6555,
  "выработки</w>": 6556,
  "расчета</w>": 6557,
  "обращаться</w>": 6558,
  "задачей</w>": 6559,
  "мской</w>": 6560,
  "бере": 6561,
  "лишения</w>": 6562,
  "СР": 6563,
  "обладает</w>": 6564,
  "ub": 6565,
  "урегули": 6566,
  "резюме</w>": 6567,
  "недав": 6568,
  "ляются</w>": 6569,
  "Количество</w>": 6570,
  "стремится</w>": 6571,
  "Отель</w>": 6572,
  "ностями</w>": 6573,
  "примет</w>": 6574,
  "дите</w>": 6575,
  "лях</w>": 6576,
  "производится</w>": 6577,
  "нетерпимости</w>": 6578,
  "обновления</w>": 6579,
  "новыми</w>": 6580,
  "зацию</w>": 6581,
  "равноправи": 6582,
  "подачи</w>": 6583,
  "мнениями</w>": 6584,
  "используемых</w>": 6585,
  "подчерки": 6586,
  "УСВН</w>": 6587,
  "Национальная</w>": 6588,
  "наша</w>": 6589,
  "МООНС": 6590,
  "вспомогательного</w>": 6591,
  "дил</w>": 6592,
  "предложила</w>": 6593,
  "народу</w>": 6594,
  "объясняется</w>": 6595,
  "кти": 6596,
  "тики</w>": 6597,
  "нями</w>": 6598,
  "автомобилей</w>": 6599,
  "CR": 6600,
  "случай</w>": 6601,
  "ООО": 6602,
  "поя": 6603,
  "Sun</w>": 6604,
  "моей</w>": 6605,
  "страхо": 6606,
  "подходы</w>": 6607,
  "выгод": 6608,
  "официальное</w>": 6609,
  "tem": 6610,
  "Ряд</w>": 6611,
  "ЕВ": 6612,
  "ik": 6613,
  "Фран": 6614,
  "ценностей</w>": 6615,
  "дни</w>": 6616,
  "способ</w>": 6617,
  "тенден": 6618,
  "рен</w>": 6619,
  "изгото": 6620,
  "оби": 6621,
  "претензий</w>": 6622,
  "цу</w>": 6623,
  "матиче": 6624,
  "ati": 6625,
  "обществом</w>": 6626,
  "Украине</w>": 6627,
  "сформи": 6628,
  "мия</w>": 6629,
  "института</w>": 6630,
  "вке</w>": 6631,
  "цов</w>": 6632,
  "высоком</w>": 6633,
  "финансовыми</w>": 6634,
  "яр": 6635,
  "tremulous.net</w>": 6636,
  "Сам": 6637,
  "one</w>": 6638,
  "правозащит": 6639,
  "проводимых</w>": 6640,
  "лесов</w>": 6641,
  "организовать</w>": 6642,
  "рять</w>": 6643,
  "February</w>": 6644,
  "реб": 6645,
  "определи": 6646,
  "духов": 6647,
  "хранение</w>": 6648,
  "очеред": 6649,
  "ухода</w>": 6650,
  "стан</w>": 6651,
  "you</w>": 6652,
  "безнаказан": 6653,
  "выводов</w>": 6654,
  "статусе</w>": 6655,
  "важный</w>": 6656,
  "жу</w>": 6657,
  "масштабы</w>": 6658,
  "рынков</w>": 6659,
  "проверке</w>": 6660,
  "труд</w>": 6661,
  "Индонезии</w>": 6662,
  "превы": 6663,
  "чрезмер": 6664,
  "недоста": 6665,
  "резолю": 6666,
  "би</w>": 6667,
  "щему</w>": 6668,
  "стана</w>": 6669,
  "стской</w>": 6670,
  "неприемле": 6671,
  "свидетелей</w>": 6672,
  "людям</w>": 6673,
  "Председа": 6674,
  "Одним</w>": 6675,
  "Араб": 6676,
  "лок</w>": 6677,
  "выбро": 6678,
  "ВС</w>": 6679,
  "Нидерландов</w>": 6680,
  "направить</w>": 6681,
  "токси": 6682,
  "обя": 6683,
  "печати</w>": 6684,
  "ate": 6685,
  "программного</w>": 6686,
  "ред": 6687,
  "устанавли": 6688,
  "ляется</w>": 6689,
  "нести</w>": 6690,
  "подобных</w>": 6691,
  "обвинения</w>": 6692,
  "проек": 6693,
  "семь</w>": 6694,
  "лин</w>": 6695,
  "оценить</w>": 6696,
  "меньшин": 6697,
  "ЮНОДК</w>": 6698,
  "народы</w>": 6699,
  "личных</w>": 6700,
  "oo": 6701,
  "глав</w>": 6702,
  "рация</w>": 6703,
  "председатель</w>": 6704,
  "языков</w>": 6705,
  "ган</w>": 6706,
  "Танза": 6707,
  "Кувейта</w>": 6708,
  "партий</w>": 6709,
  "иногда</w>": 6710,
  "Финансирование</w>": 6711,
  "размещения</w>": 6712,
  "давление</w>": 6713,
  "расположен</w>": 6714,
  "скорость</w>": 6715,
  "внесен": 6716,
  "целый</w>": 6717,
  "КОН": 6718,
  "рем</w>": 6719,
  "опира": 6720,
  "Чи": 6721,
  "комплекса</w>": 6722,
  "Одна</w>": 6723,
  "совершения</w>": 6724,
  "обычных</w>": 6725,
  "влен": 6726,
  "0.": 6727,
  "умень": 6728,
  "третьего</w>": 6729,
  "нашем</w>": 6730,
  "причинам</w>": 6731,
  "СМИ</w>": 6732,
  "захва": 6733,
  "Aug</w>": 6734,
  "РФ</w>": 6735,
  "цик": 6736,
  "процедура</w>": 6737,
  "большая</w>": 6738,
  "поддержать</w>": 6739,
  "т.д</w>": 6740,
  "встре": 6741,
  "Вклю": 6742,
  "Упра": 6743,
  "совершенствование</w>": 6744,
  "заключении</w>": 6745,
  "Группой</w>": 6746,
  "установление</w>": 6747,
  "эффективному</w>": 6748,
  "кни": 6749,
  "подвергаются</w>": 6750,
  "КЛ": 6751,
  "примирения</w>": 6752,
  "десятилетия</w>": 6753,
  "хло": 6754,
  "разрешение</w>": 6755,
  "сферу</w>": 6756,
  "вторая</w>": 6757,
  "изготови": 6758,
  "призываем</w>": 6759,
  "ссиях</w>": 6760,
  "марки": 6761,
  "последующие</w>": 6762,
  "ссе": 6763,
  "единства</w>": 6764,
  "ря</w>": 6765,
  "министер": 6766,
  "торго": 6767,
  "38": 6768,
  "преступление</w>": 6769,
  "ID</w>": 6770,
  "НЫХ</w>": 6771,
  "B.": 6772,
  "используя</w>": 6773,
  "Данные</w>": 6774,
  "Ее</w>": 6775,
  "какое</w>": 6776,
  "тр": 6777,
  "тать</w>": 6778,
  "убеждений</w>": 6779,
  "пита": 6780,
  "репродуктивного</w>": 6781,
  "подростков</w>": 6782,
  "be</w>": 6783,
  "предлагаемого</w>": 6784,
  "Вене</w>": 6785,
  "показывает</w>": 6786,
  "рены</w>": 6787,
  "рабочая</w>": 6788,
  "Острова</w>": 6789,
  "созна": 6790,
  "дно</w>": 6791,
  "избран": 6792,
  "обозна": 6793,
  "рейсы</w>": 6794,
  "поездок</w>": 6795,
  "Руанде</w>": 6796,
  "деньги</w>": 6797,
  "лениям</w>": 6798,
  "лё": 6799,
  "Кот</w>": 6800,
  "докумен": 6801,
  "рного</w>": 6802,
  "виновных</w>": 6803,
  "таком</w>": 6804,
  "Техниче": 6805,
  "НЫЕ</w>": 6806,
  "ян</w>": 6807,
  "Соглашение</w>": 6808,
  "ТЕЛЬ": 6809,
  "облегчения</w>": 6810,
  "тский</w>": 6811,
  "принята</w>": 6812,
  "проблемати": 6813,
  "ложить</w>": 6814,
  "критерии</w>": 6815,
  "действию</w>": 6816,
  "испра": 6817,
  "оккупации</w>": 6818,
  "PR": 6819,
  "подчи": 6820,
  "страницу</w>": 6821,
  "восстановление</w>": 6822,
  "щийся</w>": 6823,
  "дали</w>": 6824,
  "рин": 6825,
  "истори": 6826,
  "отмы": 6827,
  "критери": 6828,
  "исключить</w>": 6829,
  "рту": 6830,
  "внесенными</w>": 6831,
  "ланд": 6832,
  "слу": 6833,
  "влияния</w>": 6834,
  "собра": 6835,
  "обзо": 6836,
  "сообра": 6837,
  "сель": 6838,
  "настоящий</w>": 6839,
  "выполнением</w>": 6840,
  "лки</w>": 6841,
  "рынки</w>": 6842,
  "средних</w>": 6843,
  "множество</w>": 6844,
  "многочисленных</w>": 6845,
  "ваемый</w>": 6846,
  "отдыха</w>": 6847,
  "макро": 6848,
  "дных</w>": 6849,
  "провинции</w>": 6850,
  "итоге</w>": 6851,
  "безотлага": 6852,
  "вытека": 6853,
  "шать</w>": 6854,
  "Делега": 6855,
  "секретариа": 6856,
  "вода</w>": 6857,
  "служащих</w>": 6858,
  "прочие</w>": 6859,
  "сектораль": 6860,
  "взаимодействие</w>": 6861,
  "включенных</w>": 6862,
  "щегося</w>": 6863,
  "ГО</w>": 6864,
  "вной</w>": 6865,
  "задержания</w>": 6866,
  "sm": 6867,
  "ведется</w>": 6868,
  "аль</w>": 6869,
  "ссо": 6870,
  "относящихся</w>": 6871,
  "ницы</w>": 6872,
  "медицин": 6873,
  "нок</w>": 6874,
  "нищетой</w>": 6875,
  "Оратор</w>": 6876,
  "понять</w>": 6877,
  "вашей</w>": 6878,
  "ЕНИ": 6879,
  "размера</w>": 6880,
  "преж": 6881,
  "неоднократно</w>": 6882,
  "исключения</w>": 6883,
  "последней</w>": 6884,
  "Page</w>": 6885,
  "суд": 6886,
  "дальнейшему</w>": 6887,
  "Была</w>": 6888,
  "вле": 6889,
  "промежуточ": 6890,
  "оккупи": 6891,
  "высокую</w>": 6892,
  "прогрессе</w>": 6893,
  "подходя": 6894,
  "международная</w>": 6895,
  "Y</w>": 6896,
  "денежных</w>": 6897,
  "разнообраз": 6898,
  "ФИ": 6899,
  "Да</w>": 6900,
  "Sep</w>": 6901,
  "временное</w>": 6902,
  "продовольствия</w>": 6903,
  "разбира": 6904,
  "видео": 6905,
  "указанной</w>": 6906,
  "источники</w>": 6907,
  "л.</w>": 6908,
  "Такая</w>": 6909,
  "тон": 6910,
  "Ху": 6911,
  "морского</w>": 6912,
  "необ": 6913,
  "лек": 6914,
  "сообществу</w>": 6915,
  "север": 6916,
  "дополнительного</w>": 6917,
  "БАПОР</w>": 6918,
  "жается</w>": 6919,
  "женных</w>": 6920,
  "части": 6921,
  "требованиями</w>": 6922,
  "объекты</w>": 6923,
  "Резолюция</w>": 6924,
  "ter": 6925,
  "другое</w>": 6926,
  "Подпись</w>": 6927,
  "заменить</w>": 6928,
  "лучших</w>": 6929,
  "образи": 6930,
  "рыно": 6931,
  "временно</w>": 6932,
  "актив": 6933,
  "См.</w>": 6934,
  "Mon</w>": 6935,
  "нехва": 6936,
  "Время</w>": 6937,
  "id</w>": 6938,
  "гости": 6939,
  "сдержи": 6940,
  "инициативе</w>": 6941,
  "ами</w>": 6942,
  "ухуд": 6943,
  "нарушением</w>": 6944,
  "террористических</w>": 6945,
  "незамедлительно</w>": 6946,
  "вшими</w>": 6947,
  "имеющиеся</w>": 6948,
  "претензии</w>": 6949,
  "люби": 6950,
  "сылки</w>": 6951,
  "самостоя": 6952,
  "Обзор</w>": 6953,
  "навыков</w>": 6954,
  "базу</w>": 6955,
  "гер": 6956,
  "V.</w>": 6957,
  "подо": 6958,
  "Декла": 6959,
  "тировать</w>": 6960,
  "пят": 6961,
  "конкретного</w>": 6962,
  "метри": 6963,
  "операциях</w>": 6964,
  "Индонезия</w>": 6965,
  "эквивален": 6966,
  "ЛО": 6967,
  "покупа": 6968,
  "Джи": 6969,
  "ess</w>": 6970,
  "вре": 6971,
  "do": 6972,
  "ун": 6973,
  "опреде": 6974,
  "автомоби": 6975,
  "ом</w>": 6976,
  "компенсацию</w>": 6977,
  "выступая</w>": 6978,
  "собствен": 6979,
  "периодического</w>": 6980,
  "изучение</w>": 6981,
  "арен": 6982,
  "меся": 6983,
  "колле": 6984,
  "физических</w>": 6985,
  "хом</w>": 6986,
  "Герцеговины</w>": 6987,
  "круг": 6988,
  "первые</w>": 6989,
  "формах</w>": 6990,
  "вшегося</w>": 6991,
  "мощ": 6992,
  "руководи": 6993,
  "Алба": 6994,
  "шь</w>": 6995,
  "напра": 6996,
  "сессию</w>": 6997,
  "Диа": 6998,
  "планирование</w>": 6999,
  "Граждан": 7000,
  "формате</w>": 7001,
  "ленной</w>": 7002,
  "Пятьдесят</w>": 7003,
  "праши": 7004,
  "дорог</w>": 7005,
  "обеих</w>": 7006,
  "техниче": 7007,
  "отчетный</w>": 7008,
  "Допол": 7009,
  "прибре": 7010,
  "клю": 7011,
  "передать</w>": 7012,
  "ВСООН": 7013,
  "Инициа": 7014,
  "изменению</w>": 7015,
  "стров</w>": 7016,
  "темпы</w>": 7017,
  "зелен": 7018,
  "уч": 7019,
  "продукта</w>": 7020,
  "проходи": 7021,
  "син": 7022,
  "Jan</w>": 7023,
  "успеха</w>": 7024,
  "типов</w>": 7025,
  "зии</w>": 7026,
  "комиссий</w>": 7027,
  "потенциа": 7028,
  "обсудить</w>": 7029,
  "строй": 7030,
  "log": 7031,
  "совершенство": 7032,
  "Опреде": 7033,
  "налогообложения</w>": 7034,
  "дальнейшем</w>": 7035,
  "Экономический</w>": 7036,
  "возникновения</w>": 7037,
  "семь": 7038,
  "джа</w>": 7039,
  "сожаление</w>": 7040,
  "профи": 7041,
  "Ивуа": 7042,
  "августе</w>": 7043,
  "view</w>": 7044,
  "ровало</w>": 7045,
  "Агентства</w>": 7046,
  "целенапра": 7047,
  "En": 7048,
  "убеди": 7049,
  "народам</w>": 7050,
  "внес</w>": 7051,
  "совершенные</w>": 7052,
  "ознакомиться</w>": 7053,
  "поставок</w>": 7054,
  "КМ": 7055,
  "произошло</w>": 7056,
  "пострадавших</w>": 7057,
  "моего</w>": 7058,
  "таль": 7059,
  "уста": 7060,
  "КР</w>": 7061,
  "тельстве</w>": 7062,
  "возник": 7063,
  "стабилизации</w>": 7064,
  "ёт</w>": 7065,
  "лено</w>": 7066,
  "Мали</w>": 7067,
  "выдачи</w>": 7068,
  "Узбекистан</w>": 7069,
  "увеличению</w>": 7070,
  "выбора</w>": 7071,
  "прекрас": 7072,
  "предусмотрены</w>": 7073,
  "смяг": 7074,
  "лез": 7075,
  "Йе": 7076,
  "Колумбии</w>": 7077,
  "социальное</w>": 7078,
  "Аргентина</w>": 7079,
  "Эль</w>": 7080,
  "Азербайджан</w>": 7081,
  "интегра": 7082,
  "демографи": 7083,
  "провели</w>": 7084,
  "семи</w>": 7085,
  "Департаментом</w>": 7086,
  "Израилем</w>": 7087,
  "дки</w>": 7088,
  "транснациональной</w>": 7089,
  "ченное</w>": 7090,
  "зона</w>": 7091,
  "странице</w>": 7092,
  "первым</w>": 7093,
  "муся</w>": 7094,
  "ответов</w>": 7095,
  "Jul</w>": 7096,
  "тному</w>": 7097,
  "кси": 7098,
  "союзом</w>": 7099,
  "ep": 7100,
  "продви": 7101,
  "102</w>": 7102,
  "исполнителя</w>": 7103,
  "далеко</w>": 7104,
  "продолжительность</w>": 7105,
  "последний</w>": 7106,
  "принципе</w>": 7107,
  "плат": 7108,
  "Источник</w>": 7109,
  "пенитенциар": 7110,
  "Объ": 7111,
  "судебные</w>": 7112,
  "Сторонам</w>": 7113,
  "освобождения</w>": 7114,
  "El</w>": 7115,
  "Sh": 7116,
  "борьба</w>": 7117,
  "супру": 7118,
  "никакого</w>": 7119,
  "ДНЯО</w>": 7120,
  "солидарности</w>": 7121,
  "Контро": 7122,
  "Услуги</w>": 7123,
  "Филип": 7124,
  "становятся</w>": 7125,
  "прозра": 7126,
  "Фор": 7127,
  "фактов</w>": 7128,
  "лидеров</w>": 7129,
  "мероприя": 7130,
  "ссией</w>": 7131,
  "самоопределение</w>": 7132,
  "изуча": 7133,
  "перспек": 7134,
  "довольно</w>": 7135,
  "выпуска</w>": 7136,
  "Специальному</w>": 7137,
  "чу</w>": 7138,
  "морскому</w>": 7139,
  "130</w>": 7140,
  "беременности</w>": 7141,
  "af": 7142,
  "компетенции</w>": 7143,
  "граждане</w>": 7144,
  "исполнитель": 7145,
  "стер</w>": 7146,
  "планирует</w>": 7147,
  "усиления</w>": 7148,
  "сельскохозяйственной</w>": 7149,
  "миростроительства</w>": 7150,
  "рассмотре": 7151,
  "ден</w>": 7152,
  "проектом</w>": 7153,
  "данная</w>": 7154,
  "координация</w>": 7155,
  "подчеркну": 7156,
  "se</w>": 7157,
  "Бельгия</w>": 7158,
  "другую</w>": 7159,
  "достовер": 7160,
  "пыта": 7161,
  "интере": 7162,
  "Пале": 7163,
  "собственных</w>": 7164,
  "Штатах</w>": 7165,
  "Ираке</w>": 7166,
  "область</w>": 7167,
  "получает</w>": 7168,
  "управлением</w>": 7169,
  "ждено</w>": 7170,
  "финансовый</w>": 7171,
  "узнать</w>": 7172,
  "пото": 7173,
  "тания</w>": 7174,
  "ДИ": 7175,
  "прису": 7176,
  "лага": 7177,
  "моло": 7178,
  "телях</w>": 7179,
  "отказа</w>": 7180,
  "закончи": 7181,
  "Правительства</w>": 7182,
  "возглавля": 7183,
  "ценности</w>": 7184,
  "жают</w>": 7185,
  "сообщениям</w>": 7186,
  "обеспечением</w>": 7187,
  "соответ": 7188,
  "пехот": 7189,
  "art": 7190,
  "расследо": 7191,
  "официальном</w>": 7192,
  "all</w>": 7193,
  "договоры</w>": 7194,
  "Александр</w>": 7195,
  "Хар": 7196,
  "енными</w>": 7197,
  "пожилых</w>": 7198,
  "площади</w>": 7199,
  "подробную</w>": 7200,
  "Аналоги": 7201,
  "тематических</w>": 7202,
  "тром</w>": 7203,
  "разъясни": 7204,
  "Канцелярии</w>": 7205,
  "бедности</w>": 7206,
  "недель</w>": 7207,
  "намер": 7208,
  "Исламская</w>": 7209,
  "существу</w>": 7210,
  "турой</w>": 7211,
  "выдвину": 7212,
  "репатриа": 7213,
  "модель</w>": 7214,
  "нераспространении</w>": 7215,
  "ПРЕДСЕДАТЕЛ": 7216,
  "списке</w>": 7217,
  "Еже": 7218,
  "гар": 7219,
  "формированию</w>": 7220,
  "испо": 7221,
  "сторону</w>": 7222,
  "Таджикистан</w>": 7223,
  "интернет</w>": 7224,
  "чет</w>": 7225,
  "рной</w>": 7226,
  "тий</w>": 7227,
  "конвенция</w>": 7228,
  "сторона</w>": 7229,
  "распо": 7230,
  "дву": 7231,
  "активи": 7232,
  "Господь</w>": 7233,
  "отчетов</w>": 7234,
  "49": 7235,
  "предше": 7236,
  "жает</w>": 7237,
  "ay</w>": 7238,
  "экономическая</w>": 7239,
  "атомной</w>": 7240,
  "меморанду": 7241,
  "потенциальных</w>": 7242,
  "университе": 7243,
  "Авто": 7244,
  "ствовал</w>": 7245,
  "резолюциях</w>": 7246,
  "распространя": 7247,
  "Финляндия</w>": 7248,
  "дело": 7249,
  "перви": 7250,
  "территориаль": 7251,
  "Эква": 7252,
  "росту</w>": 7253,
  ",5</w>": 7254,
  "инструк": 7255,
  "иностранцев</w>": 7256,
  "населенных</w>": 7257,
  "тили</w>": 7258,
  "поставщиков</w>": 7259,
  "положить</w>": 7260,
  "исчезнов": 7261,
  "Здесь</w>": 7262,
  "жили": 7263,
  "потреби": 7264,
  "никакой</w>": 7265,
  "подписания</w>": 7266,
  "тическую</w>": 7267,
  "выполнен": 7268,
  "ic</w>": 7269,
  "бедных</w>": 7270,
  "МИД</w>": 7271,
  "кло": 7272,
  "СН": 7273,
  "долгосрочной</w>": 7274,
  "берите</w>": 7275,
  "приступи": 7276,
  "спек": 7277,
  "круга</w>": 7278,
  "рекла": 7279,
  "равной</w>": 7280,
  "внутри": 7281,
  "пресе": 7282,
  "Руковод": 7283,
  "отделение</w>": 7284,
  "ждению</w>": 7285,
  "отража": 7286,
  "гендерным</w>": 7287,
  "Tran": 7288,
  "сегодняшний</w>": 7289,
  "коро": 7290,
  "версии</w>": 7291,
  "Рио</w>": 7292,
  "инфра": 7293,
  "местным</w>": 7294,
  "поддержа": 7295,
  "лых</w>": 7296,
  "чики</w>": 7297,
  "коренного</w>": 7298,
  "одному</w>": 7299,
  "вось": 7300,
  "Резюме</w>": 7301,
  "осуществи": 7302,
  "регион</w>": 7303,
  "воду</w>": 7304,
  "контакты</w>": 7305,
  "консультан": 7306,
  "прекращении</w>": 7307,
  "прошлого</w>": 7308,
  "Каи": 7309,
  "осмо": 7310,
  "риск</w>": 7311,
  "орга": 7312,
  "104</w>": 7313,
  "специально</w>": 7314,
  "характеризу": 7315,
  "присутствие</w>": 7316,
  "private</w>": 7317,
  "1986</w>": 7318,
  "Пот": 7319,
  "промышленных</w>": 7320,
  "вооруженные</w>": 7321,
  "собственные</w>": 7322,
  "контроли": 7323,
  "состоялось</w>": 7324,
  "IX</w>": 7325,
  "КК</w>": 7326,
  "возможного</w>": 7327,
  "7.</w>": 7328,
  "Jun</w>": 7329,
  "Май": 7330,
  "целесообраз": 7331,
  "комплекс</w>": 7332,
  "Договор</w>": 7333,
  "бюллетен": 7334,
  "объединения</w>": 7335,
  "Сме": 7336,
  "окружающую</w>": 7337,
  "Общий</w>": 7338,
  "незаконным</w>": 7339,
  "ev": 7340,
  "Судан</w>": 7341,
  "внеш": 7342,
  "пользуются</w>": 7343,
  "ответственных</w>": 7344,
  "лой</w>": 7345,
  "армии</w>": 7346,
  "варианты</w>": 7347,
  "относя": 7348,
  "подчеркивая</w>": 7349,
  "Повестки</w>": 7350,
  "воде</w>": 7351,
  "экономическому</w>": 7352,
  "признается</w>": 7353,
  "39": 7354,
  "судебное</w>": 7355,
  "ознаком": 7356,
  "перечня</w>": 7357,
  "45": 7358,
  "дополнительно</w>": 7359,
  "годом</w>": 7360,
  "103</w>": 7361,
  "оружи": 7362,
  "пан": 7363,
  "приведет</w>": 7364,
  "выбрать</w>": 7365,
  "университета</w>": 7366,
  "средней</w>": 7367,
  "поле</w>": 7368,
  "предполагается</w>": 7369,
  "статистические</w>": 7370,
  "message</w>": 7371,
  "ровку</w>": 7372,
  "совокуп": 7373,
  "Ад": 7374,
  "ОПОГ</w>": 7375,
  "никто</w>": 7376,
  "ссион": 7377,
  "результат</w>": 7378,
  "интеллектуальной</w>": 7379,
  "транспортные</w>": 7380,
  "комната</w>": 7381,
  "занимаются</w>": 7382,
  "аппара": 7383,
  "призывом</w>": 7384,
  "побу": 7385,
  "виде": 7386,
  "шаются</w>": 7387,
  "состав": 7388,
  "фор": 7389,
  "воли</w>": 7390,
  "независимого</w>": 7391,
  "Использование</w>": 7392,
  "семина": 7393,
  "либера": 7394,
  "обновлен": 7395,
  "указал</w>": 7396,
  "тихоокеан": 7397,
  "потребителей</w>": 7398,
  "вызо": 7399,
  "вопросе</w>": 7400,
  "привели</w>": 7401,
  "Специальной</w>": 7402,
  "обратить</w>": 7403,
  "двига": 7404,
  "воздуш": 7405,
  "высоких</w>": 7406,
  "студентов</w>": 7407,
  "заинтересованные</w>": 7408,
  "вынес": 7409,
  "bi": 7410,
  "представительство</w>": 7411,
  "коммуникации</w>": 7412,
  "заболе": 7413,
  "ём</w>": 7414,
  "независимость</w>": 7415,
  "мерами</w>": 7416,
  "зай": 7417,
  "силь": 7418,
  "получении</w>": 7419,
  "указанием</w>": 7420,
  "временные</w>": 7421,
  "Австрии</w>": 7422,
  "пользо": 7423,
  "доказательства</w>": 7424,
  "отсутствует</w>": 7425,
  "сыла": 7426,
  "культурной</w>": 7427,
  "Протокол</w>": 7428,
  "шести": 7429,
  "законности</w>": 7430,
  "чается</w>": 7431,
  "предыдущие</w>": 7432,
  "голов": 7433,
  "55": 7434,
  "загрязни": 7435,
  "gallery</w>": 7436,
  "отказ</w>": 7437,
  "безработицы</w>": 7438,
  "age": 7439,
  "кт</w>": 7440,
  "прокуро": 7441,
  "НУ": 7442,
  "превыша": 7443,
  "первое</w>": 7444,
  "отражение</w>": 7445,
  "контактов</w>": 7446,
  "нашим</w>": 7447,
  "испыты": 7448,
  "змом</w>": 7449,
  "соответству": 7450,
  "заслуша": 7451,
  "сия</w>": 7452,
  "предлагаемых</w>": 7453,
  "Дру": 7454,
  "ИК</w>": 7455,
  "коррупцией</w>": 7456,
  "мени": 7457,
  "вооружениями</w>": 7458,
  "развивать</w>": 7459,
  "довой</w>": 7460,
  "успешного</w>": 7461,
  "восьми</w>": 7462,
  "amp</w>": 7463,
  "Социальный</w>": 7464,
  "операциям</w>": 7465,
  "ляр": 7466,
  "ходатай": 7467,
  "Бога</w>": 7468,
  "защитой</w>": 7469,
  "используют</w>": 7470,
  "аб": 7471,
  "приобретения</w>": 7472,
  "региональ": 7473,
  "жертвы</w>": 7474,
  "выразила</w>": 7475,
  "консультантов</w>": 7476,
  "продела": 7477,
  "уголовной</w>": 7478,
  "дель</w>": 7479,
  "обращается</w>": 7480,
  "влия": 7481,
  "лый</w>": 7482,
  "Найроби</w>": 7483,
  "направленной</w>": 7484,
  "нику</w>": 7485,
  "сложи": 7486,
  "ЦР": 7487,
  "мониторинг</w>": 7488,
  "соединения</w>": 7489,
  "фонды</w>": 7490,
  "цвета</w>": 7491,
  "производителей</w>": 7492,
  "..</w>": 7493,
  "компонента</w>": 7494,
  "оперативного</w>": 7495,
  "тури": 7496,
  "ам": 7497,
  "масштабах</w>": 7498,
  "лежит</w>": 7499,
  "разработаны</w>": 7500,
  "Союза</w>": 7501,
  "надеемся</w>": 7502,
  "культур</w>": 7503,
  "тоже</w>": 7504,
  "скон": 7505,
  "План</w>": 7506,
  "Мексики</w>": 7507,
  "Суще": 7508,
  "африканской</w>": 7509,
  "ОН": 7510,
  "прямых</w>": 7511,
  "совершенствованию</w>": 7512,
  "ФА": 7513,
  "Колумбия</w>": 7514,
  "ЭКО": 7515,
  "имуще": 7516,
  "проявля": 7517,
  "продолжения</w>": 7518,
  "подтвердить</w>": 7519,
  "препровожда": 7520,
  "моя</w>": 7521,
  "Send</w>": 7522,
  "итоги</w>": 7523,
  "нище": 7524,
  "уголовному</w>": 7525,
  "1980</w>": 7526,
  "всеобщего</w>": 7527,
  "приветству": 7528,
  "осуществляемых</w>": 7529,
  "значительного</w>": 7530,
  "организациях</w>": 7531,
  "принимаемых</w>": 7532,
  "ie</w>": 7533,
  "вина</w>": 7534,
  "Oct</w>": 7535,
  "Федера": 7536,
  "ric": 7537,
  "site</w>": 7538,
  "нского</w>": 7539,
  "новом</w>": 7540,
  "Go</w>": 7541,
  "выдаче</w>": 7542,
  "Ира": 7543,
  "Пала": 7544,
  "состоялась</w>": 7545,
  "трево": 7546,
  "оккупированной</w>": 7547,
  "руя</w>": 7548,
  "раб": 7549,
  "суточ": 7550,
  "составила</w>": 7551,
  "111</w>": 7552,
  "RC</w>": 7553,
  "th</w>": 7554,
  "поле": 7555,
  "КОМИ": 7556,
  "местной</w>": 7557,
  "фотографии</w>": 7558,
  "3.2</w>": 7559,
  "слоев</w>": 7560,
  "тическими</w>": 7561,
  "расширен": 7562,
  "мораль": 7563,
  "воин": 7564,
  "стной</w>": 7565,
  "смертной</w>": 7566,
  "страницы</w>": 7567,
  "Руанды</w>": 7568,
  "Алжи": 7569,
  "особых</w>": 7570,
  "разрабатывать</w>": 7571,
  "зем": 7572,
  "соответствуют</w>": 7573,
  "106</w>": 7574,
  "годо": 7575,
  "специфи": 7576,
  "глубоко</w>": 7577,
  "различи": 7578,
  "тюре": 7579,
  "щенные</w>": 7580,
  "рекоменда": 7581,
  "жным</w>": 7582,
  "гидро": 7583,
  "Par": 7584,
  "метров</w>": 7585,
  "информационные</w>": 7586,
  "ГА": 7587,
  "участвовали</w>": 7588,
  "домов</w>": 7589,
  "соблюдении</w>": 7590,
  "Tue</w>": 7591,
  "ang": 7592,
  "продвижения</w>": 7593,
  "провер": 7594,
  "политическую</w>": 7595,
  "соответствовать</w>": 7596,
  "инструменты</w>": 7597,
  "законода": 7598,
  "горизон": 7599,
  "связанными</w>": 7600,
  "112</w>": 7601,
  "МЕН": 7602,
  "набора</w>": 7603,
  "дорожного</w>": 7604,
  "Проведение</w>": 7605,
  ".com": 7606,
  "Права</w>": 7607,
  "Подготовка</w>": 7608,
  "ВЛ": 7609,
  "изменениями</w>": 7610,
  "ходу</w>": 7611,
  "международную</w>": 7612,
  "предъя": 7613,
  "инвалидности</w>": 7614,
  "ЩИ": 7615,
  "сре": 7616,
  "Такое</w>": 7617,
  "тепло": 7618,
  "гового</w>": 7619,
  "матери</w>": 7620,
  "чают</w>": 7621,
  "ведомо": 7622,
  "устано": 7623,
  "гене": 7624,
  "суль": 7625,
  "ail": 7626,
  "бюджетные</w>": 7627,
  "специальный</w>": 7628,
  "47": 7629,
  "урегулированию</w>": 7630,
  "меха": 7631,
  "вла": 7632,
  "рыболов": 7633,
  "онлайн</w>": 7634,
  "повестке</w>": 7635,
  "Конференцией</w>": 7636,
  "протоколов</w>": 7637,
  "высокие</w>": 7638,
  "самый</w>": 7639,
  "Превосходительство</w>": 7640,
  "защищать</w>": 7641,
  "интересам</w>": 7642,
  "модернизации</w>": 7643,
  "Их</w>": 7644,
  "немедленно</w>": 7645,
  "преимущества</w>": 7646,
  "стол</w>": 7647,
  "Моя</w>": 7648,
  "ню</w>": 7649,
  "целями</w>": 7650,
  "случа": 7651,
  "доби": 7652,
  "сопостави": 7653,
  "отчетного</w>": 7654,
  "физического</w>": 7655,
  "перио": 7656,
  "голосов</w>": 7657,
  "город": 7658,
  "Ке": 7659,
  "ран</w>": 7660,
  "Калифорния</w>": 7661,
  "выполняет</w>": 7662,
  "изложенных</w>": 7663,
  "воздушное</w>": 7664,
  "160</w>": 7665,
  "взрослых</w>": 7666,
  "текущего</w>": 7667,
  "планированию</w>": 7668,
  "подобные</w>": 7669,
  "крас": 7670,
  "180</w>": 7671,
  ".dll</w>": 7672,
  "ослаб": 7673,
  "ard</w>": 7674,
  "Пана": 7675,
  "108</w>": 7676,
  "ally</w>": 7677,
  "тельству</w>": 7678,
  "уменьшению</w>": 7679,
  "ся</w>": 7680,
  "ЮНОПС</w>": 7681,
  "Фу": 7682,
  "рован": 7683,
  "вич</w>": 7684,
  "списка</w>": 7685,
  "свободного</w>": 7686,
  "предусматривают</w>": 7687,
  "кторов</w>": 7688,
  "финансиру": 7689,
  "Киот": 7690,
  "верховенства</w>": 7691,
  "обеща": 7692,
  "разъяс": 7693,
  "источника</w>": 7694,
  "шаг</w>": 7695,
  "pdf</w>": 7696,
  "представлению</w>": 7697,
  "центром</w>": 7698,
  "стр</w>": 7699,
  "Отме": 7700,
  "затруд": 7701,
  "потребностям</w>": 7702,
  "повто": 7703,
  "она": 7704,
  "1000</w>": 7705,
  "набор</w>": 7706,
  "Вот</w>": 7707,
  "раньше</w>": 7708,
  "тика</w>": 7709,
  "ложи": 7710,
  "рекомендовать</w>": 7711,
  "инфек": 7712,
  "КР": 7713,
  "Президен": 7714,
  "проводимой</w>": 7715,
  "окончания</w>": 7716,
  "ain": 7717,
  "предметом</w>": 7718,
  "нега": 7719,
  "вообще</w>": 7720,
  "ЖД": 7721,
  "собственной</w>": 7722,
  "потребо": 7723,
  "Col": 7724,
  "Арабская</w>": 7725,
  "ставок</w>": 7726,
  "отпра": 7727,
  "e.com</w>": 7728,
  "присоединиться</w>": 7729,
  "счита": 7730,
  "жилищ": 7731,
  "уголовных</w>": 7732,
  "принадлежащих</w>": 7733,
  "проживающих</w>": 7734,
  "дискриминацию</w>": 7735,
  "actual</w>": 7736,
  "прекратить</w>": 7737,
  "трудностей</w>": 7738,
  "Со</w>": 7739,
  "Институт</w>": 7740,
  "стипен": 7741,
  "комна": 7742,
  "Mar": 7743,
  "зданий</w>": 7744,
  "опы": 7745,
  "Feb</w>": 7746,
  "средством</w>": 7747,
  "област": 7748,
  "отобра": 7749,
  "тр</w>": 7750,
  "больших</w>": 7751,
  "влениях</w>": 7752,
  "стабильность</w>": 7753,
  "нефть</w>": 7754,
  "Pl": 7755,
  "обладают</w>": 7756,
  "Кипр</w>": 7757,
  "Сирийской</w>": 7758,
  "лай": 7759,
  "метод</w>": 7760,
  "дор": 7761,
  "публика": 7762,
  "буд": 7763,
  "записи</w>": 7764,
  "сельскохозяйственных</w>": 7765,
  "счете</w>": 7766,
  "структуру</w>": 7767,
  "107</w>": 7768,
  "Казахстане</w>": 7769,
  "hora</w>": 7770,
  "чество</w>": 7771,
  "Уголов": 7772,
  "пространстве</w>": 7773,
  "140</w>": 7774,
  "48": 7775,
  "контек": 7776,
  "наращивания</w>": 7777,
  "отсутствии</w>": 7778,
  "циаль": 7779,
  "сектором</w>": 7780,
  "жениям</w>": 7781,
  "жест": 7782,
  "Монго": 7783,
  "активных</w>": 7784,
  "тенденций</w>": 7785,
  "Кариб": 7786,
  "КИ</w>": 7787,
  "СКА": 7788,
  "привер": 7789,
  "призвали</w>": 7790,
  "обрати": 7791,
  "преем": 7792,
  "санкции</w>": 7793,
  "мало</w>": 7794,
  "домо": 7795,
  "шу": 7796,
  "обстановки</w>": 7797,
  "бывших</w>": 7798,
  "установлено</w>": 7799,
  "образо": 7800,
  "идеи</w>": 7801,
  "независимых</w>": 7802,
  "санкциони": 7803,
  "ленного</w>": 7804,
  "колон": 7805,
  "раке": 7806,
  "посвященных</w>": 7807,
  "спутни": 7808,
  "Египта</w>": 7809,
  "дже": 7810,
  "Разработка</w>": 7811,
  "отвечать</w>": 7812,
  "Никарагуа</w>": 7813,
  "письме</w>": 7814,
  "лечение</w>": 7815,
  "мандатом</w>": 7816,
  "наше</w>": 7817,
  "службу</w>": 7818,
  "huso</w>": 7819,
  "horario</w>": 7820,
  "ro</w>": 7821,
  "участвуют</w>": 7822,
  "For": 7823,
  "способствуют</w>": 7824,
  ".php</w>": 7825,
  "информационного</w>": 7826,
  "служ": 7827,
  "ys": 7828,
  "эр": 7829,
  "земле</w>": 7830,
  "нор": 7831,
  "позволить</w>": 7832,
  "1985</w>": 7833,
  "умер": 7834,
  "number</w>": 7835,
  "Хорватия</w>": 7836,
  "страновом</w>": 7837,
  "функ": 7838,
  "расследованию</w>": 7839,
  "сем": 7840,
  "установлены</w>": 7841,
  "внедрение</w>": 7842,
  "поверхности</w>": 7843,
  "деяния</w>": 7844,
  "предме": 7845,
  "нализации</w>": 7846,
  "вернуться</w>": 7847,
  "дра": 7848,
  "CON": 7849,
  "1987</w>": 7850,
  "симво": 7851,
  "домашних</w>": 7852,
  "Сент</w>": 7853,
  "Министр</w>": 7854,
  "Location</w>": 7855,
  "получены</w>": 7856,
  "Кан": 7857,
  "разреша": 7858,
  "поступ": 7859,
  "сохран": 7860,
  "обши": 7861,
  "депози": 7862,
  "Астана</w>": 7863,
  "Главная</w>": 7864,
  "позиций</w>": 7865,
  "эксплуатацию</w>": 7866,
  "Комплек": 7867,
  "будущей</w>": 7868,
  "тяж": 7869,
  "истин": 7870,
  "здоро": 7871,
  "обычного</w>": 7872,
  "экологического</w>": 7873,
  "лог</w>": 7874,
  "запрос</w>": 7875,
  "лии</w>": 7876,
  "обстоятельства</w>": 7877,
  "компанией</w>": 7878,
  "хотите</w>": 7879,
  "Восто": 7880,
  "Есть</w>": 7881,
  "рекомендациями</w>": 7882,
  "представлении</w>": 7883,
  "ксенофобии</w>": 7884,
  "дво": 7885,
  "вные</w>": 7886,
  "re</w>": 7887,
  "бах</w>": 7888,
  "ряду</w>": 7889,
  "земе": 7890,
  "устойчивое</w>": 7891,
  "Меха": 7892,
  "МСП</w>": 7893,
  "ново": 7894,
  "седь": 7895,
  "Румыния</w>": 7896,
  "КП</w>": 7897,
  "влениями</w>": 7898,
  "ствием</w>": 7899,
  "поможет</w>": 7900,
  "собира": 7901,
  "Палестин": 7902,
  "необходимыми</w>": 7903,
  "Запад": 7904,
  "реали": 7905,
  "отрази": 7906,
  "пытки</w>": 7907,
  "периодический</w>": 7908,
  "bl": 7909,
  "выплат</w>": 7910,
  "физической</w>": 7911,
  "отличие</w>": 7912,
  "Рай": 7913,
  "искорен": 7914,
  "дополнитель": 7915,
  "сувер": 7916,
  "процве": 7917,
  "искоренению</w>": 7918,
  "зацией</w>": 7919,
  "обязанность</w>": 7920,
  "возме": 7921,
  "зами</w>": 7922,
  "Всего</w>": 7923,
  "образу": 7924,
  "классификации</w>": 7925,
  "отмечалось</w>": 7926,
  "беженцам</w>": 7927,
  "гия</w>": 7928,
  "ЕМ</w>": 7929,
  "болезни</w>": 7930,
  "диверси": 7931,
  "лов": 7932,
  "начал</w>": 7933,
  "рацию</w>": 7934,
  "ow": 7935,
  "Банк</w>": 7936,
  "влен</w>": 7937,
  "Тихого</w>": 7938,
  "Список</w>": 7939,
  "сса</w>": 7940,
  "обусловлено</w>": 7941,
  "Зеландии</w>": 7942,
  "Участие</w>": 7943,
  "уходу</w>": 7944,
  "выгоды</w>": 7945,
  "контей": 7946,
  "77": 7947,
  "угроз</w>": 7948,
  "бам</w>": 7949,
  "напомнить</w>": 7950,
  "идеаль": 7951,
  "пользователя</w>": 7952,
  "наук</w>": 7953,
  "ile</w>": 7954,
  "тей": 7955,
  "беремен": 7956,
  "Правилам</w>": 7957,
  "площадь</w>": 7958,
  "инициативу</w>": 7959,
  "тил</w>": 7960,
  "Ч</w>": 7961,
  "Только</w>": 7962,
  "обез": 7963,
  "заключительных</w>": 7964,
  "действием</w>": 7965,
  "лей": 7966,
  "передвижения</w>": 7967,
  "большего</w>": 7968,
  "стандартами</w>": 7969,
  "иденти": 7970,
  "Камеру": 7971,
  "Кла": 7972,
  "препятствия</w>": 7973,
  "Справо": 7974,
  "Демократическая</w>": 7975,
  "перевод": 7976,
  "целям</w>": 7977,
  "команди": 7978,
  "Вели": 7979,
  "ционному</w>": 7980,
  "рассмотрела</w>": 7981,
  "стройки</w>": 7982,
  "шель": 7983,
  "Был</w>": 7984,
  "чай": 7985,
  "женные</w>": 7986,
  "пери": 7987,
  "указанного</w>": 7988,
  "открывается</w>": 7989,
  "административной</w>": 7990,
  "Бени": 7991,
  "дили</w>": 7992,
  "часа</w>": 7993,
  "ll": 7994,
  "посла": 7995,
  "инициати": 7996,
  "доста": 7997,
  "дора</w>": 7998,
  "ассоции": 7999,
  "гражданами</w>": 8000,
  "изменением</w>": 8001,
  "установленные</w>": 8002,
  "бру": 8003,
  "коле": 8004,
  "to": 8005,
  "шагом</w>": 8006,
  "сматри": 8007,
  "мыс": 8008,
  "ог": 8009,
  "подчеркнула</w>": 8010,
  "ity</w>": 8011,
  "расширении</w>": 8012,
  "дав": 8013,
  "стороне</w>": 8014,
  "предпоч": 8015,
  "Тран": 8016,
  "Организацию</w>": 8017,
  "поддержкой</w>": 8018,
  "развитые</w>": 8019,
  "крова": 8020,
  "уваж": 8021,
  "должное</w>": 8022,
  "обстоя": 8023,
  "тесном</w>": 8024,
  "палестинцев</w>": 8025,
  "стине</w>": 8026,
  "Прежде</w>": 8027,
  "корот": 8028,
  "ины</w>": 8029,
  "ните</w>": 8030,
  "обратился</w>": 8031,
  "жный</w>": 8032,
  "стреми": 8033,
  "выступать</w>": 8034,
  "Lin": 8035,
  "незаконных</w>": 8036,
  "автоматиче": 8037,
  "Струк": 8038,
  "жизнен": 8039,
  "армян": 8040,
  "46": 8041,
  "передовой</w>": 8042,
  "пропаган": 8043,
  "ЦИЯ</w>": 8044,
  "ремонта</w>": 8045,
  "2.2.": 8046,
  "вооруженными</w>": 8047,
  "директоров</w>": 8048,
  "опи": 8049,
  "Израи": 8050,
  "единиц</w>": 8051,
  "поль": 8052,
  "практические</w>": 8053,
  "щают</w>": 8054,
  "выделить</w>": 8055,
  "дальнейшие</w>": 8056,
  "мный</w>": 8057,
  "АНИЕ</w>": 8058,
  "жизне": 8059,
  "ote</w>": 8060,
  "располагает</w>": 8061,
  "вно</w>": 8062,
  "обновление</w>": 8063,
  "задачу</w>": 8064,
  "связана</w>": 8065,
  "ИС</w>": 8066,
  "докладчиком</w>": 8067,
  "рынках</w>": 8068,
  "кистане</w>": 8069,
  "демобилизации</w>": 8070,
  "уязвимости</w>": 8071,
  "контр": 8072,
  "сигна": 8073,
  "минимум</w>": 8074,
  "é": 8075,
  "путе": 8076,
  "имеющим</w>": 8077,
  "вине</w>": 8078,
  "специальным</w>": 8079,
  "ci": 8080,
  "третий</w>": 8081,
  "условиям</w>": 8082,
  "распоряжение</w>": 8083,
  "Выборы</w>": 8084,
  "служи": 8085,
  "необходимого</w>": 8086,
  "обуч": 8087,
  "равен": 8088,
  "зывает</w>": 8089,
  "явно</w>": 8090,
  "американских</w>": 8091,
  "подоб": 8092,
  "библиоте": 8093,
  "Пос": 8094,
  "дальней": 8095,
  "кредито": 8096,
  "маля": 8097,
  "иным</w>": 8098,
  "координаторов</w>": 8099,
  "утвержденных</w>": 8100,
  "измени": 8101,
  "щиеся</w>": 8102,
  "Гор": 8103,
  "8.</w>": 8104,
  "собрания</w>": 8105,
  "оказаться</w>": 8106,
  "how</w>": 8107,
  "докла": 8108,
  "назначение</w>": 8109,
  "транспорту</w>": 8110,
  "кова</w>": 8111,
  "лизацию</w>": 8112,
  "грамо": 8113,
  "заявлении</w>": 8114,
  "ваясь</w>": 8115,
  "поддержание</w>": 8116,
  "стремиться</w>": 8117,
  "Кувейт</w>": 8118,
  "сталкивается</w>": 8119,
  "методологии</w>": 8120,
  "выбо": 8121,
  "попытки</w>": 8122,
  "конструкции</w>": 8123,
  "вкла": 8124,
  "проведенного</w>": 8125,
  "Комиссию</w>": 8126,
  "неделю</w>": 8127,
  "пира": 8128,
  "дный</w>": 8129,
  "достоинства</w>": 8130,
  "Ар</w>": 8131,
  "жизненно</w>": 8132,
  "отрас": 8133,
  "115</w>": 8134,
  "ID": 8135,
  "землю</w>": 8136,
  "подготовкой</w>": 8137,
  "Красного</w>": 8138,
  "вооруженного</w>": 8139,
  "тан</w>": 8140,
  "амбу": 8141,
  "интерак": 8142,
  "гуманитарным</w>": 8143,
  "прочих</w>": 8144,
  "Международному</w>": 8145,
  "Европейская</w>": 8146,
  "бедстви": 8147,
  "нажмите</w>": 8148,
  "адвокатов</w>": 8149,
  "Ген": 8150,
  "гражданское</w>": 8151,
  "замены</w>": 8152,
  "упомянутых</w>": 8153,
  "окончательного</w>": 8154,
  "Тихоокеан": 8155,
  "Расши": 8156,
  "мисси": 8157,
  "этапах</w>": 8158,
  "Пакистана</w>": 8159,
  "т.": 8160,
  "изложены</w>": 8161,
  "est</w>": 8162,
  "игнори": 8163,
  "Проек": 8164,
  "действиях</w>": 8165,
  "касающегося</w>": 8166,
  "максимальной</w>": 8167,
  "просвещения</w>": 8168,
  "оснований</w>": 8169,
  "целостности</w>": 8170,
  "потоков</w>": 8171,
  "ряды</w>": 8172,
  "тур</w>": 8173,
  "остано": 8174,
  "рыб": 8175,
  "допусти": 8176,
  "um</w>": 8177,
  "сложных</w>": 8178,
  "пакта</w>": 8179,
  "меша": 8180,
  "резиден": 8181,
  "заключению</w>": 8182,
  "регистра": 8183,
  "Обеспечение</w>": 8184,
  "платежей</w>": 8185,
  "концентра": 8186,
  "слав": 8187,
  "предметов</w>": 8188,
  "перемещения</w>": 8189,
  "прово": 8190,
  "текущей</w>": 8191,
  "наркотикам</w>": 8192,
  "гать</w>": 8193,
  "судоход": 8194,
  "мед": 8195,
  "Института</w>": 8196,
  "Таиланд</w>": 8197,
  "рее": 8198,
  "уве": 8199,
  "вость</w>": 8200,
  "неравенства</w>": 8201,
  "миротворческих</w>": 8202,
  "отель</w>": 8203,
  "женских</w>": 8204,
  "куп": 8205,
  "десяти</w>": 8206,
  "телефон": 8207,
  "последствиями</w>": 8208,
  "Зеландия</w>": 8209,
  "вли": 8210,
  "С.": 8211,
  "могу</w>": 8212,
  "заверши": 8213,
  "неопределен": 8214,
  "Чешская</w>": 8215,
  "повышении</w>": 8216,
  "примеры</w>": 8217,
  "сама</w>": 8218,
  "достижений</w>": 8219,
  "водоснабжения</w>": 8220,
  "дации</w>": 8221,
  "коэффициен": 8222,
  "дегра": 8223,
  "краси": 8224,
  "Алжир</w>": 8225,
  "back</w>": 8226,
  "тщательно</w>": 8227,
  "вила</w>": 8228,
  "статистике</w>": 8229,
  "чув": 8230,
  "определению</w>": 8231,
  "конечно</w>": 8232,
  "мное</w>": 8233,
  "зво": 8234,
  "должностях</w>": 8235,
  "работка</w>": 8236,
  "фактором</w>": 8237,
  "56": 8238,
  "комментарии</w>": 8239,
  "чист": 8240,
  "вол": 8241,
  "дороги</w>": 8242,
  "нили</w>": 8243,
  "Рей": 8244,
  "пользова": 8245,
  "рованную</w>": 8246,
  "чат</w>": 8247,
  "регла": 8248,
  "ральных</w>": 8249,
  "постепенно</w>": 8250,
  "услу": 8251,
  "препроводить</w>": 8252,
  "соображения</w>": 8253,
  "инспе": 8254,
  "МП": 8255,
  "креп": 8256,
  "емому</w>": 8257,
  "Продол": 8258,
  "учебной</w>": 8259,
  "ков": 8260,
  "проводят</w>": 8261,
  "своевременно</w>": 8262,
  "визи": 8263,
  "деколонизации</w>": 8264,
  "Sp": 8265,
  "подвергну": 8266,
  "Принятие</w>": 8267,
  "уг": 8268,
  "санита": 8269,
  "Судане</w>": 8270,
  "снова</w>": 8271,
  "ff": 8272,
  "Ямай": 8273,
  "обеспечивается</w>": 8274,
  "первоначального</w>": 8275,
  "всё</w>": 8276,
  "1982</w>": 8277,
  "ору": 8278,
  "very</w>": 8279,
  "Китай": 8280,
  "Докла": 8281,
  "Превосходи": 8282,
  "ежемеся": 8283,
  "использует</w>": 8284,
  "рекомендацией</w>": 8285,
  "жестоких</w>": 8286,
  "каждая</w>": 8287,
  "насилии</w>": 8288,
  "говорят</w>": 8289,
  "цена</w>": 8290,
  "мониторин": 8291,
  "консультативного</w>": 8292,
  "86": 8293,
  "представлено</w>": 8294,
  "ота</w>": 8295,
  "Дви": 8296,
  "тебя</w>": 8297,
  "винов": 8298,
  "переходного</w>": 8299,
  "сить</w>": 8300,
  "делегацией</w>": 8301,
  "Систе": 8302,
  "ченная</w>": 8303,
  "many</w>": 8304,
  "реформе</w>": 8305,
  "ляют</w>": 8306,
  "абсолю": 8307,
  "Секрета": 8308,
  "Nov</w>": 8309,
  "Саха": 8310,
  "оке": 8311,
  "смыс": 8312,
  "МИ</w>": 8313,
  "сопря": 8314,
  "учи": 8315,
  "периоде</w>": 8316,
  "суверенитета</w>": 8317,
  "направление</w>": 8318,
  "og": 8319,
  "женщина</w>": 8320,
  "стической</w>": 8321,
  "нынешних</w>": 8322,
  "преступностью</w>": 8323,
  "переч": 8324,
  "уби": 8325,
  "Расходы</w>": 8326,
  "щуюся</w>": 8327,
  "дного</w>": 8328,
  "давать</w>": 8329,
  "существование</w>": 8330,
  "res": 8331,
  "КОМИТЕТ</w>": 8332,
  "остров": 8333,
  "брак</w>": 8334,
  "этнической</w>": 8335,
  "посещения</w>": 8336,
  "утвержда": 8337,
  "введение</w>": 8338,
  "действи": 8339,
  "перенос": 8340,
  "реконструкции</w>": 8341,
  "Венгрия</w>": 8342,
  "старших</w>": 8343,
  "участвует</w>": 8344,
  "производительности</w>": 8345,
  "фото": 8346,
  "фу": 8347,
  "неофициальные</w>": 8348,
  "57": 8349,
  "Юри": 8350,
  "gam": 8351,
  "возможной</w>": 8352,
  "ведению</w>": 8353,
  "власть</w>": 8354,
  "приступить</w>": 8355,
  "регулярных</w>": 8356,
  "вет</w>": 8357,
  "готавли": 8358,
  "ходит</w>": 8359,
  "перегово": 8360,
  "неотлож": 8361,
  "рационального</w>": 8362,
  "вред": 8363,
  "грамотности</w>": 8364,
  "руки</w>": 8365,
  "пак": 8366,
  "процедуру</w>": 8367,
  "банком</w>": 8368,
  "предпринимательства</w>": 8369,
  "судах</w>": 8370,
  "переговорах</w>": 8371,
  "отче": 8372,
  "Ливи": 8373,
  "эль</w>": 8374,
  "Плана</w>": 8375,
  "демонстра": 8376,
  "позволили</w>": 8377,
  "бур": 8378,
  "поня": 8379,
  "обви": 8380,
  "промышленного</w>": 8381,
  "процессах</w>": 8382,
  "зер</w>": 8383,
  "системах</w>": 8384,
  "вил</w>": 8385,
  "внутренне</w>": 8386,
  "прину": 8387,
  "официаль": 8388,
  "EP</w>": 8389,
  "Тру": 8390,
  "журналистов</w>": 8391,
  "Португалия</w>": 8392,
  "определенной</w>": 8393,
  "логии</w>": 8394,
  "тках</w>": 8395,
  "Даже</w>": 8396,
  "Гвинея</w>": 8397,
  "бюджету</w>": 8398,
  "экспорт</w>": 8399,
  "тельских</w>": 8400,
  "состоявшихся</w>": 8401,
  "советом</w>": 8402,
  "стая</w>": 8403,
  "воздержа": 8404,
  "лизо": 8405,
  "предоставлению</w>": 8406,
  "зор": 8407,
  "воло": 8408,
  "прогре": 8409,
  "Представители</w>": 8410,
  "цо": 8411,
  "внесении</w>": 8412,
  "aps</w>": 8413,
  "ВЕ": 8414,
  "Испол": 8415,
  "альтернативных</w>": 8416,
  "Работа</w>": 8417,
  "мерно</w>": 8418,
  "сделано</w>": 8419,
  "пада": 8420,
  "наследия</w>": 8421,
  "развитым</w>": 8422,
  "касающийся</w>": 8423,
  "автоматически</w>": 8424,
  "случаю</w>": 8425,
  "учредить</w>": 8426,
  "Дании</w>": 8427,
  "присутствия</w>": 8428,
  "cd": 8429,
  "даль": 8430,
  "сфе": 8431,
  "Группе</w>": 8432,
  "topic</w>": 8433,
  "Можно</w>": 8434,
  "ваниями</w>": 8435,
  "перепи": 8436,
  "присоединились</w>": 8437,
  "МУ": 8438,
  "памяти</w>": 8439,
  "нейтра": 8440,
  "Плат": 8441,
  "погоды</w>": 8442,
  "ниже": 8443,
  "отдельно</w>": 8444,
  "Дания</w>": 8445,
  "мби": 8446,
  "ответа</w>": 8447,
  "давно</w>": 8448,
  "сим": 8449,
  "када": 8450,
  "серти": 8451,
  "иму": 8452,
  "грузки</w>": 8453,
  "нередко</w>": 8454,
  "временем</w>": 8455,
  "адвока": 8456,
  "Жи": 8457,
  "успехов</w>": 8458,
  "значительных</w>": 8459,
  "постепен": 8460,
  "э</w>": 8461,
  "современ": 8462,
  "перспективе</w>": 8463,
  "ана</w>": 8464,
  "периоды</w>": 8465,
  "подготовленный</w>": 8466,
  "тских</w>": 8467,
  "утвердил</w>": 8468,
  "оговорок</w>": 8469,
  "берегу</w>": 8470,
  "личные</w>": 8471,
  "наблюдателя</w>": 8472,
  "лина</w>": 8473,
  "придает</w>": 8474,
  "потер": 8475,
  "фикси": 8476,
  "культурные</w>": 8477,
  "Буду": 8478,
  "бор</w>": 8479,
  "доволь": 8480,
  "ВА</w>": 8481,
  "бук": 8482,
  "II": 8483,
  "выставки</w>": 8484,
  "СКИ": 8485,
  "Апелля": 8486,
  "2020</w>": 8487,
  "рабочий</w>": 8488,
  "1967</w>": 8489,
  "представляющих</w>": 8490,
  "вывать</w>": 8491,
  "Болгария</w>": 8492,
  "проекти": 8493,
  "нагрузки</w>": 8494,
  "действо": 8495,
  "трибу": 8496,
  "выступить</w>": 8497,
  "полож": 8498,
  "pos": 8499,
  "тков</w>": 8500,
  "ер</w>": 8501,
  "Область</w>": 8502,
  "объединен": 8503,
  "конфликты</w>": 8504,
  "агентство</w>": 8505,
  "поручено</w>": 8506,
  "дорож": 8507,
  "убийства</w>": 8508,
  "определяет</w>": 8509,
  "верх": 8510,
  "параметров</w>": 8511,
  "химического</w>": 8512,
  "Ниже</w>": 8513,
  "искусства</w>": 8514,
  "достигнутого</w>": 8515,
  "сила</w>": 8516,
  "постановления</w>": 8517,
  "француз": 8518,
  "КТ</w>": 8519,
  "ткам</w>": 8520,
  "Народ": 8521,
  "экономическом</w>": 8522,
  "сда": 8523,
  "возро": 8524,
  "летних</w>": 8525,
  "разные</w>": 8526,
  "раннего</w>": 8527,
  "Ката": 8528,
  "народо": 8529,
  "начали</w>": 8530,
  "придержи": 8531,
  "чику</w>": 8532,
  "плану</w>": 8533,
  "доход</w>": 8534,
  "ve": 8535,
  "особые</w>": 8536,
  "Фасо</w>": 8537,
  "хозяйство</w>": 8538,
  "Нигерии</w>": 8539,
  "процедурами</w>": 8540,
  "ill": 8541,
  "Глобального</w>": 8542,
  "после": 8543,
  "благосостояния</w>": 8544,
  "некоторыми</w>": 8545,
  "полевых</w>": 8546,
  "угрозой</w>": 8547,
  "никах</w>": 8548,
  "паралле": 8549,
  "школу</w>": 8550,
  "замен": 8551,
  "иные</w>": 8552,
  "национальную</w>": 8553,
  "работке</w>": 8554,
  "преодол": 8555,
  "политикой</w>": 8556,
  "Москва</w>": 8557,
  "кана": 8558,
  "реаги": 8559,
  "инициатива</w>": 8560,
  "ассоциаций</w>": 8561,
  "квартиры</w>": 8562,
  "Thu</w>": 8563,
  "01.": 8564,
  "аргу": 8565,
  "министром</w>": 8566,
  "писа": 8567,
  "НАТО</w>": 8568,
  "РП": 8569,
  "SP</w>": 8570,
  "ложение</w>": 8571,
  "уголов": 8572,
  "говоря</w>": 8573,
  "Эфиопии</w>": 8574,
  "действующие</w>": 8575,
  "видам</w>": 8576,
  "покрытие</w>": 8577,
  "рам": 8578,
  "lin": 8579,
  "ni": 8580,
  "ССИЯ</w>": 8581,
  "рабочем</w>": 8582,
  "трудовых</w>": 8583,
  "называ": 8584,
  "помогает</w>": 8585,
  "Мето": 8586,
  "привлечь</w>": 8587,
  "служа": 8588,
  "стьдесят</w>": 8589,
  "онами</w>": 8590,
  "Рекомендация</w>": 8591,
  "дета": 8592,
  "нила</w>": 8593,
  "широких</w>": 8594,
  "out</w>": 8595,
  "ева</w>": 8596,
  "повышен": 8597,
  "свободно</w>": 8598,
  "Штатами</w>": 8599,
  "правозащи": 8600,
  "заслужи": 8601,
  "определять</w>": 8602,
  "транспорт</w>": 8603,
  "НК</w>": 8604,
  "Науч": 8605,
  "ственному</w>": 8606,
  "Сред": 8607,
  "поэтап": 8608,
  "периодические</w>": 8609,
  "ценных</w>": 8610,
  "upd": 8611,
  "пище": 8612,
  "двигателя</w>": 8613,
  "сосе": 8614,
  "зарегистрированных</w>": 8615,
  "личе": 8616,
  "т.</w>": 8617,
  "Сторо": 8618,
  "обжало": 8619,
  "оба</w>": 8620,
  "сам": 8621,
  "одобрен": 8622,
  "священ": 8623,
  "закону</w>": 8624,
  "двенадца": 8625,
  "43": 8626,
  "AR": 8627,
  "Часть</w>": 8628,
  "гам</w>": 8629,
  "Европейским</w>": 8630,
  "муж": 8631,
  "автоно": 8632,
  "гласит</w>": 8633,
  "вай": 8634,
  "Чешской</w>": 8635,
  "описы": 8636,
  "половине</w>": 8637,
  "жилье</w>": 8638,
  "смысле</w>": 8639,
  "системами</w>": 8640,
  "нака": 8641,
  "доро": 8642,
  "местности</w>": 8643,
  "форму": 8644,
  "вознаграждения</w>": 8645,
  "стру": 8646,
  "контроле</w>": 8647,
  "школе</w>": 8648,
  "таблицы</w>": 8649,
  "относящиеся</w>": 8650,
  "проте": 8651,
  "ww": 8652,
  "ПР</w>": 8653,
  "Ислан": 8654,
  "следовательно</w>": 8655,
  "Вос": 8656,
  "совместные</w>": 8657,
  "Dec</w>": 8658,
  "разъяснения</w>": 8659,
  "He": 8660,
  "выражение</w>": 8661,
  "широко": 8662,
  "участву": 8663,
  "инфици": 8664,
  "тем": 8665,
  "Буркина</w>": 8666,
  "вери": 8667,
  "заболевания</w>": 8668,
  "главной</w>": 8669,
  "стави": 8670,
  "количестве</w>": 8671,
  "il</w>": 8672,
  "элементом</w>": 8673,
  "113</w>": 8674,
  "ваши</w>": 8675,
  "церкви</w>": 8676,
  "семинары</w>": 8677,
  "самоуправля": 8678,
  "предварительную</w>": 8679,
  "практической</w>": 8680,
  "Примечание</w>": 8681,
  "духе</w>": 8682,
  "лицу</w>": 8683,
  "тел.</w>": 8684,
  "увеличением</w>": 8685,
  "обе</w>": 8686,
  "паке": 8687,
  "сли": 8688,
  "голосование</w>": 8689,
  "отражены</w>": 8690,
  "позво": 8691,
  "125</w>": 8692,
  "116</w>": 8693,
  "кисло": 8694,
  "возникнов": 8695,
  "моз": 8696,
  "сущ": 8697,
  "ages</w>": 8698,
  "иска": 8699,
  "cal": 8700,
  "соеди": 8701,
  "пут": 8702,
  "стей</w>": 8703,
  "акции</w>": 8704,
  "изложенные</w>": 8705,
  "�</w>": 8706,
  "Парт": 8707,
  "детского</w>": 8708,
  "Соединенными</w>": 8709,
  "стерео": 8710,
  "надлежит</w>": 8711,
  "жность</w>": 8712,
  "потребностями</w>": 8713,
  "прогноз</w>": 8714,
  "изменя": 8715,
  "сообще": 8716,
  "организационной</w>": 8717,
  "Ос": 8718,
  "87": 8719,
  "послан": 8720,
  "решила</w>": 8721,
  "насе": 8722,
  "Руководство</w>": 8723,
  "Несколько</w>": 8724,
  "приоритеты</w>": 8725,
  "чка</w>": 8726,
  "Соединен": 8727,
  "обязательствами</w>": 8728,
  "массо": 8729,
  "государственный</w>": 8730,
  "бла": 8731,
  "Документация</w>": 8732,
  "вяза": 8733,
  "ощу": 8734,
  "тета</w>": 8735,
  "мировых</w>": 8736,
  "опе": 8737,
  "вс": 8738,
  "мин": 8739,
  "океа": 8740,
  "Ноябрь</w>": 8741,
  "прибыли</w>": 8742,
  "прошли</w>": 8743,
  "европей": 8744,
  "входя": 8745,
  "публикаций</w>": 8746,
  "платформы</w>": 8747,
  "сете": 8748,
  "интенси": 8749,
  "Такой</w>": 8750,
  "ice</w>": 8751,
  "перечисленных</w>": 8752,
  "4.1</w>": 8753,
  "сай": 8754,
  "заявитель</w>": 8755,
  "обществен": 8756,
  "Mach": 8757,
  ".3</w>": 8758,
  "Следу": 8759,
  "соблюдению</w>": 8760,
  "ДТ</w>": 8761,
  "бри": 8762,
  "законных</w>": 8763,
  "исполни": 8764,
  "ina</w>": 8765,
  "сили": 8766,
  "глубокую</w>": 8767,
  "автотранспортных</w>": 8768,
  "дорожной</w>": 8769,
  "Декабрь</w>": 8770,
  "Латвии</w>": 8771,
  "льность</w>": 8772,
  "экстреми": 8773,
  "зда": 8774,
  "Сторона</w>": 8775,
  "парти": 8776,
  "отдельным</w>": 8777,
  "молодеж": 8778,
  "имен": 8779,
  "обу": 8780,
  "позволят</w>": 8781,
  "жид": 8782,
  "Возмож": 8783,
  "миллиона</w>": 8784,
  "подпи": 8785,
  "нормам</w>": 8786,
  "поставленных</w>": 8787,
  "деловых</w>": 8788,
  "РАЗ": 8789,
  "уголовное</w>": 8790,
  "фигу": 8791,
  "длительного</w>": 8792,
  "равного</w>": 8793,
  "желает</w>": 8794,
  "поставить</w>": 8795,
  "возлага": 8796,
  "Serv": 8797,
  "статьям</w>": 8798,
  "свето": 8799,
  "кара": 8800,
  "совершенных</w>": 8801,
  "обуча": 8802,
  "смо": 8803,
  "Алматы</w>": 8804,
  "лями</w>": 8805,
  "объекта</w>": 8806,
  "приве": 8807,
  "Pos": 8808,
  "стоящих</w>": 8809,
  "ровке</w>": 8810,
  "Нигерия</w>": 8811,
  "обмену</w>": 8812,
  "123</w>": 8813,
  "Сербия</w>": 8814,
  "Международ": 8815,
  "банков</w>": 8816,
  "нях</w>": 8817,
  "Канцелярия</w>": 8818,
  "года": 8819,
  "снижению</w>": 8820,
  "Румынии</w>": 8821,
  "HRC</w>": 8822,
  "fil": 8823,
  "любую</w>": 8824,
  "ДС</w>": 8825,
  "Зе": 8826,
  "пересмотр</w>": 8827,
  "нима": 8828,
  "устойчивой</w>": 8829,
  "поиск</w>": 8830,
  "тость</w>": 8831,
  "вой": 8832,
  "стам</w>": 8833,
  "Москве</w>": 8834,
  "коми": 8835,
  "дене": 8836,
  "114</w>": 8837,
  "ленд</w>": 8838,
  "восемь</w>": 8839,
  "среда</w>": 8840,
  "характеристики</w>": 8841,
  "преодоления</w>": 8842,
  "тские</w>": 8843,
  "Пор": 8844,
  "столом</w>": 8845,
  "текущих</w>": 8846,
  "оперативно</w>": 8847,
  "лега": 8848,
  "сою": 8849,
  "ve</w>": 8850,
  "OS</w>": 8851,
  "Новый</w>": 8852,
  "Комите": 8853,
  "зах</w>": 8854,
  "диагности": 8855,
  "выбросы</w>": 8856,
  "Дж": 8857,
  "кандида": 8858,
  "рис</w>": 8859,
  "продемонстри": 8860,
  "отмен": 8861,
  "деше": 8862,
  "ЗА</w>": 8863,
  "редакти": 8864,
  "сбо": 8865,
  "Ожидается</w>": 8866,
  "59": 8867,
  "повре": 8868,
  "баланса</w>": 8869,
  "стимулирования</w>": 8870,
  "AS": 8871,
  "расы</w>": 8872,
  "оккупа": 8873,
  "117</w>": 8874,
  "народами</w>": 8875,
  "находиться</w>": 8876,
  "почта</w>": 8877,
  "живо": 8878,
  "Предложение</w>": 8879,
  "обязан": 8880,
  "примир": 8881,
  "циви": 8882,
  "ОРГАНИЗА": 8883,
  "Принима": 8884,
  "разбирательство</w>": 8885,
  "компьютер</w>": 8886,
  "существа</w>": 8887,
  "КЛА": 8888,
  "бремени</w>": 8889,
  "револю": 8890,
  "комплексных</w>": 8891,
  "Новые</w>": 8892,
  "закрытое</w>": 8893,
  "реализация</w>": 8894,
  "необходимостью</w>": 8895,
  "факты</w>": 8896,
  "сопоста": 8897,
  "выделения</w>": 8898,
  "высшего</w>": 8899,
  "промы": 8900,
  "экономику</w>": 8901,
  "ЭКОНОМИ": 8902,
  "эмбарго</w>": 8903,
  "Итого</w>": 8904,
  "Греция</w>": 8905,
  "мл": 8906,
  "ложен": 8907,
  "крупные</w>": 8908,
  "производству</w>": 8909,
  "we": 8910,
  "бов</w>": 8911,
  "номеров</w>": 8912,
  "презен": 8913,
  "экономическую</w>": 8914,
  "пунктами</w>": 8915,
  "направлять</w>": 8916,
  "нау": 8917,
  "видами</w>": 8918,
  "вынесения</w>": 8919,
  "простран": 8920,
  "вяз": 8921,
  "ian</w>": 8922,
  "прямой</w>": 8923,
  "активную</w>": 8924,
  "подкреп": 8925,
  "втор": 8926,
  "шагов</w>": 8927,
  "преподавателей</w>": 8928,
  "А.": 8929,
  "Мозамби": 8930,
  "нормативных</w>": 8931,
  "сма": 8932,
  "транспорти": 8933,
  "стороной</w>": 8934,
  "одино": 8935,
  "самостоятельно</w>": 8936,
  "q": 8937,
  "вей": 8938,
  "прод": 8939,
  "стой</w>": 8940,
  "скор": 8941,
  "ключевыми</w>": 8942,
  "ходят</w>": 8943,
  "экономии</w>": 8944,
  "рь": 8945,
  "приятия</w>": 8946,
  "CD</w>": 8947,
  "Форум</w>": 8948,
  "гарантирует</w>": 8949,
  "гани": 8950,
  "пога": 8951,
  "неприкоснов": 8952,
  "дер</w>": 8953,
  "дные</w>": 8954,
  "передача</w>": 8955,
  "Университе": 8956,
  "обсуждении</w>": 8957,
  "единого</w>": 8958,
  "направлениям</w>": 8959,
  "рена</w>": 8960,
  "Али": 8961,
  "подтвердил</w>": 8962,
  "прямые</w>": 8963,
  "доступе</w>": 8964,
  "совеща": 8965,
  "фран": 8966,
  "продолжительности</w>": 8967,
  "нашими</w>": 8968,
  "соверши": 8969,
  "стихи": 8970,
  "долгосрочных</w>": 8971,
  "Раздел</w>": 8972,
  "Верхов": 8973,
  "реки</w>": 8974,
  "передачу</w>": 8975,
  "бами</w>": 8976,
  "прибе": 8977,
  "НОСТИ</w>": 8978,
  "мигран": 8979,
  "доставки</w>": 8980,
  "Треть": 8981,
  "нанес": 8982,
  "дила</w>": 8983,
  "Гай": 8984,
  "добросовест": 8985,
  "оказались</w>": 8986,
  "прида": 8987,
  "Анти": 8988,
  "частях</w>": 8989,
  "подтвердили</w>": 8990,
  "бюджетов</w>": 8991,
  "животных</w>": 8992,
  "Гвине": 8993,
  "обязательно</w>": 8994,
  "тверды": 8995,
  "Казахстан": 8996,
  "желание</w>": 8997,
  "хочу</w>": 8998,
  "казывать</w>": 8999,
  "представителям</w>": 9000,
  "персоналом</w>": 9001,
  "Сей": 9002,
  "биологического</w>": 9003,
  "уменьшение</w>": 9004,
  "конди": 9005,
  "президентом</w>": 9006,
  "Основная</w>": 9007,
  "необходима</w>": 9008,
  "достигнуто</w>": 9009,
  "Ввиду</w>": 9010,
  "п.</w>": 9011,
  "неизмен": 9012,
  "тра</w>": 9013,
  "Аргентины</w>": 9014,
  "работода": 9015,
  "рых</w>": 9016,
  "изучению</w>": 9017,
  "Настоя": 9018,
  "Оценка</w>": 9019,
  "приостано": 9020,
  "Малайзия</w>": 9021,
  "правилам</w>": 9022,
  "Эк": 9023,
  "выез": 9024,
  "голоса</w>": 9025,
  "март</w>": 9026,
  "профилактики</w>": 9027,
  "цистер": 9028,
  "Ирландия</w>": 9029,
  "организационных</w>": 9030,
  "преимуще": 9031,
  "122</w>": 9032,
  "заявителя</w>": 9033,
  "гражданство</w>": 9034,
  "jpg</w>": 9035,
  "Рекомендации</w>": 9036,
  "ell": 9037,
  "таможенных</w>": 9038,
  "составили</w>": 9039,
  "вице</w>": 9040,
  "переписи</w>": 9041,
  "вмешательства</w>": 9042,
  "отсутствуют</w>": 9043,
  "tes</w>": 9044,
  "МВФ</w>": 9045,
  "единственным</w>": 9046,
  "взаимной</w>": 9047,
  "полиция</w>": 9048,
  "дистан": 9049,
  "ge</w>": 9050,
  "То</w>": 9051,
  "признателен</w>": 9052,
  "1,5</w>": 9053,
  "сути</w>": 9054,
  "стви": 9055,
  "очевидно</w>": 9056,
  "дор</w>": 9057,
  "СА</w>": 9058,
  "употреб": 9059,
  "циони": 9060,
  "усло": 9061,
  "мин.</w>": 9062,
  "проходит</w>": 9063,
  "Филиппины</w>": 9064,
  "достигнутых</w>": 9065,
  "налогов</w>": 9066,
  "писы": 9067,
  "ведом": 9068,
  "Бельгии</w>": 9069,
  "потребность</w>": 9070,
  "Обви": 9071,
  "прений</w>": 9072,
  "вшее</w>": 9073,
  "вный</w>": 9074,
  "судь": 9075,
  "разработкой</w>": 9076,
  "осуществляют</w>": 9077,
  "возникает</w>": 9078,
  "риаль": 9079,
  "создают</w>": 9080,
  "cl": 9081,
  "аккреди": 9082,
  "Санкт</w>": 9083,
  "фин": 9084,
  "Словакия</w>": 9085,
  "возвращение</w>": 9086,
  "ount</w>": 9087,
  "вкой</w>": 9088,
  "СОВЕ": 9089,
  "обрабаты": 9090,
  "ЧА": 9091,
  "рабо": 9092,
  "шу</w>": 9093,
  "Грузия</w>": 9094,
  "Ам": 9095,
  "тери": 9096,
  "действии</w>": 9097,
  "нападений</w>": 9098,
  "усугуб": 9099,
  "Бисау</w>": 9100,
  "енности</w>": 9101,
  "центрах</w>": 9102,
  "Гаа": 9103,
  "благоприятных</w>": 9104,
  "торже": 9105,
  "заявля": 9106,
  "Название</w>": 9107,
  "Груп": 9108,
  "отдела</w>": 9109,
  "материальных</w>": 9110,
  "118</w>": 9111,
  "подлежат</w>": 9112,
  "заку": 9113,
  "ввести</w>": 9114,
  "мным</w>": 9115,
  "лицензи": 9116,
  "вило</w>": 9117,
  "полномочиями</w>": 9118,
  "удержи": 9119,
  "расширять</w>": 9120,
  "еся</w>": 9121,
  "температуры</w>": 9122,
  "решимости</w>": 9123,
  "гии</w>": 9124,
  "конституции</w>": 9125,
  "составлять</w>": 9126,
  "заслу": 9127,
  "потерь</w>": 9128,
  "первоначально</w>": 9129,
  "препода": 9130,
  "дискуссий</w>": 9131,
  "смена</w>": 9132,
  "проведет</w>": 9133,
  "йская</w>": 9134,
  "координатора</w>": 9135,
  "Республику</w>": 9136,
  "массы</w>": 9137,
  "Далее</w>": 9138,
  "жно</w>": 9139,
  "гло": 9140,
  "ене": 9141,
  "решил</w>": 9142,
  "нский</w>": 9143,
  "диапа": 9144,
  "пришел</w>": 9145,
  "сколько</w>": 9146,
  "исла": 9147,
  "М.</w>": 9148,
  "шед": 9149,
  "отражают</w>": 9150,
  "сосла": 9151,
  "тит</w>": 9152,
  "хочет</w>": 9153,
  "Зимбабве</w>": 9154,
  "наем": 9155,
  "председателей</w>": 9156,
  "Произ": 9157,
  "Польши</w>": 9158,
  "подда": 9159,
  "визит</w>": 9160,
  "студен": 9161,
  "инстанции</w>": 9162,
  "особую</w>": 9163,
  "вшая</w>": 9164,
  "торговлю</w>": 9165,
  "следствие</w>": 9166,
  "Дже": 9167,
  "производственных</w>": 9168,
  "сексуальных</w>": 9169,
  "белорус": 9170,
  "действиям</w>": 9171,
  "живущих</w>": 9172,
  "НАЯ</w>": 9173,
  "требо": 9174,
  "Pre": 9175,
  "уте": 9176,
  "eli": 9177,
  "наблюдается</w>": 9178,
  "злоупотребления</w>": 9179,
  "затра": 9180,
  "постановление</w>": 9181,
  "партнеры</w>": 9182,
  "cra": 9183,
  "ссия</w>": 9184,
  "ПС</w>": 9185,
  "утвердить</w>": 9186,
  "МА</w>": 9187,
  "Там</w>": 9188,
  "ск": 9189,
  "любым</w>": 9190,
  "миная</w>": 9191,
  "разверну": 9192,
  "шин</w>": 9193,
  "чек</w>": 9194,
  "гиги": 9195,
  "выну": 9196,
  "контракта</w>": 9197,
  "шенные</w>": 9198,
  "серви": 9199,
  "предусмотреть</w>": 9200,
  "различий</w>": 9201,
  "Венесуэла</w>": 9202,
  "компоненты</w>": 9203,
  "контрактам</w>": 9204,
  "указаны</w>": 9205,
  "напо": 9206,
  "её</w>": 9207,
  "нар": 9208,
  "обладающих</w>": 9209,
  "шан": 9210,
  "университет</w>": 9211,
  "политическими</w>": 9212,
  "компенса": 9213,
  "судна</w>": 9214,
  "внесены</w>": 9215,
  "стрелко": 9216,
  "согласованные</w>": 9217,
  "предназначенных</w>": 9218,
  "пе</w>": 9219,
  "Мала": 9220,
  "Джамахи": 9221,
  "объектом</w>": 9222,
  "техническому</w>": 9223,
  "предсказу": 9224,
  "Ок": 9225,
  "Доля</w>": 9226,
  "эффект</w>": 9227,
  "ремон": 9228,
  "контрак": 9229,
  "Сил</w>": 9230,
  "использованы</w>": 9231,
  "ставка</w>": 9232,
  "способом</w>": 9233,
  "Поддержка</w>": 9234,
  "ликвидацию</w>": 9235,
  "Намиби": 9236,
  "urs": 9237,
  "вающее</w>": 9238,
  "кле": 9239,
  "Существует</w>": 9240,
  "обращает</w>": 9241,
  "НОЙ</w>": 9242,
  "Кот": 9243,
  "dis": 9244,
  "Описание</w>": 9245,
  "йти</w>": 9246,
  "ставлен": 9247,
  "эксперт</w>": 9248,
  "доступности</w>": 9249,
  "скорости</w>": 9250,
  "arm": 9251,
  "дило</w>": 9252,
  "Принци": 9253,
  "невер": 9254,
  "теле</w>": 9255,
  "повседнев": 9256,
  "Иисус</w>": 9257,
  "проводились</w>": 9258,
  "предъявля": 9259,
  "Заместитель</w>": 9260,
  "сохранению</w>": 9261,
  "пропорциональ": 9262,
  "расходах</w>": 9263,
  "встреча</w>": 9264,
  "Сербии</w>": 9265,
  "спрашивает</w>": 9266,
  "технологиям</w>": 9267,
  "делается</w>": 9268,
  "молча": 9269,
  "сей": 9270,
  "Нор": 9271,
  "преследование</w>": 9272,
  "широкие</w>": 9273,
  "видом</w>": 9274,
  "ran": 9275,
  "66": 9276,
  "приклад": 9277,
  "поз": 9278,
  "индивидуальных</w>": 9279,
  "май": 9280,
  "афган": 9281,
  "варианта</w>": 9282,
  "инструментом</w>": 9283,
  "вера</w>": 9284,
  "Базе": 9285,
  "клад": 9286,
  "отлич": 9287,
  "ственности</w>": 9288,
  "четы": 9289,
  "ареста</w>": 9290,
  "связанного</w>": 9291,
  "лон": 9292,
  "прове": 9293,
  "пострада": 9294,
  "аз": 9295,
  "ЛОЖ": 9296,
  "руководители</w>": 9297,
  "примеров</w>": 9298,
  "ключевым</w>": 9299,
  "тран": 9300,
  "водой</w>": 9301,
  "рын": 9302,
  "кругов</w>": 9303,
  "прокуратуры</w>": 9304,
  "ежегодной</w>": 9305,
  "задолженность</w>": 9306,
  "кового</w>": 9307,
  "стрелкового</w>": 9308,
  "левая</w>": 9309,
  "гну": 9310,
  "поведение</w>": 9311,
  "насилию</w>": 9312,
  "предназначены</w>": 9313,
  "веро": 9314,
  "Cl": 9315,
  "eng": 9316,
  "рации</w>": 9317,
  "ради": 9318,
  "Эфиопи": 9319,
  "окружа": 9320,
  "трен": 9321,
  "vo": 9322,
  "пала": 9323,
  "сроком</w>": 9324,
  "Пят": 9325,
  "led</w>": 9326,
  "расширя": 9327,
  "ускорения</w>": 9328,
  "Судеб": 9329,
  "щ</w>": 9330,
  "незамедли": 9331,
  "свободных</w>": 9332,
  "Тай": 9333,
  "здравоохранение</w>": 9334,
  "консуль": 9335,
  "Дополнительные</w>": 9336,
  "хотелось</w>": 9337,
  "гражданам</w>": 9338,
  "рые</w>": 9339,
  "парни": 9340,
  "ВОПРО": 9341,
  "властям</w>": 9342,
  "целесообразно</w>": 9343,
  "Вашей</w>": 9344,
  "Пари": 9345,
  "вступ": 9346,
  "обязатель": 9347,
  "зировать</w>": 9348,
  "бой": 9349,
  "тела</w>": 9350,
  "дий</w>": 9351,
  "види": 9352,
  "смотреть</w>": 9353,
  "блоки": 9354,
  "личного</w>": 9355,
  "стре</w>": 9356,
  "Греции</w>": 9357,
  "Кении</w>": 9358,
  "снения</w>": 9359,
  "ходы</w>": 9360,
  "рекомендация</w>": 9361,
  "сталки": 9362,
  "узна": 9363,
  "комфор": 9364,
  "ью": 9365,
  "возраст</w>": 9366,
  "включен</w>": 9367,
  "регулярной</w>": 9368,
  "обращении</w>": 9369,
  "Данный</w>": 9370,
  "вляет</w>": 9371,
  "двум</w>": 9372,
  "son": 9373,
  "элемента</w>": 9374,
  "Премьер</w>": 9375,
  "стры</w>": 9376,
  "указаний</w>": 9377,
  "age</w>": 9378,
  "сная</w>": 9379,
  "база</w>": 9380,
  "офи": 9381,
  "увидеть</w>": 9382,
  "понедельник</w>": 9383,
  "конкурен": 9384,
  "Гар": 9385,
  "сви": 9386,
  "проектах</w>": 9387,
  "edn": 9388,
  "израильских</w>": 9389,
  "станций</w>": 9390,
  "туристи": 9391,
  "юсь</w>": 9392,
  "info</w>": 9393,
  "террори": 9394,
  "Болгарии</w>": 9395,
  "лого</w>": 9396,
  "подверг": 9397,
  "Авгу": 9398,
  "тическом</w>": 9399,
  "территориальной</w>": 9400,
  "Пен": 9401,
  "стек": 9402,
  "119</w>": 9403,
  "Перво": 9404,
  "функционирование</w>": 9405,
  "субсидий</w>": 9406,
  "устранить</w>": 9407,
  "бума": 9408,
  "код</w>": 9409,
  "дут</w>": 9410,
  "темпов</w>": 9411,
  "Посол</w>": 9412,
  "процент</w>": 9413,
  "сельской</w>": 9414,
  "чами</w>": 9415,
  "заказ": 9416,
  "Мак": 9417,
  "успе": 9418,
  "Вир": 9419,
  "ставление</w>": 9420,
  "мероприятие</w>": 9421,
  "IM": 9422,
  "щаются</w>": 9423,
  "плен": 9424,
  "агрессии</w>": 9425,
  "тив": 9426,
  "возрос": 9427,
  "трудностями</w>": 9428,
  "Венгрии</w>": 9429,
  "двадца": 9430,
  "ктора</w>": 9431,
  "способов</w>": 9432,
  "некоторым</w>": 9433,
  "основная</w>": 9434,
  "призвать</w>": 9435,
  "природы</w>": 9436,
  "представителю</w>": 9437,
  "плата</w>": 9438,
  "ОПЕ": 9439,
  "Само": 9440,
  "устанавливает</w>": 9441,
  "вит</w>": 9442,
  "Сре": 9443,
  "Ассоциации</w>": 9444,
  "Словения</w>": 9445,
  "ome</w>": 9446,
  "десять</w>": 9447,
  "44": 9448,
  "финансированием</w>": 9449,
  "06.": 9450,
  "читать</w>": 9451,
  "Ши": 9452,
  "геноцида</w>": 9453,
  "поблагодарить</w>": 9454,
  "документу</w>": 9455,
  "исполня": 9456,
  "свой": 9457,
  "мей": 9458,
  "каком</w>": 9459,
  "контролировать</w>": 9460,
  "определяются</w>": 9461,
  "ционно</w>": 9462,
  "долга</w>": 9463,
  "енность</w>": 9464,
  "Эффек": 9465,
  "намерение</w>": 9466,
  "рубежом</w>": 9467,
  "представит</w>": 9468,
  "Впоследствии</w>": 9469,
  "Кин": 9470,
  "звен": 9471,
  "сочетании</w>": 9472,
  "так": 9473,
  "пись": 9474,
  "религиозной</w>": 9475,
  "СП</w>": 9476,
  "боевых</w>": 9477,
  "заявок</w>": 9478,
  "действительности</w>": 9479,
  "самих</w>": 9480,
  "fe": 9481,
  "иниции": 9482,
  "тельствам</w>": 9483,
  "A.": 9484,
  "служат</w>": 9485,
  "заявки</w>": 9486,
  "концеп": 9487,
  "квартире</w>": 9488,
  "la</w>": 9489,
  "Последний</w>": 9490,
  "частные</w>": 9491,
  "Кли": 9492,
  "возможное</w>": 9493,
  "actu": 9494,
  "электроэнергии</w>": 9495,
  "дж</w>": 9496,
  "нуждаются</w>": 9497,
  "пожалуйста</w>": 9498,
  "результативности</w>": 9499,
  "документа": 9500,
  "индек": 9501,
  "транзита</w>": 9502,
  "Лихтен": 9503,
  "подлежит</w>": 9504,
  "виться</w>": 9505,
  "кожи</w>": 9506,
  "созданием</w>": 9507,
  "электронная</w>": 9508,
  "трудоустройства</w>": 9509,
  "выжи": 9510,
  "Наши</w>": 9511,
  "недвижимости</w>": 9512,
  "уси": 9513,
  "лесного</w>": 9514,
  "издания</w>": 9515,
  "коди": 9516,
  "ес": 9517,
  "спокой": 9518,
  "страция</w>": 9519,
  "ровались</w>": 9520,
  "of": 9521,
  "Соответственно</w>": 9522,
  "дин": 9523,
  "Апре": 9524,
  "me</w>": 9525,
  "рующей</w>": 9526,
  "ростом</w>": 9527,
  "предпринимать</w>": 9528,
  "Мари": 9529,
  "мина</w>": 9530,
  "ТС</w>": 9531,
  "Че": 9532,
  "сжи": 9533,
  "снаб": 9534,
  "Первая</w>": 9535,
  "лока": 9536,
  "быстрого</w>": 9537,
  "существованию</w>": 9538,
  "IP</w>": 9539,
  "отказаться</w>": 9540,
  "дит</w>": 9541,
  "bu": 9542,
  "рит</w>": 9543,
  "принятием</w>": 9544,
  "вное</w>": 9545,
  "комитете</w>": 9546,
  "источник</w>": 9547,
  "населенным</w>": 9548,
  "ускорить</w>": 9549,
  "обога": 9550,
  "личной</w>": 9551,
  "почто": 9552,
  "годовой</w>": 9553,
  "Предварительная</w>": 9554,
  "метр</w>": 9555,
  "лично</w>": 9556,
  "ляция</w>": 9557,
  "запрет</w>": 9558,
  "СКО": 9559,
  "пользу": 9560,
  "базовых</w>": 9561,
  "Ито": 9562,
  "хотят</w>": 9563,
  "принятым</w>": 9564,
  "рисками</w>": 9565,
  "чил</w>": 9566,
  "вру": 9567,
  "самоуправления</w>": 9568,
  "подстре": 9569,
  "Рим": 9570,
  "препрово": 9571,
  "семьям</w>": 9572,
  "ФУ</w>": 9573,
  "Туни": 9574,
  "нному</w>": 9575,
  "гой</w>": 9576,
  "сомнения</w>": 9577,
  "перемен": 9578,
  "Ap": 9579,
  "дополнительный</w>": 9580,
  "министерством</w>": 9581,
  "эффективную</w>": 9582,
  "один": 9583,
  "завершение</w>": 9584,
  "сильно</w>": 9585,
  "Организа": 9586,
  "тает</w>": 9587,
  "нуждается</w>": 9588,
  "предыдущего</w>": 9589,
  "подтверждения</w>": 9590,
  "сва": 9591,
  "пассажиров</w>": 9592,
  "предотвращение</w>": 9593,
  "согласились</w>": 9594,
  "примером</w>": 9595,
  "Важно</w>": 9596,
  "конфликт</w>": 9597,
  "сек</w>": 9598,
  "совсем</w>": 9599,
  "дель": 9600,
  "полицей": 9601,
[...]
